{
  "version": "1.0",
  "truncation": {
    "direction": "Right",
    "max_length": 256,
    "strategy": "LongestFirst",
    "stride": 0
  },
  "padding": {
    "strategy": {
      "Fixed": 256
    },
    "direction": "Right",
    "pad_to_multiple_of": null,
    "pad_id": 0,
    "pad_type_id": 0,
    "pad_token": "[PAD]"
  },
  "added_tokens": [
    {
      "id": 0,
      "content": "[PAD]",
      "single_word": false,
      "lstrip": false,
      "rstrip": false,
      "normalized": false,
      "special": true
    },
    {
      "id": 100,
      "content": "[UNK]",
      "single_word": false,
      "lstrip": false,
      "rstrip": false,
      "normalized": false,
      "special": true
    },
    {
      "id": 101,
      "content": "[CLS]",
      "single_word": false,
      "lstrip": false,
      "rstrip": false,
      "normalized": false,
      "special": true
    },
    {
      "id": 102,
      "content": "[SEP]",
      "single_word": false,
      "lstrip": false,
      "rstrip": false,
      "normalized": false,
      "special": true
    },
    {
      "id": 103,
      "content": "[MASK]",
      "single_word": false,
      "lstrip": false,
      "rstrip": false,
      "normalized": false,
      "special": true
    }
  ],
  "normalizer": {
    "type": "BertNormalizer",
    "clean_text": true,
    "handle_chinese_chars": true,
    "strip_accents": null,
    "lowercase": true
  },
  "pre_tokenizer": {
    "type": "BertPreTokenizer"
  },
  "post_processor": {
    "type": "TemplateProcessing",
    "single": [
      {
        "SpecialToken": {
          "id": "[CLS]",
          "type_id": 0
        }
      },
      {
        "Sequence": {
          "id": "A",
          "type_id": 0
        }
      },
      {
        "SpecialToken": {
          "id": "[SEP]",
          "type_id": 0
        }
      }
    ],
    "pair": [
      {
        "SpecialToken": {
          "id": "[CLS]",
          "type_id": 0
        }
      },
      {
        "Sequence": {
          "id": "A",
          "type_id": 0
        }
      },
      {
        "SpecialToken": {
          "id": "[SEP]",
          "type_id": 0
        }
      },
      {
        "Sequence": {
          "id": "B",
          "type_id": 1
        }
      },
      {
        "SpecialToken": {
          "id": "[SEP]",
          "type_id": 1
        }
      }
    ],
    "special_tokens": {
      "[CLS]": {
        "id": "[CLS]",
        "ids": [
          101
        ],
        "tokens": [
          "[CLS]"
        ]
      },
      "[SEP]": {
        "id": "[SEP]",
        "ids": [
          102
        ],
        "tokens": [
          "[SEP]"
        ]
      }
    }
  },
  "decoder": {
    "type": "WordPiece",
    "prefix": "##",
    "cleanup": true
  },
  "model": {
    "type": "WordPiece",
    "unk_token": "[UNK]",
    "continuing_subword_prefix": "##",
    "max_input_chars_per_word": 100,
    "vocab": {
      "[PAD]": 0,
      "[unused1]": 1,
      "[unused2]": 2,
      "[unused3]": 3,
      "[unused4]": 4,
      "[unused5]": 5,
      "[unused6]": 6,
      "[unused7]": 7,
      "[unused8]": 8,
      "[unused9]": 9,
      "[unused10]": 10,
      "[unused11]": 11,
      "[unused12]": 12,
      "[unused13]": 13,
      "[unused14]": 14,
      "[unused15]": 15,
      "[unused16]": 16,
      "[unused17]": 17,
      "[unused18]": 18,
      "[unused19]": 19,
      "[unused20]": 20,
      "[unused21]": 21,
      "[unused22]": 22,
      "[unused23]": 23,
      "[unused24]": 24,
      "[unused25]": 25,
      "[unused26]": 26,
      "[unused27]": 27,
      "[unused28]": 28,
      "[unused29]": 29,
      "[unused30]": 30,
      "[unused31]": 31,
      "[unused32]": 32,
      "[unused33]": 33,
      "[unused34]": 34,
      "[unused35]": 35,
      "[unused36]": 36,
      "[unused37]": 37,
      "[unused38]": 38,
      "[unused39]": 39,
      "[unused40]": 40,
      "[unused41]": 41,
      "[unused42]": 42,
      "[unused43]": 43,
      "[unused44]": 44,
      "[unused45]": 45,
      "[unused46]": 46,
      "[unused47]": 47,
      "[unused48]": 48,
      "[unused49]": 49,
      "[unused50]": 50,
      "[unused51]": 51,
      "[unused52]": 52,
      "[unused53]": 53,
      "[unused54]": 54,
      "[unused55]": 55,
      "[unused56]": 56,
      "[unused57]": 57,
      "[unused58]": 58,
      "[unused59]": 59,
      "[unused60]": 60,
      "[unused61]": 61,
      "[unused62]": 62,
      "[unused63]": 63,
      "[unused64]": 64,
      "[unused65]": 65,
      "[unused66]": 66,
      "[unused67]": 67,
      "[unused68]": 68,
      "[unused69]": 69,
      "[unused70]": 70,
      "[unused71]": 71,
      "[unused72]": 72,
      "[unused73]": 73,
      "[unused74]": 74,
      "[unused75]": 75,
      "[unused76]": 76,
      "[unused77]": 77,
      "[unused78]": 78,
      "[unused79]": 79,
      "[unused80]": 80,
      "[unused81]": 81,
      "[unused82]": 82,
      "[unused83]": 83,
      "[unused84]": 84,
      "[unused85]": 85,
      "[unused86]": 86,
      "[unused87]": 87,
      "[unused88]": 88,
      "[unused89]": 89,
      "[unused90]": 90,
      "[unused91]": 91,
      "[unused92]": 92,
      "[unused93]": 93,
      "[unused94]": 94,
      "[unused95]": 95,
      "[unused96]": 96,
      "[unused97]": 97,
      "[unused98]": 98,
      "[unused99]": 99,
      "[UNK]": 100,
      "[CLS]": 101,
      "[SEP]": 102,
      "[MASK]": 103,
      "*": 104,
      "##in": 105,
      "a": 106,
      "t": 107,
      "##on": 108,
      "##re": 109,
      "##at": 110,
      "##he": 111,
      ".": 112,
      "##al": 113,
      "##en": 114,
      "##er": 115,
      "##or": 116,
      "s": 117,
      "##ed": 118,
      ",": 119,
      "##is": 120,
      ":": 121,
      "p": 122,
      "c": 123,
      "##it": 124,
      "##es": 125,
      "w": 126,
      "##ion": 127,
      "m": 128,
      "##ic": 129,
      "o": 130,
      "f": 131,
      "##nd": 132,
      "d": 133,
      "the": 134,
      "D": 135,
      "[": 136,
      "]": 137,
      "##as": 138,
      "##le": 139,
      "##ar": 140,
      "-": 141,
      "b": 142,
      "##ent": 143,
      "##an": 144,
      "in": 145,
      "P": 146,
      "1": 147,
      "N": 148,
      "##ou": 149,
      "and": 150,
      "C": 151,
      "T": 152,
      "##ing": 153,
      "of": 154,
      "n": 155,
      "##ro": 156,
      "S": 157,
      "A": 158,
      ")": 159,
      "(": 160,
      "##AT": 161,
      "M": 162,
      "##ct": 163,
      "re": 164,
      "to": 165,
      "I": 166,
      "h": 167,
      "##il": 168,
      "##ve": 169,
      "/": 170,
      "##om": 171,
      "##ation": 172,
      "2": 173,
      "R": 174,
      "e": 175,
      "H": 176,
      "##ATE": 177,
      "DATE": 178,
      "##ul": 179,
      "L": 180,
      "##ol": 181,
      "##us": 182,
      "##ot": 183,
      "l": 184,
      "##os": 185,
      "##ig": 186,
      "##id": 187,
      "##ith": 188,
      "with": 189,
      "##el": 190,
      "E": 191,
      "##im": 192,
      "##ur": 193,
      "for": 194,
      "##et": 195,
      "##ati": 196,
      "th": 197,
      "O": 198,
      "##ra": 199,
      "is": 200,
      "##ly": 201,
      "##ON": 202,
      "•": 203,
      "3": 204,
      "##ce": 205,
      "##ab": 206,
      "F": 207,
      "B": 208,
      "##ist": 209,
      "st": 210,
      "##ow": 211,
      "##ut": 212,
      "g": 213,
      "##res": 214,
      "on": 215,
      "##st": 216,
      "or": 217,
      "##AM": 218,
      "##am": 219,
      "##if": 220,
      "0": 221,
      "The": 222,
      "##ter": 223,
      "##ate": 224,
      "##em": 225,
      "y": 226,
      "##ac": 227,
      "v": 228,
      "con": 229,
      "##ain": 230,
      "##th": 231,
      "##um": 232,
      "as": 233,
      "##od": 234,
      "he": 235,
      "##orm": 236,
      "##ical": 237,
      "##AME": 238,
      "NAME": 239,
      "##atient": 240,
      "##op": 241,
      "an": 242,
      "##ge": 243,
      "4": 244,
      "was": 245,
      "##ec": 246,
      "##ay": 247,
      "at": 248,
      "r": 249,
      "##ess": 250,
      "pro": 251,
      "##oc": 252,
      "##ment": 253,
      "5": 254,
      "by": 255,
      "##ere": 256,
      "##igh": 257,
      "##ated": 258,
      "##ver": 259,
      "##our": 260,
      "##ad": 261,
      "##ri": 262,
      "u": 263,
      "##ect": 264,
      "G": 265,
      "##ir": 266,
      "##ION": 267,
      "_": 268,
      "ex": 269,
      "V": 270,
      "be": 271,
      "W": 272,
      "##nt": 273,
      "##ine": 274,
      "##able": 275,
      "##est": 276,
      "##ure": 277,
      "No": 278,
      "##pp": 279,
      "al": 280,
      "##OC": 281,
      "##ight": 282,
      "##ch": 283,
      "##ity": 284,
      "##ory": 285,
      "##ast": 286,
      "10": 287,
      "##ak": 288,
      "no": 289,
      "##se": 290,
      "##ult": 291,
      "##og": 292,
      "##ial": 293,
      "##ive": 294,
      "##iv": 295,
      "##ia": 296,
      "##her": 297,
      "##ATION": 298,
      "not": 299,
      "U": 300,
      "##ell": 301,
      "##ort": 302,
      "##qu": 303,
      "ne": 304,
      "LOC": 305,
      "9": 306,
      "are": 307,
      ";": 308,
      "6": 309,
      "##omp": 310,
      "##ies": 311,
      "##ill": 312,
      "\"": 313,
      "##ormal": 314,
      "##ep": 315,
      "ch": 316,
      "le": 317,
      "LOCATION": 318,
      "##end": 319,
      "##ER": 320,
      "##rom": 321,
      "In": 322,
      "that": 323,
      "patient": 324,
      "##ant": 325,
      "per": 326,
      "##ress": 327,
      "##IN": 328,
      "##ST": 329,
      "##.0": 330,
      "##hy": 331,
      "##IT": 332,
      "##ations": 333,
      "##art": 334,
      "sp": 335,
      "##ase": 336,
      "##vi": 337,
      "dis": 338,
      "##ative": 339,
      "##act": 340,
      "##ions": 341,
      "su": 342,
      "##pt": 343,
      "%": 344,
      "##ign": 345,
      "##ue": 346,
      "##iz": 347,
      "##ail": 348,
      "##are": 349,
      "##ud": 350,
      "##istory": 351,
      "res": 352,
      "Ne": 353,
      "<": 354,
      "7": 355,
      ">": 356,
      "##one": 357,
      "##un": 358,
      "##ef": 359,
      "ab": 360,
      "8": 361,
      "k": 362,
      "##ous": 363,
      "##all": 364,
      "20": 365,
      "##ary": 366,
      "##ip": 367,
      "se": 368,
      "were": 369,
      "ha": 370,
      "##ew": 371,
      "mg": 372,
      "##edic": 373,
      "cont": 374,
      "us": 375,
      "ad": 376,
      "wh": 377,
      "##ake": 378,
      "from": 379,
      "##ag": 380,
      "##ib": 381,
      "##ablet": 382,
      "'": 383,
      "##ard": 384,
      "##ore": 385,
      "##ear": 386,
      "your": 387,
      "##ph": 388,
      "comp": 389,
      "sh": 390,
      "##per": 391,
      "##ff": 392,
      "app": 393,
      "has": 394,
      "##ans": 395,
      "##ont": 396,
      "we": 397,
      "##ft": 398,
      "this": 399,
      "normal": 400,
      "ac": 401,
      "im": 402,
      "He": 403,
      "IN": 404,
      "##ther": 405,
      "inc": 406,
      "pain": 407,
      "##ime": 408,
      "##uc": 409,
      "pl": 410,
      "##CT": 411,
      "=": 412,
      "Res": 413,
      "##ound": 414,
      "##reat": 415,
      "##ular": 416,
      "MG": 417,
      "##low": 418,
      "##ile": 419,
      "##ru": 420,
      "##ld": 421,
      "##ral": 422,
      "12": 423,
      "cl": 424,
      "Pro": 425,
      "int": 426,
      "have": 427,
      "##aily": 428,
      "##ction": 429,
      "##ens": 430,
      "Patient": 431,
      "MD": 432,
      "St": 433,
      "##.5": 434,
      "Re": 435,
      "##ition": 436,
      "##ub": 437,
      "##RE": 438,
      "##outh": 439,
      "##ap": 440,
      "History": 441,
      "##00": 442,
      "##ers": 443,
      "daily": 444,
      "##ood": 445,
      "##ym": 446,
      "inf": 447,
      "rep": 448,
      "Y": 449,
      "##olog": 450,
      "Th": 451,
      "you": 452,
      "##out": 453,
      "##view": 454,
      "##UT": 455,
      "##gative": 456,
      "·": 457,
      "11": 458,
      "pre": 459,
      "##inal": 460,
      "##EN": 461,
      "ID": 462,
      "##ost": 463,
      "##vid": 464,
      "##ater": 465,
      "Al": 466,
      "##ance": 467,
      "mouth": 468,
      "##IC": 469,
      "Date": 470,
      "de": 471,
      "can": 472,
      "##ome": 473,
      "##AL": 474,
      "##ric": 475,
      "pres": 476,
      "rec": 477,
      "##vel": 478,
      "##ital": 479,
      "##ace": 480,
      "##age": 481,
      "Take": 482,
      "##ific": 483,
      "##iff": 484,
      "##ass": 485,
      "sign": 486,
      "##ange": 487,
      "sc": 488,
      "##ual": 489,
      "0.": 490,
      "##and": 491,
      "##erg": 492,
      "left": 493,
      "##val": 494,
      "un": 495,
      "up": 496,
      "##its": 497,
      "##rol": 498,
      "##yp": 499,
      "tr": 500,
      "##ence": 501,
      "Ex": 502,
      "##ollow": 503,
      "##ose": 504,
      "##ied": 505,
      "##ide": 506,
      "##ness": 507,
      "##ord": 508,
      "K": 509,
      "##gh": 510,
      "##pl": 511,
      "INST": 512,
      "##omm": 513,
      "##ET": 514,
      "##UTE": 515,
      "##ild": 516,
      "##OR": 517,
      "There": 518,
      "She": 519,
      "##ys": 520,
      "##yst": 521,
      "ar": 522,
      "##int": 523,
      "##ITUTE": 524,
      "INSTITUTE": 525,
      "##ased": 526,
      "##urg": 527,
      "##ne": 528,
      "##ron": 529,
      "need": 530,
      "her": 531,
      "##enc": 532,
      "day": 533,
      "##hys": 534,
      "##ough": 535,
      "CON": 536,
      "15": 537,
      "##osis": 538,
      "##ok": 539,
      "Not": 540,
      "##urre": 541,
      "##TA": 542,
      "##form": 543,
      "will": 544,
      "di": 545,
      "##te": 546,
      "ind": 547,
      "##ind": 548,
      "##own": 549,
      "##ich": 550,
      "##ang": 551,
      "right": 552,
      "##TH": 553,
      "##edical": 554,
      "medic": 555,
      "Ch": 556,
      "ass": 557,
      "Tablet": 558,
      "##cer": 559,
      "##ice": 560,
      "##ob": 561,
      "##hen": 562,
      "me": 563,
      "##ale": 564,
      "Con": 565,
      "stud": 566,
      "ED": 567,
      "ob": 568,
      "Dis": 569,
      "reg": 570,
      "time": 571,
      "bl": 572,
      "##ould": 573,
      "?": 574,
      "##atus": 575,
      "##ults": 576,
      "##ced": 577,
      "##ings": 578,
      "Negative": 579,
      "cell": 580,
      "##ss": 581,
      "AM": 582,
      "14": 583,
      "##gn": 584,
      "care": 585,
      "follow": 586,
      "which": 587,
      "ref": 588,
      "act": 589,
      "##viewed": 590,
      "13": 591,
      "##ack": 592,
      "ag": 593,
      "PM": 594,
      "+": 595,
      "##ved": 596,
      "##ED": 597,
      "19": 598,
      "Q": 599,
      "Medic": 600,
      "##ates": 601,
      "°": 602,
      "##.1": 603,
      "##cri": 604,
      "##urrent": 605,
      "##fter": 606,
      "inter": 607,
      "well": 608,
      "tablet": 609,
      "##ble": 610,
      "present": 611,
      "##ONE": 612,
      "Oral": 613,
      "mm": 614,
      "pos": 615,
      "##.7": 616,
      "100": 617,
      "Sp": 618,
      "##ute": 619,
      "##.2": 620,
      "cons": 621,
      "##ors": 622,
      "We": 623,
      "PR": 624,
      "do": 625,
      "dist": 626,
      "she": 627,
      "imp": 628,
      "##ject": 629,
      "30": 630,
      "##ery": 631,
      "x": 632,
      "##lect": 633,
      "This": 634,
      "##cess": 635,
      "been": 636,
      "eff": 637,
      "PH": 638,
      "##ression": 639,
      "all": 640,
      "##ified": 641,
      "##.9": 642,
      "vis": 643,
      "diff": 644,
      "Comp": 645,
      "##ears": 646,
      "16": 647,
      "##rap": 648,
      "##ures": 649,
      "but": 650,
      "##hed": 651,
      "##THER": 652,
      "it": 653,
      "##ree": 654,
      "##ite": 655,
      "##ardi": 656,
      "trans": 657,
      "##lu": 658,
      "OTHER": 659,
      "fe": 660,
      "##ely": 661,
      "##umb": 662,
      "history": 663,
      "##ident": 664,
      "##so": 665,
      "##hest": 666,
      "##OS": 667,
      "##ally": 668,
      "may": 669,
      "##.8": 670,
      "##oint": 671,
      "##.6": 672,
      "hour": 673,
      "##arge": 674,
      "##ach": 675,
      "had": 676,
      "##.3": 677,
      "report": 678,
      "mon": 679,
      "file": 680,
      "qu": 681,
      "##OL": 682,
      "##aus": 683,
      "All": 684,
      "other": 685,
      "##valu": 686,
      "##.4": 687,
      "gen": 688,
      "##dom": 689,
      "min": 690,
      "#": 691,
      "##ms": 692,
      "##ry": 693,
      "##lud": 694,
      "##AN": 695,
      "##kin": 696,
      "##TACT": 697,
      "##amin": 698,
      "Z": 699,
      "##iss": 700,
      "CONTACT": 701,
      "##ond": 702,
      "##iagn": 703,
      "reviewed": 704,
      "##ted": 705,
      "##ES": 706,
      "J": 707,
      "##nal": 708,
      "am": 709,
      "Ab": 710,
      "|": 711,
      "##ments": 712,
      "##ium": 713,
      "kg": 714,
      "##red": 715,
      "after": 716,
      "##ks": 717,
      "##alth": 718,
      "provid": 719,
      "##ology": 720,
      "##rop": 721,
      "also": 722,
      "18": 723,
      "pt": 724,
      "his": 725,
      "font": 726,
      "met": 727,
      "any": 728,
      "OR": 729,
      "##ENT": 730,
      "col": 731,
      "##ame": 732,
      "##ID": 733,
      "##ily": 734,
      "24": 735,
      "##hes": 736,
      "##rad": 737,
      "##AR": 738,
      "##ong": 739,
      "ext": 740,
      "sub": 741,
      "li": 742,
      "##pir": 743,
      "##ruct": 744,
      "ser": 745,
      "##tain": 746,
      "##imes": 747,
      "out": 748,
      "##OM": 749,
      "##IL": 750,
      "An": 751,
      "en": 752,
      "X": 753,
      "low": 754,
      "##ove": 755,
      "und": 756,
      "##ease": 757,
      "##ize": 758,
      "rel": 759,
      "25": 760,
      "##alue": 761,
      "disc": 762,
      "Ad": 763,
      "##lease": 764,
      "##ax": 765,
      "None": 766,
      "##ITY": 767,
      "##IS": 768,
      "##atory": 769,
      "##ered": 770,
      "##ract": 771,
      "##mok": 772,
      "##itis": 773,
      "##day": 774,
      "##ke": 775,
      "##ici": 776,
      "includ": 777,
      "over": 778,
      "bet": 779,
      "##ities": 780,
      "40": 781,
      "test": 782,
      "mL": 783,
      "so": 784,
      "##uring": 785,
      "##ex": 786,
      "hours": 787,
      "exp": 788,
      "##vent": 789,
      "Cl": 790,
      "##OP": 791,
      "##erent": 792,
      "201": 793,
      "ST": 794,
      "incre": 795,
      "TA": 796,
      "##rain": 797,
      "PHONE": 798,
      "##very": 799,
      "use": 800,
      "&": 801,
      "##ility": 802,
      "hy": 803,
      "##dition": 804,
      "##co": 805,
      "##nown": 806,
      "Pt": 807,
      "##usc": 808,
      "without": 809,
      "##ically": 810,
      "##oth": 811,
      "study": 812,
      "##ocial": 813,
      "Pul": 814,
      "than": 815,
      "signific": 816,
      "##erm": 817,
      "##ystem": 818,
      "Ref": 819,
      "activ": 820,
      "times": 821,
      "treat": 822,
      "wee": 823,
      "Im": 824,
      "Phys": 825,
      "Pl": 826,
      "pers": 827,
      "if": 828,
      "##CH": 829,
      "##AS": 830,
      "j": 831,
      "##ection": 832,
      "Normal": 833,
      "0.0": 834,
      "On": 835,
      "##ution": 836,
      "##ren": 837,
      "span": 838,
      "##rem": 839,
      "##ating": 840,
      "mod": 841,
      "##indings": 842,
      "under": 843,
      "perform": 844,
      "significant": 845,
      "part": 846,
      "##ox": 847,
      "##ized": 848,
      "show": 849,
      "##ics": 850,
      "sym": 851,
      "##alc": 852,
      "##ING": 853,
      "clin": 854,
      "##ount": 855,
      "PO": 856,
      "##uss": 857,
      "Value": 858,
      "00": 859,
      "more": 860,
      "##ath": 861,
      "##we": 862,
      "21": 863,
      "##amily": 864,
      "EX": 865,
      "##ateral": 866,
      "level": 867,
      "##du": 868,
      "##ule": 869,
      "##emp": 870,
      "##itive": 871,
      "ed": 872,
      "##ov": 873,
      "##anc": 874,
      "##arg": 875,
      "CITY": 876,
      "200": 877,
      "50": 878,
      "##charge": 879,
      "Ass": 880,
      "##cular": 881,
      "disease": 882,
      "##cript": 883,
      "##sy": 884,
      "##iated": 885,
      "##ata": 886,
      "Range": 887,
      "##let": 888,
      "##yt": 889,
      "##ause": 890,
      "At": 891,
      "rem": 892,
      "Int": 893,
      "##cedure": 894,
      "needed": 895,
      "##IP": 896,
      "##lic": 897,
      "##unction": 898,
      "dec": 899,
      "##omy": 900,
      "##ole": 901,
      "results": 902,
      "call": 903,
      "ant": 904,
      "days": 905,
      "##ues": 906,
      "Allerg": 907,
      "wor": 908,
      "##atic": 909,
      "##BC": 910,
      "size": 911,
      "Ac": 912,
      "##ven": 913,
      "ph": 914,
      "##ptom": 915,
      "##oid": 916,
      "surg": 917,
      "##up": 918,
      "patients": 919,
      "non": 920,
      "medications": 921,
      "effect": 922,
      "man": 923,
      "BP": 924,
      "##AD": 925,
      "whe": 926,
      "##ension": 927,
      "using": 928,
      "36": 929,
      "gr": 930,
      "person": 931,
      "##ech": 932,
      "spec": 933,
      "Un": 934,
      "cells": 935,
      "##velop": 936,
      "these": 937,
      "##UL": 938,
      "Lab": 939,
      "##osp": 940,
      "medical": 941,
      "##MP": 942,
      "##onary": 943,
      "requ": 944,
      "tw": 945,
      "Cont": 946,
      "##rect": 947,
      "used": 948,
      "resp": 949,
      "contin": 950,
      "def": 951,
      "det": 952,
      "##usion": 953,
      "##ype": 954,
      "dL": 955,
      "Time": 956,
      "during": 957,
      "##umber": 958,
      "##lear": 959,
      "chang": 960,
      "##valuation": 961,
      "##row": 962,
      "##oup": 963,
      "##ram": 964,
      "blood": 965,
      "##ert": 966,
      "##essment": 967,
      "acc": 968,
      "child": 969,
      "##ior": 970,
      "##other": 971,
      "cm": 972,
      "adm": 973,
      "Social": 974,
      "FL": 975,
      "who": 976,
      "17": 977,
      "today": 978,
      "co": 979,
      "##erv": 980,
      "Medical": 981,
      "##vious": 982,
      "##rior": 983,
      "ORD": 984,
      "22": 985,
      "##ran": 986,
      "treatment": 987,
      "##oun": 988,
      "##aps": 989,
      "##ting": 990,
      "control": 991,
      "cor": 992,
      "develop": 993,
      "EXAM": 994,
      "health": 995,
      "Temp": 996,
      "MR": 997,
      "sec": 998,
      "negative": 999,
      "##cc": 1000,
      "one": 1001,
      "##ween": 1002,
      "##der": 1003,
      "Medications": 1004,
      "Smok": 1005,
      "RE": 1006,
      "bil": 1007,
      "##BL": 1008,
      "##als": 1009,
      "##ency": 1010,
      "##struct": 1011,
      "Exam": 1012,
      "pul": 1013,
      "##ari": 1014,
      "every": 1015,
      "between": 1016,
      "current": 1017,
      "status": 1018,
      "##ascular": 1019,
      "##ning": 1020,
      "##ender": 1021,
      "Dep": 1022,
      "Yes": 1023,
      "Status": 1024,
      "##ature": 1025,
      "seen": 1026,
      "##ick": 1027,
      "Act": 1028,
      "when": 1029,
      "##ict": 1030,
      "ins": 1031,
      "##ospital": 1032,
      "##ung": 1033,
      "##ody": 1034,
      "##ons": 1035,
      "##rough": 1036,
      "##ptoms": 1037,
      "em": 1038,
      "##iagnosis": 1039,
      "##hem": 1040,
      "##aint": 1041,
      "chest": 1042,
      "##ode": 1043,
      "mass": 1044,
      "##ending": 1045,
      "anal": 1046,
      "des": 1047,
      "supp": 1048,
      "med": 1049,
      "abdom": 1050,
      "Dr": 1051,
      "dep": 1052,
      "div": 1053,
      "Sc": 1054,
      "##ise": 1055,
      "##les": 1056,
      "performed": 1057,
      "##ected": 1058,
      "##SS": 1059,
      "##eral": 1060,
      "Col": 1061,
      "##eck": 1062,
      "Sign": 1063,
      "##iat": 1064,
      "gl": 1065,
      "If": 1066,
      "fem": 1067,
      "##ement": 1068,
      "##lex": 1069,
      "##ark": 1070,
      "##rug": 1071,
      "##isk": 1072,
      "##ization": 1073,
      "##rit": 1074,
      "place": 1075,
      "hem": 1076,
      "ro": 1077,
      "CT": 1078,
      "Rec": 1079,
      "high": 1080,
      "Neu": 1081,
      "into": 1082,
      "##ible": 1083,
      "car": 1084,
      "back": 1085,
      "##emb": 1086,
      "##oph": 1087,
      "##tein": 1088,
      "##rac": 1089,
      "##eft": 1090,
      "##pert": 1091,
      "##iven": 1092,
      "within": 1093,
      "CH": 1094,
      "noted": 1095,
      "##ysis": 1096,
      "new": 1097,
      "##ever": 1098,
      "visit": 1099,
      "##str": 1100,
      "Cardi": 1101,
      "##NA": 1102,
      "inv": 1103,
      "##cept": 1104,
      "comm": 1105,
      "##normal": 1106,
      "##OD": 1107,
      "##rial": 1108,
      "60": 1109,
      "sin": 1110,
      "symptoms": 1111,
      "sm": 1112,
      "group": 1113,
      "##ust": 1114,
      "month": 1115,
      "ret": 1116,
      "##OT": 1117,
      "##cop": 1118,
      "Other": 1119,
      "##monary": 1120,
      "IV": 1121,
      "##rapy": 1122,
      "discuss": 1123,
      "##enies": 1124,
      "att": 1125,
      "Left": 1126,
      "##sp": 1127,
      "##rolog": 1128,
      "flu": 1129,
      "##piratory": 1130,
      "data": 1131,
      "two": 1132,
      "##ounds": 1133,
      "##ages": 1134,
      "##ronic": 1135,
      "##gest": 1136,
      "##reath": 1137,
      "##UR": 1138,
      "Inter": 1139,
      "By": 1140,
      "##arm": 1141,
      "Right": 1142,
      "##duc": 1143,
      "##ulation": 1144,
      "##yle": 1145,
      "##hib": 1146,
      "form": 1147,
      "##olic": 1148,
      "inform": 1149,
      "Physical": 1150,
      "there": 1151,
      "##OB": 1152,
      "##EL": 1153,
      "should": 1154,
      "PRN": 1155,
      "##INE": 1156,
      "##IA": 1157,
      "Pulse": 1158,
      "Gen": 1159,
      "sw": 1160,
      "##IV": 1161,
      "found": 1162,
      "prior": 1163,
      "years": 1164,
      "bel": 1165,
      "head": 1166,
      "proble": 1167,
      "about": 1168,
      "##ving": 1169,
      "32": 1170,
      "##ision": 1171,
      "findings": 1172,
      "##MS": 1173,
      "##ended": 1174,
      "acute": 1175,
      "Pain": 1176,
      "##rim": 1177,
      "year": 1178,
      "discharge": 1179,
      "post": 1180,
      "##ared": 1181,
      "##yl": 1182,
      "changes": 1183,
      "##ient": 1184,
      "phys": 1185,
      "dem": 1186,
      "Pre": 1187,
      "##10": 1188,
      "due": 1189,
      "evid": 1190,
      "obtain": 1191,
      "their": 1192,
      "##ening": 1193,
      "98": 1194,
      "activity": 1195,
      "ident": 1196,
      "##gen": 1197,
      "past": 1198,
      "exam": 1199,
      "##ines": 1200,
      "##sych": 1201,
      "##hol": 1202,
      "23": 1203,
      "Assessment": 1204,
      "following": 1205,
      "##onent": 1206,
      "fl": 1207,
      "##urn": 1208,
      "##fore": 1209,
      "plan": 1210,
      "Sub": 1211,
      "##stit": 1212,
      "##cent": 1213,
      "Clin": 1214,
      "meas": 1215,
      "indic": 1216,
      "ear": 1217,
      "PT": 1218,
      "age": 1219,
      "##aking": 1220,
      "lb": 1221,
      "Di": 1222,
      "impro": 1223,
      "##yc": 1224,
      "Skin": 1225,
      "##UM": 1226,
      "##arr": 1227,
      "both": 1228,
      "through": 1229,
      "Resp": 1230,
      "##itor": 1231,
      "##ases": 1232,
      "Vital": 1233,
      "Disp": 1234,
      "##artment": 1235,
      "##ressure": 1236,
      "known": 1237,
      "go": 1238,
      "above": 1239,
      "Bl": 1240,
      "lower": 1241,
      "function": 1242,
      "##ema": 1243,
      "Diff": 1244,
      "lab": 1245,
      "##AP": 1246,
      "TABL": 1247,
      "App": 1248,
      "system": 1249,
      "En": 1250,
      "Surg": 1251,
      "off": 1252,
      "TABLET": 1253,
      "As": 1254,
      "Rad": 1255,
      "##ural": 1256,
      "##ix": 1257,
      "some": 1258,
      "##ymph": 1259,
      "##ocal": 1260,
      "old": 1261,
      "end": 1262,
      "##irst": 1263,
      "assoc": 1264,
      "Result": 1265,
      "##ounter": 1266,
      "bi": 1267,
      "##av": 1268,
      "clear": 1269,
      "rate": 1270,
      "AL": 1271,
      "35": 1272,
      "Current": 1273,
      "##vers": 1274,
      "##way": 1275,
      "evidence": 1276,
      "Plan": 1277,
      "last": 1278,
      "##cription": 1279,
      "lim": 1280,
      "##apsule": 1281,
      "only": 1282,
      "different": 1283,
      "breath": 1284,
      "##ler": 1285,
      "given": 1286,
      "week": 1287,
      "vi": 1288,
      "work": 1289,
      "##oss": 1290,
      "bre": 1291,
      "##urther": 1292,
      "##ration": 1293,
      "Ur": 1294,
      "##UN": 1295,
      "Ph": 1296,
      "AN": 1297,
      "##onstr": 1298,
      "previous": 1299,
      "##aced": 1300,
      "val": 1301,
      "##cern": 1302,
      "Se": 1303,
      "BM": 1304,
      "change": 1305,
      "##ros": 1306,
      "PA": 1307,
      "##laint": 1308,
      "It": 1309,
      "##owever": 1310,
      "Per": 1311,
      "Last": 1312,
      "##ired": 1313,
      "sur": 1314,
      "Results": 1315,
      "##imal": 1316,
      "##air": 1317,
      "then": 1318,
      "99": 1319,
      "##crib": 1320,
      "com": 1321,
      "av": 1322,
      "Com": 1323,
      "tender": 1324,
      "##ety": 1325,
      "You": 1326,
      "##abet": 1327,
      "##eren": 1328,
      "Past": 1329,
      "##ulated": 1330,
      "##ument": 1331,
      "Allergies": 1332,
      "rad": 1333,
      "37": 1334,
      "##led": 1335,
      "MC": 1336,
      "Proble": 1337,
      "IC": 1338,
      "mult": 1339,
      "Radi": 1340,
      "Imp": 1341,
      "family": 1342,
      "see": 1343,
      "demonstr": 1344,
      "home": 1345,
      "sy": 1346,
      "style": 1347,
      "Out": 1348,
      "imm": 1349,
      "bed": 1350,
      "sug": 1351,
      "##eding": 1352,
      "protein": 1353,
      "op": 1354,
      "##ool": 1355,
      "clinic": 1356,
      "Tr": 1357,
      "##lection": 1358,
      "occ": 1359,
      "##line": 1360,
      "increased": 1361,
      "risk": 1362,
      "Hy": 1363,
      "##owel": 1364,
      "##iting": 1365,
      "27": 1366,
      "##IST": 1367,
      "weight": 1368,
      "small": 1369,
      "##iatric": 1370,
      "Or": 1371,
      "Comm": 1372,
      "Am": 1373,
      "##ink": 1374,
      "##US": 1375,
      "##ane": 1376,
      "rece": 1377,
      "skin": 1378,
      "abnormal": 1379,
      "information": 1380,
      "Department": 1381,
      "##ha": 1382,
      "sim": 1383,
      "45": 1384,
      "90": 1385,
      "ep": 1386,
      "soft": 1387,
      "##gi": 1388,
      "based": 1389,
      "et": 1390,
      "les": 1391,
      "##yes": 1392,
      "face": 1393,
      "second": 1394,
      "te": 1395,
      "##oma": 1396,
      "##tern": 1397,
      "##ited": 1398,
      "tiss": 1399,
      "!": 1400,
      "STRE": 1401,
      "each": 1402,
      "##OG": 1403,
      "most": 1404,
      "heart": 1405,
      "##terior": 1406,
      "Fig": 1407,
      "Hem": 1408,
      "pol": 1409,
      "mot": 1410,
      "recent": 1411,
      "##vere": 1412,
      "##cohol": 1413,
      "start": 1414,
      "ra": 1415,
      "##gan": 1416,
      "##ission": 1417,
      "##osition": 1418,
      "##ie": 1419,
      "##tic": 1420,
      "##athy": 1421,
      "##reated": 1422,
      "##ian": 1423,
      "##CC": 1424,
      "##rib": 1425,
      "26": 1426,
      "such": 1427,
      "female": 1428,
      "arter": 1429,
      "examin": 1430,
      "first": 1431,
      "sa": 1432,
      "STREET": 1433,
      "##resent": 1434,
      "##amm": 1435,
      "##acter": 1436,
      "ml": 1437,
      "tub": 1438,
      "including": 1439,
      "##ross": 1440,
      "NE": 1441,
      "Att": 1442,
      "does": 1443,
      "par": 1444,
      "Diagnosis": 1445,
      "they": 1446,
      "pat": 1447,
      "cardi": 1448,
      "Please": 1449,
      "Active": 1450,
      "fract": 1451,
      "##ils": 1452,
      "##elling": 1453,
      "##EST": 1454,
      "##ational": 1455,
      "##ovascular": 1456,
      "conf": 1457,
      "quest": 1458,
      "##ants": 1459,
      "fact": 1460,
      "CO": 1461,
      "calc": 1462,
      "##jective": 1463,
      "surgery": 1464,
      "##ire": 1465,
      "##ogen": 1466,
      "result": 1467,
      "decre": 1468,
      "partic": 1469,
      "##IF": 1470,
      "##ocyt": 1471,
      "intact": 1472,
      "To": 1473,
      "28": 1474,
      "abdominal": 1475,
      "Review": 1476,
      "For": 1477,
      "SpO": 1478,
      "poss": 1479,
      "record": 1480,
      "comple": 1481,
      "bec": 1482,
      "##urs": 1483,
      "##fer": 1484,
      "PC": 1485,
      "appro": 1486,
      "##erential": 1487,
      "##ician": 1488,
      "Vis": 1489,
      "##vis": 1490,
      "BMI": 1491,
      "vari": 1492,
      "Gl": 1493,
      "Chest": 1494,
      "provider": 1495,
      "Ar": 1496,
      "##gth": 1497,
      "our": 1498,
      "##ock": 1499,
      "ZIP": 1500,
      "tra": 1501,
      "ur": 1502,
      "would": 1503,
      "##ential": 1504,
      "mid": 1505,
      "##alp": 1506,
      "##PI": 1507,
      "##osed": 1508,
      "ent": 1509,
      "enc": 1510,
      "##oral": 1511,
      "distress": 1512,
      "ord": 1513,
      "##01": 1514,
      "##LE": 1515,
      "edema": 1516,
      "hel": 1517,
      "Neurolog": 1518,
      "##ucose": 1519,
      "Component": 1520,
      "##ye": 1521,
      "procedure": 1522,
      "##ORY": 1523,
      "##thm": 1524,
      "##pper": 1525,
      "##otal": 1526,
      "Top": 1527,
      "months": 1528,
      "##ck": 1529,
      "ve": 1530,
      "##els": 1531,
      "exper": 1532,
      "Procedure": 1533,
      "sounds": 1534,
      "get": 1535,
      "##ish": 1536,
      "obtained": 1537,
      "##az": 1538,
      "##leep": 1539,
      "97": 1540,
      "##aging": 1541,
      "view": 1542,
      "further": 1543,
      "weeks": 1544,
      "Contin": 1545,
      "##pertension": 1546,
      "TH": 1547,
      "##ived": 1548,
      "align": 1549,
      "##venous": 1550,
      "associated": 1551,
      "mild": 1552,
      "##ash": 1553,
      "Dict": 1554,
      "my": 1555,
      "Use": 1556,
      "##ravenous": 1557,
      "##ocument": 1558,
      "Differential": 1559,
      "Number": 1560,
      "##xt": 1561,
      "lung": 1562,
      "31": 1563,
      "##abetes": 1564,
      "##ined": 1565,
      "direct": 1566,
      "fat": 1567,
      "discussed": 1568,
      "ORDER": 1569,
      "##ade": 1570,
      "##ightly": 1571,
      "cancer": 1572,
      "##tal": 1573,
      "##formation": 1574,
      "pressure": 1575,
      "##RESS": 1576,
      "Weight": 1577,
      "male": 1578,
      "before": 1579,
      "29": 1580,
      "problems": 1581,
      "##emia": 1582,
      "Total": 1583,
      "aff": 1584,
      "##eg": 1585,
      "##li": 1586,
      "##duct": 1587,
      "extrem": 1588,
      "recomm": 1589,
      "est": 1590,
      "loss": 1591,
      "suggest": 1592,
      "prog": 1593,
      "##hythm": 1594,
      "PL": 1595,
      "##ull": 1596,
      "##ective": 1597,
      "##kely": 1598,
      "Abdom": 1599,
      "##mit": 1600,
      "continue": 1601,
      "##ately": 1602,
      "##asal": 1603,
      "Trans": 1604,
      "reports": 1605,
      "Name": 1606,
      "##acc": 1607,
      "obs": 1608,
      "dose": 1609,
      "hyd": 1610,
      "fluid": 1611,
      "pot": 1612,
      "Blood": 1613,
      "##ished": 1614,
      "##ologist": 1615,
      "its": 1616,
      "mic": 1617,
      "##ouse": 1618,
      "contact": 1619,
      "Dictated": 1620,
      "now": 1621,
      "add": 1622,
      "##lor": 1623,
      "help": 1624,
      "presents": 1625,
      "##agement": 1626,
      "##stitution": 1627,
      "mor": 1628,
      "##erc": 1629,
      "memb": 1630,
      "##havi": 1631,
      "infection": 1632,
      "short": 1633,
      "##ability": 1634,
      "0.5": 1635,
      "##ank": 1636,
      "##SA": 1637,
      "Evaluation": 1638,
      "since": 1639,
      "Ind": 1640,
      "musc": 1641,
      "rest": 1642,
      "hyp": 1643,
      "dys": 1644,
      "##iple": 1645,
      "Clinical": 1646,
      "hospital": 1647,
      "System": 1648,
      "vent": 1649,
      "range": 1650,
      "instruct": 1651,
      "evalu": 1652,
      "##ism": 1653,
      "##RA": 1654,
      "denies": 1655,
      "Will": 1656,
      "type": 1657,
      "##hod": 1658,
      "radi": 1659,
      "medication": 1660,
      "##ality": 1661,
      "##ief": 1662,
      "ver": 1663,
      "##GN": 1664,
      "evaluation": 1665,
      "##ilar": 1666,
      "appear": 1667,
      "##vice": 1668,
      "equ": 1669,
      "##inist": 1670,
      "##IM": 1671,
      "Sh": 1672,
      "Ext": 1673,
      "##ental": 1674,
      "##erative": 1675,
      "Final": 1676,
      "Family": 1677,
      "##lev": 1678,
      "showed": 1679,
      "500": 1680,
      "agree": 1681,
      "##inary": 1682,
      "##requ": 1683,
      "did": 1684,
      "##ez": 1685,
      "avail": 1686,
      "##ropri": 1687,
      "##jur": 1688,
      "below": 1689,
      "Musc": 1690,
      "##aneous": 1691,
      "states": 1692,
      "##ICAL": 1693,
      "studies": 1694,
      "##ological": 1695,
      "##heck": 1696,
      "##neum": 1697,
      "##arent": 1698,
      "chronic": 1699,
      "##kelet": 1700,
      "Cardiovascular": 1701,
      "process": 1702,
      "##acco": 1703,
      "##set": 1704,
      "positive": 1705,
      "Ver": 1706,
      "personally": 1707,
      "IMP": 1708,
      "fac": 1709,
      "##ausea": 1710,
      "Abs": 1711,
      "air": 1712,
      "react": 1713,
      "34": 1714,
      "analysis": 1715,
      "##patient": 1716,
      "##amp": 1717,
      "appoint": 1718,
      "ox": 1719,
      "Ob": 1720,
      "capsule": 1721,
      "Psych": 1722,
      "Calc": 1723,
      "##astro": 1724,
      "##rast": 1725,
      "OF": 1726,
      "monitor": 1727,
      "bowel": 1728,
      "Information": 1729,
      "levels": 1730,
      "stable": 1731,
      "expression": 1732,
      "area": 1733,
      "three": 1734,
      "07": 1735,
      "##lectron": 1736,
      "##ills": 1737,
      "tenderness": 1738,
      "addition": 1739,
      "long": 1740,
      "AD": 1741,
      "##DING": 1742,
      "could": 1743,
      "##erate": 1744,
      "##cribed": 1745,
      "therapy": 1746,
      "##met": 1747,
      "##olution": 1748,
      "Provid": 1749,
      "##ulos": 1750,
      "import": 1751,
      "##hea": 1752,
      "##vention": 1753,
      "fever": 1754,
      "Care": 1755,
      "06": 1756,
      "##hyl": 1757,
      "number": 1758,
      "please": 1759,
      "##opathy": 1760,
      "##stand": 1761,
      "SE": 1762,
      "##ious": 1763,
      "##ification": 1764,
      "placed": 1765,
      "compared": 1766,
      "##keletal": 1767,
      "regular": 1768,
      "##elf": 1769,
      "remain": 1770,
      "Vitals": 1771,
      "available": 1772,
      "Problem": 1773,
      "visual": 1774,
      "##ination": 1775,
      "NO": 1776,
      "while": 1777,
      "HE": 1778,
      "##utes": 1779,
      "appears": 1780,
      "##umm": 1781,
      "main": 1782,
      "##rimary": 1783,
      "questions": 1784,
      "##stitutional": 1785,
      "80": 1786,
      "##50": 1787,
      "HIST": 1788,
      "1.0": 1789,
      "FIN": 1790,
      "date": 1791,
      "##RESSION": 1792,
      "Su": 1793,
      "##59": 1794,
      "sched": 1795,
      "HISTORY": 1796,
      "note": 1797,
      "Inf": 1798,
      "Pos": 1799,
      "take": 1800,
      "cat": 1801,
      "##ingle": 1802,
      "set": 1803,
      "##old": 1804,
      "##FR": 1805,
      "##AC": 1806,
      "Impression": 1807,
      "swelling": 1808,
      "side": 1809,
      "hep": 1810,
      "images": 1811,
      "related": 1812,
      "identified": 1813,
      "##idne": 1814,
      "Follow": 1815,
      "##ison": 1816,
      "ben": 1817,
      "fracture": 1818,
      "Intravenous": 1819,
      "being": 1820,
      "Respiratory": 1821,
      "##oscop": 1822,
      "##ful": 1823,
      "##omiting": 1824,
      "##KE": 1825,
      "IMPRESSION": 1826,
      "upper": 1827,
      "path": 1828,
      "33": 1829,
      "Mar": 1830,
      "hand": 1831,
      "##order": 1832,
      "##ocytes": 1833,
      "gu": 1834,
      "appropri": 1835,
      "##istent": 1836,
      "joint": 1837,
      "##ma": 1838,
      "Met": 1839,
      "DA": 1840,
      "##20": 1841,
      "orient": 1842,
      "##ually": 1843,
      "##roph": 1844,
      "##ued": 1845,
      "list": 1846,
      "request": 1847,
      "like": 1848,
      "##ents": 1849,
      "Do": 1850,
      "sens": 1851,
      "##ring": 1852,
      "effects": 1853,
      "AB": 1854,
      "bas": 1855,
      "##ason": 1856,
      "prot": 1857,
      "mmol": 1858,
      "Visit": 1859,
      "class": 1860,
      "light": 1861,
      "AC": 1862,
      "leg": 1863,
      "where": 1864,
      "invol": 1865,
      "reported": 1866,
      "##oses": 1867,
      "Health": 1868,
      "08": 1869,
      "##atin": 1870,
      "Constitutional": 1871,
      "##icult": 1872,
      "GI": 1873,
      "developed": 1874,
      "likely": 1875,
      "exhib": 1876,
      "##iqu": 1877,
      "rhythm": 1878,
      "cent": 1879,
      "##aterally": 1880,
      "AR": 1881,
      "body": 1882,
      "AP": 1883,
      "##endent": 1884,
      "##ces": 1885,
      "ple": 1886,
      "##12": 1887,
      "II": 1888,
      "These": 1889,
      "Collection": 1890,
      "less": 1891,
      "##ured": 1892,
      "Topics": 1893,
      "##uloskeletal": 1894,
      "Neck": 1895,
      "Can": 1896,
      "Eyes": 1897,
      "neck": 1898,
      "##jury": 1899,
      "provided": 1900,
      "##roid": 1901,
      "Findings": 1902,
      "tube": 1903,
      "breast": 1904,
      "##irth": 1905,
      "##cin": 1906,
      "##SUL": 1907,
      "surgical": 1908,
      "##only": 1909,
      "inject": 1910,
      "line": 1911,
      "Em": 1912,
      "##ogra": 1913,
      "##ify": 1914,
      "Drug": 1915,
      "hig": 1916,
      "##uff": 1917,
      "##oor": 1918,
      "##ste": 1919,
      "Go": 1920,
      "Arial": 1921,
      "struct": 1922,
      "##lectronically": 1923,
      "educ": 1924,
      "fil": 1925,
      "cough": 1926,
      "##omet": 1927,
      "##echn": 1928,
      "##ulin": 1929,
      "##pre": 1930,
      "My": 1931,
      "ICD": 1932,
      "lo": 1933,
      "##put": 1934,
      "##erved": 1935,
      "09": 1936,
      "pe": 1937,
      "tissue": 1938,
      "drug": 1939,
      "1.7": 1940,
      "##iness": 1941,
      "pulmonary": 1942,
      "##oot": 1943,
      "neu": 1944,
      "ble": 1945,
      "##irm": 1946,
      "De": 1947,
      "bilateral": 1948,
      "##ivity": 1949,
      "##olute": 1950,
      "##itions": 1951,
      "Provider": 1952,
      "again": 1953,
      "del": 1954,
      "sans": 1955,
      "Sex": 1956,
      "Hospital": 1957,
      "site": 1958,
      "Rep": 1959,
      "refer": 1960,
      "serif": 1961,
      "MED": 1962,
      "possible": 1963,
      "Disc": 1964,
      "specific": 1965,
      "method": 1966,
      "75": 1967,
      "oz": 1968,
      "GL": 1969,
      "Disposition": 1970,
      "represent": 1971,
      "taking": 1972,
      "Verified": 1973,
      "condition": 1974,
      "good": 1975,
      "##emper": 1976,
      "##iety": 1977,
      "oriented": 1978,
      "immun": 1979,
      "New": 1980,
      "##iod": 1981,
      "Musculoskeletal": 1982,
      "##duction": 1983,
      "yes": 1984,
      "##idual": 1985,
      "clinical": 1986,
      "children": 1987,
      "##ins": 1988,
      "CD": 1989,
      "diet": 1990,
      "0.2": 1991,
      "##erence": 1992,
      "##nee": 1993,
      "FINDING": 1994,
      "fib": 1995,
      "TE": 1996,
      "##ressed": 1997,
      "FINDINGS": 1998,
      "##ices": 1999,
      "##ume": 2000,
      "##ourse": 2001,
      "eye": 2002,
      "lymph": 2003,
      "Medication": 2004,
      "General": 2005,
      "Positive": 2006,
      "frequ": 2007,
      "##otic": 2008,
      "##ially": 2009,
      "However": 2010,
      "Never": 2011,
      "sleep": 2012,
      "determ": 2013,
      "##ICE": 2014,
      "##uled": 2015,
      "difficult": 2016,
      "End": 2017,
      "##ves": 2018,
      "sit": 2019,
      "bilaterally": 2020,
      "total": 2021,
      "##onse": 2022,
      "init": 2023,
      "toler": 2024,
      "38": 2025,
      "Access": 2026,
      "DIA": 2027,
      "02": 2028,
      "##30": 2029,
      "DIS": 2030,
      "very": 2031,
      "Surgical": 2032,
      "0.9": 2033,
      "concern": 2034,
      "MRN": 2035,
      "antib": 2036,
      "cult": 2037,
      "Head": 2038,
      "##usp": 2039,
      "Known": 2040,
      "port": 2041,
      "##osph": 2042,
      "##ather": 2043,
      "palp": 2044,
      "##Hg": 2045,
      "vomiting": 2046,
      "es": 2047,
      "Medicine": 2048,
      "prop": 2049,
      "Man": 2050,
      "##ipid": 2051,
      "##eric": 2052,
      "increase": 2053,
      "organ": 2054,
      "alert": 2055,
      "understand": 2056,
      "move": 2057,
      "##ctor": 2058,
      "##ores": 2059,
      "artery": 2060,
      "##arison": 2061,
      "nausea": 2062,
      "##unct": 2063,
      "mmHg": 2064,
      "Absolute": 2065,
      "Mod": 2066,
      "severe": 2067,
      "LE": 2068,
      "##IE": 2069,
      "TAKE": 2070,
      "hum": 2071,
      "CL": 2072,
      "tum": 2073,
      "##rel": 2074,
      "appropriate": 2075,
      "abs": 2076,
      "##amet": 2077,
      "##hip": 2078,
      "##iron": 2079,
      "##OLOG": 2080,
      "administ": 2081,
      "BID": 2082,
      "##ator": 2083,
      "Type": 2084,
      "done": 2085,
      "pneum": 2086,
      "gra": 2087,
      "consid": 2088,
      "wheez": 2089,
      "##of": 2090,
      "kidne": 2091,
      "Rel": 2092,
      "FS": 2093,
      "Discharge": 2094,
      "aut": 2095,
      "Mon": 2096,
      "tob": 2097,
      "significantly": 2098,
      "DIAGN": 2099,
      "##now": 2100,
      "assess": 2101,
      "grow": 2102,
      "##ays": 2103,
      "##use": 2104,
      "CBC": 2105,
      "70": 2106,
      "Read": 2107,
      "##ocation": 2108,
      "lesions": 2109,
      "Neurological": 2110,
      "Commonly": 2111,
      "Test": 2112,
      "contrast": 2113,
      "fall": 2114,
      "95": 2115,
      "made": 2116,
      "acid": 2117,
      "##eds": 2118,
      "prom": 2119,
      "Systems": 2120,
      "management": 2121,
      "##au": 2122,
      "Over": 2123,
      "Sin": 2124,
      "Resident": 2125,
      "sever": 2126,
      "##emperature": 2127,
      "WBC": 2128,
      "##ars": 2129,
      "000": 2130,
      "term": 2131,
      "##ner": 2132,
      "support": 2133,
      "Continue": 2134,
      "##ward": 2135,
      "stand": 2136,
      "150": 2137,
      "##aryn": 2138,
      "Alcohol": 2139,
      "Smoking": 2140,
      "tobacco": 2141,
      "reve": 2142,
      "order": 2143,
      "allerg": 2144,
      "##uter": 2145,
      "water": 2146,
      "##ense": 2147,
      "particip": 2148,
      "pred": 2149,
      "65": 2150,
      "tests": 2151,
      "##ention": 2152,
      "smok": 2153,
      "##iation": 2154,
      "pop": 2155,
      "##adder": 2156,
      "##eep": 2157,
      "acet": 2158,
      "motion": 2159,
      "Wh": 2160,
      "Labs": 2161,
      "##MENT": 2162,
      "##rate": 2163,
      "return": 2164,
      "include": 2165,
      "##yn": 2166,
      "Height": 2167,
      "ventric": 2168,
      "nod": 2169,
      "##roat": 2170,
      "down": 2171,
      "vol": 2172,
      "complaint": 2173,
      "##ife": 2174,
      "Init": 2175,
      "SER": 2176,
      "Spec": 2177,
      "##ug": 2178,
      "##heter": 2179,
      "remo": 2180,
      "review": 2181,
      "Note": 2182,
      "##duced": 2183,
      "SP": 2184,
      "##ervical": 2185,
      "hr": 2186,
      "injury": 2187,
      "sl": 2188,
      "opt": 2189,
      "}": 2190,
      "Le": 2191,
      "##odium": 2192,
      "mur": 2193,
      "needs": 2194,
      "treated": 2195,
      "##alk": 2196,
      "##phal": 2197,
      "AND": 2198,
      "##aternal": 2199,
      "##11": 2200,
      "##ave": 2201,
      "{": 2202,
      "great": 2203,
      "decreased": 2204,
      "##ten": 2205,
      "Us": 2206,
      "complic": 2207,
      "examination": 2208,
      "##ressing": 2209,
      "##eld": 2210,
      "same": 2211,
      "##xiety": 2212,
      "MCH": 2213,
      "headac": 2214,
      "muscle": 2215,
      "Qu": 2216,
      "important": 2217,
      "AT": 2218,
      "##ILY": 2219,
      "Aut": 2220,
      "##cedures": 2221,
      "##uture": 2222,
      "minutes": 2223,
      "red": 2224,
      "##itation": 2225,
      "ML": 2226,
      "CM": 2227,
      "Pulmonary": 2228,
      "Heart": 2229,
      "##ift": 2230,
      "Chief": 2231,
      "elect": 2232,
      "1.5": 2233,
      "higher": 2234,
      "tri": 2235,
      "Bas": 2236,
      "concent": 2237,
      "ap": 2238,
      "Electronically": 2239,
      "Bil": 2240,
      "access": 2241,
      "##uria": 2242,
      "caus": 2243,
      "fail": 2244,
      "Comments": 2245,
      "Reviewed": 2246,
      "##AB": 2247,
      "exc": 2248,
      "unt": 2249,
      "multiple": 2250,
      "appointment": 2251,
      "weak": 2252,
      "aort": 2253,
      "78": 2254,
      "model": 2255,
      "##ontin": 2256,
      "exhibits": 2257,
      "##itted": 2258,
      "##ras": 2259,
      "region": 2260,
      "##ritis": 2261,
      "48": 2262,
      "##plant": 2263,
      "##ork": 2264,
      "COM": 2265,
      "##leased": 2266,
      "##ats": 2267,
      "improve": 2268,
      "LV": 2269,
      "##ae": 2270,
      "##esthes": 2271,
      "behavi": 2272,
      "##ograph": 2273,
      "const": 2274,
      "##ource": 2275,
      "potential": 2276,
      "them": 2277,
      "consult": 2278,
      "##RO": 2279,
      "##rin": 2280,
      "encounter": 2281,
      "saf": 2282,
      "##rid": 2283,
      "Attending": 2284,
      "##asis": 2285,
      "free": 2286,
      "super": 2287,
      "account": 2288,
      "Non": 2289,
      "##inent": 2290,
      "el": 2291,
      "sequ": 2292,
      "Radiologist": 2293,
      "DOB": 2294,
      "MCG": 2295,
      "##aly": 2296,
      "factors": 2297,
      "him": 2298,
      "i": 2299,
      "##estinal": 2300,
      "dry": 2301,
      "active": 2302,
      "His": 2303,
      "response": 2304,
      "Sig": 2305,
      "##arding": 2306,
      "respiratory": 2307,
      "Code": 2308,
      "tak": 2309,
      "##ield": 2310,
      "large": 2311,
      "Signs": 2312,
      "Wt": 2313,
      "sep": 2314,
      "Complaint": 2315,
      "physician": 2316,
      "##echan": 2317,
      "##eration": 2318,
      "CV": 2319,
      "position": 2320,
      "observed": 2321,
      "inhib": 2322,
      "here": 2323,
      "expl": 2324,
      "primary": 2325,
      "81": 2326,
      "murm": 2327,
      "bleeding": 2328,
      "HPI": 2329,
      "Cons": 2330,
      "##aff": 2331,
      "##arged": 2332,
      "##reen": 2333,
      "##YS": 2334,
      "top": 2335,
      "Glucose": 2336,
      "lead": 2337,
      "##ummary": 2338,
      "Her": 2339,
      "Goal": 2340,
      "received": 2341,
      "##itamin": 2342,
      "0.4": 2343,
      "supple": 2344,
      "##IR": 2345,
      "##ASON": 2346,
      "renal": 2347,
      "liver": 2348,
      "##ives": 2349,
      "##accine": 2350,
      "##orr": 2351,
      "##ONT": 2352,
      "Gastro": 2353,
      "Up": 2354,
      "Rx": 2355,
      "q": 2356,
      "2.5": 2357,
      "64": 2358,
      "##xim": 2359,
      "elev": 2360,
      "displ": 2361,
      "##operative": 2362,
      "colon": 2363,
      "char": 2364,
      "point": 2365,
      "##uration": 2366,
      "##bral": 2367,
      "diagnosis": 2368,
      "exerc": 2369,
      "##FT": 2370,
      "micro": 2371,
      "mother": 2372,
      "Denies": 2373,
      "ON": 2374,
      "##used": 2375,
      "##ty": 2376,
      "Enc": 2377,
      "##ones": 2378,
      "##lamm": 2379,
      "hyper": 2380,
      "AS": 2381,
      "##anel": 2382,
      "grad": 2383,
      "vir": 2384,
      "ROS": 2385,
      "XR": 2386,
      "##CO": 2387,
      "##IEW": 2388,
      "##ales": 2389,
      "affect": 2390,
      "##rength": 2391,
      "##ling": 2392,
      "knee": 2393,
      "transfer": 2394,
      "##imen": 2395,
      "Lymph": 2396,
      "##ayed": 2397,
      "Years": 2398,
      "72": 2399,
      "abdomen": 2400,
      "spine": 2401,
      "oper": 2402,
      "Surgery": 2403,
      "similar": 2404,
      "cond": 2405,
      "##eless": 2406,
      "flow": 2407,
      "##aj": 2408,
      "pel": 2409,
      "Age": 2410,
      "Mother": 2411,
      "mat": 2412,
      "instructions": 2413,
      "##istor": 2414,
      "##utr": 2415,
      "##arrhea": 2416,
      "##ividual": 2417,
      "Smoker": 2418,
      "##ses": 2419,
      "Your": 2420,
      "##enopathy": 2421,
      "groups": 2422,
      "##etic": 2423,
      "##arin": 2424,
      "##ensity": 2425,
      "##anged": 2426,
      "After": 2427,
      "contain": 2428,
      "##arrative": 2429,
      "kidney": 2430,
      "check": 2431,
      "induc": 2432,
      "RAD": 2433,
      "mark": 2434,
      "##ophen": 2435,
      "Hypertension": 2436,
      "##oscopy": 2437,
      "diagn": 2438,
      "##ently": 2439,
      "##ication": 2440,
      "Thank": 2441,
      "assist": 2442,
      "brain": 2443,
      "##VICE": 2444,
      "##utrition": 2445,
      "04": 2446,
      "able": 2447,
      "wound": 2448,
      "admission": 2449,
      "signs": 2450,
      "case": 2451,
      "having": 2452,
      "##ternal": 2453,
      "US": 2454,
      "ax": 2455,
      "##15": 2456,
      "199": 2457,
      "Hx": 2458,
      "period": 2459,
      "shown": 2460,
      "Figure": 2461,
      "currently": 2462,
      "##orn": 2463,
      "education": 2464,
      "##ERY": 2465,
      "Des": 2466,
      "deg": 2467,
      "sinus": 2468,
      "##Cl": 2469,
      "Is": 2470,
      "Acute": 2471,
      "39": 2472,
      "membran": 2473,
      "gene": 2474,
      "##ECT": 2475,
      "##ril": 2476,
      "DAILY": 2477,
      "##aled": 2478,
      "until": 2479,
      "42": 2480,
      "##utaneous": 2481,
      "started": 2482,
      "##lob": 2483,
      "##arget": 2484,
      "food": 2485,
      "REASON": 2486,
      "team": 2487,
      "POC": 2488,
      "pass": 2489,
      "##raum": 2490,
      "##rag": 2491,
      "High": 2492,
      "Refer": 2493,
      "##ait": 2494,
      "##aminophen": 2495,
      "doctor": 2496,
      "document": 2497,
      "resident": 2498,
      "nb": 2499,
      "So": 2500,
      "ago": 2501,
      "##rc": 2502,
      "iss": 2503,
      "character": 2504,
      "##side": 2505,
      "##NT": 2506,
      "development": 2507,
      "physical": 2508,
      "##ampl": 2509,
      "Neg": 2510,
      "##abs": 2511,
      "mean": 2512,
      "##EC": 2513,
      "##usions": 2514,
      "05": 2515,
      "##ules": 2516,
      "Concern": 2517,
      "wall": 2518,
      "##ands": 2519,
      "nbsp": 2520,
      "##acy": 2521,
      "Min": 2522,
      "feel": 2523,
      "SERVICE": 2524,
      "MA": 2525,
      "mechan": 2526,
      "hydro": 2527,
      "55": 2528,
      "Units": 2529,
      "##omen": 2530,
      "individual": 2531,
      "300": 2532,
      "several": 2533,
      "complete": 2534,
      "##OST": 2535,
      "##ided": 2536,
      "because": 2537,
      "##tt": 2538,
      "##ediatric": 2539,
      "HCC": 2540,
      "CP": 2541,
      "Diagn": 2542,
      "##BS": 2543,
      "dil": 2544,
      "##IUM": 2545,
      "Pres": 2546,
      "##intestinal": 2547,
      "however": 2548,
      "techn": 2549,
      "##ked": 2550,
      "##iate": 2551,
      "Cancer": 2552,
      "44": 2553,
      "TECH": 2554,
      "##criptions": 2555,
      "lateral": 2556,
      "consistent": 2557,
      "four": 2558,
      "GLU": 2559,
      "##inine": 2560,
      "##eat": 2561,
      "indicated": 2562,
      "59": 2563,
      "know": 2564,
      "##itus": 2565,
      "confirm": 2566,
      "Birth": 2567,
      "##itro": 2568,
      "focal": 2569,
      "UA": 2570,
      "##cephal": 2571,
      "Onset": 2572,
      "CA": 2573,
      "systems": 2574,
      "event": 2575,
      "##arkable": 2576,
      "trac": 2577,
      "distal": 2578,
      "##IG": 2579,
      "better": 2580,
      "experim": 2581,
      "##EP": 2582,
      "##bul": 2583,
      "Urine": 2584,
      "##rine": 2585,
      "Be": 2586,
      "##cl": 2587,
      "Imm": 2588,
      "##IVE": 2589,
      "##rict": 2590,
      "conditions": 2591,
      "insulin": 2592,
      "Gra": 2593,
      "##ypes": 2594,
      "##esthesia": 2595,
      "Lat": 2596,
      "##oles": 2597,
      "##time": 2598,
      "count": 2599,
      "##agn": 2600,
      "##und": 2601,
      "gall": 2602,
      "signed": 2603,
      "##ple": 2604,
      "##lected": 2605,
      "interact": 2606,
      "TR": 2607,
      "evaluated": 2608,
      "effusion": 2609,
      "drain": 2610,
      "thick": 2611,
      "PER": 2612,
      "Diabetes": 2613,
      "stress": 2614,
      "shows": 2615,
      "##sth": 2616,
      "z": 2617,
      "##fort": 2618,
      "sol": 2619,
      "COMP": 2620,
      "##IOLOG": 2621,
      "Comment": 2622,
      "##TATION": 2623,
      "CHEST": 2624,
      "##aring": 2625,
      "96": 2626,
      "estim": 2627,
      "warm": 2628,
      "still": 2629,
      "orders": 2630,
      "##RNA": 2631,
      "##ored": 2632,
      "Hep": 2633,
      "##irc": 2634,
      "hemat": 2635,
      "##SC": 2636,
      "##not": 2637,
      "thou": 2638,
      "aw": 2639,
      "List": 2640,
      "moderate": 2641,
      "BUN": 2642,
      "##GE": 2643,
      "##vised": 2644,
      "rash": 2645,
      "##chool": 2646,
      "improved": 2647,
      "##ept": 2648,
      "shortness": 2649,
      "NA": 2650,
      "##uous": 2651,
      "##ystolic": 2652,
      "respective": 2653,
      "ordered": 2654,
      "mo": 2655,
      "Post": 2656,
      "diarrhea": 2657,
      "##iving": 2658,
      "seiz": 2659,
      "##bal": 2660,
      "##RS": 2661,
      "imaging": 2662,
      "those": 2663,
      "##ationship": 2664,
      "spe": 2665,
      "adv": 2666,
      "##PV": 2667,
      "sampl": 2668,
      "EC": 2669,
      "even": 2670,
      "complex": 2671,
      "experi": 2672,
      "##othe": 2673,
      "growth": 2674,
      "PRE": 2675,
      "##ections": 2676,
      "Data": 2677,
      "catheter": 2678,
      "##ajor": 2679,
      "ster": 2680,
      "anti": 2681,
      "##reatinine": 2682,
      "chem": 2683,
      "via": 2684,
      "aspir": 2685,
      "benef": 2686,
      "##GFR": 2687,
      "mut": 2688,
      "emerg": 2689,
      "##come": 2690,
      "##ching": 2691,
      "Psychiatric": 2692,
      "injection": 2693,
      "HT": 2694,
      "weakness": 2695,
      "cardiac": 2696,
      "full": 2697,
      "genes": 2698,
      "##cutaneous": 2699,
      "##OV": 2700,
      "##SH": 2701,
      "##ique": 2702,
      "target": 2703,
      "cervical": 2704,
      "CMS": 2705,
      "invest": 2706,
      "Hemat": 2707,
      "general": 2708,
      "Adm": 2709,
      "Abdominal": 2710,
      "tumor": 2711,
      "muc": 2712,
      "around": 2713,
      "ill": 2714,
      "##EB": 2715,
      "code": 2716,
      "required": 2717,
      "read": 2718,
      "medicine": 2719,
      "MRI": 2720,
      "HENT": 2721,
      "##URE": 2722,
      "Since": 2723,
      "nightly": 2724,
      "human": 2725,
      "##ependent": 2726,
      "47": 2727,
      "Smokeless": 2728,
      "##osure": 2729,
      "quality": 2730,
      "posterior": 2731,
      "##oing": 2732,
      "biop": 2733,
      "##ogram": 2734,
      "##outine": 2735,
      "##ional": 2736,
      "failure": 2737,
      "##32": 2738,
      "recommend": 2739,
      "Mild": 2740,
      "recommended": 2741,
      "Hour": 2742,
      "##inding": 2743,
      "41": 2744,
      "cu": 2745,
      "complaints": 2746,
      "##ancy": 2747,
      "Encounter": 2748,
      "##remarkable": 2749,
      "local": 2750,
      "few": 2751,
      "62": 2752,
      "##ESS": 2753,
      "1.6": 2754,
      "single": 2755,
      "Main": 2756,
      "Educ": 2757,
      "inflamm": 2758,
      "0.1": 2759,
      "oxy": 2760,
      "cause": 2761,
      "Na": 2762,
      "##erve": 2763,
      "next": 2764,
      "##nea": 2765,
      "##though": 2766,
      "##illary": 2767,
      "Abdomen": 2768,
      "temperature": 2769,
      "ir": 2770,
      "alb": 2771,
      "52": 2772,
      "understanding": 2773,
      "##ret": 2774,
      "pattern": 2775,
      "##wn": 2776,
      "Objective": 2777,
      "Chronic": 2778,
      "psych": 2779,
      "Inc": 2780,
      "##ula": 2781,
      "CONSUL": 2782,
      "Initiated": 2783,
      "night": 2784,
      "mal": 2785,
      "##ength": 2786,
      "masses": 2787,
      "Occ": 2788,
      "caregi": 2789,
      "cle": 2790,
      "cyst": 2791,
      "##istorical": 2792,
      "Ear": 2793,
      "diabetes": 2794,
      "Fl": 2795,
      "Co": 2796,
      "dr": 2797,
      "##omes": 2798,
      "dia": 2799,
      "completed": 2800,
      "##IED": 2801,
      "nasal": 2802,
      "0.7": 2803,
      "RADIOLOG": 2804,
      "##NP": 2805,
      "##tle": 2806,
      "##omic": 2807,
      "NOT": 2808,
      "Latest": 2809,
      "syn": 2810,
      "acetaminophen": 2811,
      "##ogn": 2812,
      "common": 2813,
      "##ologic": 2814,
      "relative": 2815,
      "investig": 2816,
      "called": 2817,
      "morning": 2818,
      "##aby": 2819,
      "Call": 2820,
      "disorder": 2821,
      "described": 2822,
      "once": 2823,
      "foot": 2824,
      "secondary": 2825,
      "##ides": 2826,
      "##rome": 2827,
      "##reg": 2828,
      "Emerg": 2829,
      "##arch": 2830,
      "01": 2831,
      "previously": 2832,
      "##viron": 2833,
      "loc": 2834,
      "##thritis": 2835,
      "Subjective": 2836,
      "##ensive": 2837,
      "stim": 2838,
      "Calculated": 2839,
      "Document": 2840,
      "##ellow": 2841,
      "##ried": 2842,
      "repl": 2843,
      "correl": 2844,
      "state": 2845,
      "##ectomy": 2846,
      "adj": 2847,
      "Radiology": 2848,
      "VER": 2849,
      "##OX": 2850,
      "max": 2851,
      "cap": 2852,
      "induced": 2853,
      "anterior": 2854,
      "respectively": 2855,
      "##IFIED": 2856,
      "##atio": 2857,
      "approxim": 2858,
      "Comparison": 2859,
      "Narrative": 2860,
      "ventricular": 2861,
      "##reening": 2862,
      "problem": 2863,
      "Gastrointestinal": 2864,
      "##icians": 2865,
      "amount": 2866,
      "##ranial": 2867,
      "##REAT": 2868,
      "commun": 2869,
      "crit": 2870,
      "extremities": 2871,
      "comb": 2872,
      "lesion": 2873,
      "scheduled": 2874,
      "keep": 2875,
      "early": 2876,
      "##af": 2877,
      "Soft": 2878,
      "allow": 2879,
      "lob": 2880,
      "ER": 2881,
      "urine": 2882,
      "bone": 2883,
      "Cent": 2884,
      "FOR": 2885,
      "ult": 2886,
      "cyc": 2887,
      "##stru": 2888,
      "Chart": 2889,
      "nec": 2890,
      "oste": 2891,
      "##sthma": 2892,
      "##ext": 2893,
      "2.0": 2894,
      "CC": 2895,
      "##changed": 2896,
      "##ulf": 2897,
      "social": 2898,
      "white": 2899,
      "mice": 2900,
      "##iot": 2901,
      "hypertension": 2902,
      "##oglob": 2903,
      "##raz": 2904,
      "epis": 2905,
      "pregn": 2906,
      "49": 2907,
      "##ained": 2908,
      "SC": 2909,
      "##ber": 2910,
      "120": 2911,
      "##verage": 2912,
      "##aling": 2913,
      "Procedures": 2914,
      "self": 2915,
      "03": 2916,
      "##eline": 2917,
      "Eff": 2918,
      "##sequ": 2919,
      "Me": 2920,
      "CONSULTATION": 2921,
      "##You": 2922,
      "##ought": 2923,
      "name": 2924,
      "##ormo": 2925,
      "pleural": 2926,
      "##assium": 2927,
      "RD": 2928,
      "##orac": 2929,
      "##angu": 2930,
      "strength": 2931,
      "Recent": 2932,
      "##ilt": 2933,
      "oral": 2934,
      "0.6": 2935,
      "TO": 2936,
      "##sw": 2937,
      "##wise": 2938,
      "correct": 2939,
      "BY": 2940,
      "alcohol": 2941,
      "Tabs": 2942,
      "##utions": 2943,
      "values": 2944,
      "Ht": 2945,
      "RN": 2946,
      "least": 2947,
      "prob": 2948,
      "##iciency": 2949,
      "##spec": 2950,
      "##utic": 2951,
      "ORDERING": 2952,
      "##port": 2953,
      "Mult": 2954,
      "directed": 2955,
      "##rasound": 2956,
      "46": 2957,
      "Historical": 2958,
      "equal": 2959,
      "##DL": 2960,
      "Addition": 2961,
      "UN": 2962,
      "ACT": 2963,
      "##OSTIC": 2964,
      "major": 2965,
      "54": 2966,
      "##asing": 2967,
      "##ipher": 2968,
      "250": 2969,
      "DIAGNOSTIC": 2970,
      "caregiver": 2971,
      "##loride": 2972,
      "arm": 2973,
      "Outpatient": 2974,
      "##ray": 2975,
      "Fe": 2976,
      "0.8": 2977,
      "strain": 2978,
      "Reg": 2979,
      "##ends": 2980,
      "difficulty": 2981,
      "##ront": 2982,
      "surf": 2983,
      "##erences": 2984,
      "numb": 2985,
      "##rest": 2986,
      "##ences": 2987,
      "maintain": 2988,
      "##icity": 2989,
      "placement": 2990,
      "assessment": 2991,
      "anxiety": 2992,
      "##uch": 2993,
      "Treat": 2994,
      "cyt": 2995,
      "stated": 2996,
      "admitted": 2997,
      "pr": 2998,
      "##ising": 2999,
      "##verse": 3000,
      "##raction": 3001,
      "murmur": 3002,
      "included": 3003,
      "unremarkable": 3004,
      "systolic": 3005,
      "1.8": 3006,
      "VERIFIED": 3007,
      "role": 3008,
      "Phone": 3009,
      "Prog": 3010,
      "Education": 3011,
      "##equ": 3012,
      "101": 3013,
      "glucose": 3014,
      "##IAL": 3015,
      "57": 3016,
      "prof": 3017,
      "abnormality": 3018,
      "vs": 3019,
      "SY": 3020,
      "thy": 3021,
      "make": 3022,
      "ery": 3023,
      "many": 3024,
      "Americ": 3025,
      "limited": 3026,
      "##ndrome": 3027,
      "standard": 3028,
      "wors": 3029,
      "IM": 3030,
      "##ina": 3031,
      "exercise": 3032,
      "RADIOLOGY": 3033,
      "##KG": 3034,
      "HTN": 3035,
      "areas": 3036,
      "##vironment": 3037,
      "##eph": 3038,
      "HR": 3039,
      "56": 3040,
      "0.3": 3041,
      "pur": 3042,
      "##GB": 3043,
      "##apt": 3044,
      "taken": 3045,
      "##get": 3046,
      "DISC": 3047,
      "presented": 3048,
      "Accession": 3049,
      "MO": 3050,
      "DNA": 3051,
      "##ograp": 3052,
      "how": 3053,
      "concerns": 3054,
      "sex": 3055,
      "##anced": 3056,
      "##onia": 3057,
      "EV": 3058,
      "##OW": 3059,
      "Spouse": 3060,
      "##unt": 3061,
      "Marital": 3062,
      "IL": 3063,
      "dri": 3064,
      "Dec": 3065,
      "SEX": 3066,
      "##ostic": 3067,
      "##anic": 3068,
      "measure": 3069,
      "##.00": 3070,
      "##oglobin": 3071,
      "controlled": 3072,
      "1.2": 3073,
      "chills": 3074,
      "##gl": 3075,
      "elevated": 3076,
      "Stud": 3077,
      "##raumatic": 3078,
      "sal": 3079,
      "HY": 3080,
      "##PH": 3081,
      "43": 3082,
      "symmet": 3083,
      "##25": 3084,
      "cases": 3085,
      "##enous": 3086,
      "Med": 3087,
      "removed": 3088,
      "##read": 3089,
      "Child": 3090,
      "##cephalic": 3091,
      "pulses": 3092,
      "respons": 3093,
      "##onal": 3094,
      "##going": 3095,
      "lit": 3096,
      "##ival": 3097,
      "##ipation": 3098,
      "##arb": 3099,
      "1.1": 3100,
      "scan": 3101,
      "##itations": 3102,
      "Of": 3103,
      "EKG": 3104,
      "sent": 3105,
      "pa": 3106,
      "WEB": 3107,
      "product": 3108,
      "##enosis": 3109,
      "Clinic": 3110,
      "species": 3111,
      "Lung": 3112,
      "##ower": 3113,
      "##orrh": 3114,
      "##hyd": 3115,
      "Extrem": 3116,
      "##ourished": 3117,
      "prec": 3118,
      "##esis": 3119,
      "cal": 3120,
      "td": 3121,
      "club": 3122,
      "##opl": 3123,
      "SUR": 3124,
      "Disease": 3125,
      "##romb": 3126,
      "activities": 3127,
      "##ording": 3128,
      "CAL": 3129,
      "open": 3130,
      "enh": 3131,
      "pub": 3132,
      "du": 3133,
      "##enz": 3134,
      "room": 3135,
      "intra": 3136,
      "defic": 3137,
      "##rist": 3138,
      "##XR": 3139,
      "Released": 3140,
      "0.05": 3141,
      "visualized": 3142,
      "Recomm": 3143,
      "##roc": 3144,
      "##UNT": 3145,
      "index": 3146,
      "Due": 3147,
      "prox": 3148,
      "##oy": 3149,
      "Capsule": 3150,
      "approximately": 3151,
      "##na": 3152,
      "##olved": 3153,
      "##EM": 3154,
      "labs": 3155,
      "Mr": 3156,
      "greater": 3157,
      "RT": 3158,
      "4.5": 3159,
      "Lateral": 3160,
      "##ps": 3161,
      "With": 3162,
      "325": 3163,
      "Report": 3164,
      "Discuss": 3165,
      "See": 3166,
      "71": 3167,
      "DO": 3168,
      "none": 3169,
      "stool": 3170,
      "Neuro": 3171,
      "Ant": 3172,
      "##aw": 3173,
      "measures": 3174,
      "complications": 3175,
      "##izz": 3176,
      "##yan": 3177,
      "##orax": 3178,
      "##uk": 3179,
      "##ids": 3180,
      "##gment": 3181,
      "58": 3182,
      "bedtime": 3183,
      "##io": 3184,
      "samples": 3185,
      "##them": 3186,
      "followed": 3187,
      "additional": 3188,
      "along": 3189,
      "##olec": 3190,
      "cc": 3191,
      "##ipheral": 3192,
      "Est": 3193,
      "##nia": 3194,
      "##ither": 3195,
      "INV": 3196,
      "##ormocephalic": 3197,
      "demonstrated": 3198,
      "##ene": 3199,
      "Serv": 3200,
      "MS": 3201,
      "##anguage": 3202,
      "##cg": 3203,
      "among": 3204,
      "##ocol": 3205,
      "ul": 3206,
      "mood": 3207,
      "##lux": 3208,
      "interval": 3209,
      "##due": 3210,
      "RMS": 3211,
      "PMH": 3212,
      "reactive": 3213,
      "##uted": 3214,
      "400": 3215,
      "Admit": 3216,
      "##ICATION": 3217,
      "issues": 3218,
      "dom": 3219,
      "limits": 3220,
      "##lying": 3221,
      "Refill": 3222,
      "##ably": 3223,
      "records": 3224,
      "online": 3225,
      "hip": 3226,
      "wheezing": 3227,
      "##here": 3228,
      "##less": 3229,
      "##ems": 3230,
      "MEDICAL": 3231,
      "140": 3232,
      "biopsy": 3233,
      "DISCONT": 3234,
      "aortic": 3235,
      "2012": 3236,
      "break": 3237,
      "Flu": 3238,
      "INR": 3239,
      "pert": 3240,
      "Del": 3241,
      "##ister": 3242,
      "nourished": 3243,
      "##junct": 3244,
      "poor": 3245,
      "baby": 3246,
      "Interpre": 3247,
      "React": 3248,
      "vital": 3249,
      "Supp": 3250,
      "vers": 3251,
      "provide": 3252,
      "Course": 3253,
      "DM": 3254,
      "MCV": 3255,
      "160": 3256,
      "##FA": 3257,
      "cre": 3258,
      "circ": 3259,
      "Treatment": 3260,
      "Record": 3261,
      "stop": 3262,
      "##ll": 3263,
      "##PR": 3264,
      "regarding": 3265,
      "Overdue": 3266,
      "valve": 3267,
      "demonstrate": 3268,
      "changed": 3269,
      "tissues": 3270,
      "##ets": 3271,
      "##bid": 3272,
      "Sym": 3273,
      "##hab": 3274,
      "Home": 3275,
      "##aine": 3276,
      "stenosis": 3277,
      "Af": 3278,
      "cere": 3279,
      "mcg": 3280,
      "Physician": 3281,
      "life": 3282,
      "##AMIN": 3283,
      "Cardiac": 3284,
      "##OPH": 3285,
      "reach": 3286,
      "sat": 3287,
      "eas": 3288,
      "##igue": 3289,
      "score": 3290,
      "##rong": 3291,
      "frequency": 3292,
      "Hyper": 3293,
      "length": 3294,
      "Sexual": 3295,
      "Creatinine": 3296,
      "##45": 3297,
      "##40": 3298,
      "depression": 3299,
      "##roke": 3300,
      "throughout": 3301,
      "revealed": 3302,
      "administered": 3303,
      "51": 3304,
      "percent": 3305,
      "therap": 3306,
      "Ms": 3307,
      "##UE": 3308,
      "phosph": 3309,
      "BAS": 3310,
      "##ressive": 3311,
      "against": 3312,
      "walk": 3313,
      "##atitis": 3314,
      "Previous": 3315,
      "##ultation": 3316,
      "##OPCT": 3317,
      "allergies": 3318,
      "##odes": 3319,
      "##ITH": 3320,
      "##terol": 3321,
      "##ways": 3322,
      "HGB": 3323,
      "##otid": 3324,
      "##ourinary": 3325,
      "##itourinary": 3326,
      "tolerated": 3327,
      "examined": 3328,
      "##abolic": 3329,
      "Exp": 3330,
      "##omeg": 3331,
      "sk": 3332,
      "88": 3333,
      "##UTH": 3334,
      "##empt": 3335,
      "rub": 3336,
      "appearance": 3337,
      "##ering": 3338,
      "later": 3339,
      "CR": 3340,
      "rese": 3341,
      "women": 3342,
      "Abnormal": 3343,
      "syndrome": 3344,
      "detail": 3345,
      "2013": 3346,
      "##ople": 3347,
      "53": 3348,
      "population": 3349,
      "OT": 3350,
      "school": 3351,
      "Te": 3352,
      "much": 3353,
      "##isks": 3354,
      "##vices": 3355,
      "Problems": 3356,
      "##umin": 3357,
      "##LA": 3358,
      "##lement": 3359,
      "##ography": 3360,
      "Pediatric": 3361,
      "HIV": 3362,
      "cannot": 3363,
      "VIEW": 3364,
      "##asm": 3365,
      "1000": 3366,
      "##err": 3367,
      "rh": 3368,
      "Risk": 3369,
      "Sm": 3370,
      "volume": 3371,
      "##UD": 3372,
      "Fem": 3373,
      "Prof": 3374,
      "##rosis": 3375,
      "reduced": 3376,
      "prescription": 3377,
      "field": 3378,
      "##ised": 3379,
      "##ires": 3380,
      "##arynx": 3381,
      "Prior": 3382,
      "color": 3383,
      "erythem": 3384,
      "Imaging": 3385,
      "distrib": 3386,
      "CK": 3387,
      "SH": 3388,
      "parent": 3389,
      "##ODONE": 3390,
      "Next": 3391,
      "##umbar": 3392,
      "##EG": 3393,
      "stage": 3394,
      "prep": 3395,
      "applic": 3396,
      "Recommend": 3397,
      "198": 3398,
      "Table": 3399,
      "vein": 3400,
      "sil": 3401,
      "Pressure": 3402,
      "##stance": 3403,
      "NP": 3404,
      "environment": 3405,
      "ABD": 3406,
      "##aginal": 3407,
      "##omegaly": 3408,
      "##ibility": 3409,
      "proteins": 3410,
      "throat": 3411,
      "Inh": 3412,
      "atraumatic": 3413,
      "gross": 3414,
      "##ember": 3415,
      "##ouble": 3416,
      "Single": 3417,
      "extremity": 3418,
      "value": 3419,
      "asp": 3420,
      "##junctiv": 3421,
      "##duce": 3422,
      "susp": 3423,
      "instructed": 3424,
      "##kle": 3425,
      "resist": 3426,
      "##DR": 3427,
      "Immun": 3428,
      "HCT": 3429,
      "independent": 3430,
      "CREAT": 3431,
      "bladder": 3432,
      "cr": 3433,
      "transf": 3434,
      "gener": 3435,
      "prevent": 3436,
      "suc": 3437,
      "prescribed": 3438,
      "Genitourinary": 3439,
      "panc": 3440,
      "presence": 3441,
      "congest": 3442,
      "conc": 3443,
      "pharm": 3444,
      "sure": 3445,
      "Div": 3446,
      "breathing": 3447,
      "often": 3448,
      "except": 3449,
      "unc": 3450,
      "receive": 3451,
      "demonstrates": 3452,
      "round": 3453,
      "poly": 3454,
      "headaches": 3455,
      "drink": 3456,
      "Body": 3457,
      "mit": 3458,
      "design": 3459,
      "110": 3460,
      "Prescriptions": 3461,
      "dim": 3462,
      "traum": 3463,
      "nuc": 3464,
      "lobe": 3465,
      "unchanged": 3466,
      "central": 3467,
      "##och": 3468,
      "AST": 3469,
      "Dispense": 3470,
      "##man": 3471,
      "transplant": 3472,
      "Reason": 3473,
      "office": 3474,
      "evaluate": 3475,
      "confirmed": 3476,
      "##UB": 3477,
      "##oracic": 3478,
      "73": 3479,
      "##lished": 3480,
      "bru": 3481,
      "##tered": 3482,
      "Well": 3483,
      "##opt": 3484,
      "behavior": 3485,
      "ALT": 3486,
      "##ININE": 3487,
      "block": 3488,
      "0700": 3489,
      "##lied": 3490,
      "phen": 3491,
      "CREATININE": 3492,
      "shoulder": 3493,
      "documented": 3494,
      "measured": 3495,
      "CAR": 3496,
      "##24": 3497,
      "consent": 3498,
      "##struction": 3499,
      "##yz": 3500,
      "##ists": 3501,
      "sodium": 3502,
      "##aired": 3503,
      "Nose": 3504,
      "marg": 3505,
      "##otherapy": 3506,
      "4.0": 3507,
      "remains": 3508,
      "Start": 3509,
      "##eth": 3510,
      "##HT": 3511,
      "Contact": 3512,
      "##ATI": 3513,
      "rz": 3514,
      "SCH": 3515,
      "pertinent": 3516,
      "##ances": 3517,
      "##isc": 3518,
      "Ag": 3519,
      "Ca": 3520,
      "minimal": 3521,
      "coll": 3522,
      "play": 3523,
      "CAP": 3524,
      "##razole": 3525,
      "neg": 3526,
      "##cem": 3527,
      "##panic": 3528,
      "Father": 3529,
      "American": 3530,
      "##DS": 3531,
      "SURG": 3532,
      "wid": 3533,
      "##izziness": 3534,
      "facility": 3535,
      "##osing": 3536,
      "Tri": 3537,
      "TB": 3538,
      "influ": 3539,
      "##ications": 3540,
      "##arc": 3541,
      "either": 3542,
      "MOUTH": 3543,
      "worse": 3544,
      "##round": 3545,
      "sup": 3546,
      "##etal": 3547,
      "They": 3548,
      "pack": 3549,
      "2011": 3550,
      "Description": 3551,
      "##ocus": 3552,
      "##upils": 3553,
      "68": 3554,
      "functional": 3555,
      "Tub": 3556,
      "##rof": 3557,
      "recept": 3558,
      "##urse": 3559,
      "eyes": 3560,
      "address": 3561,
      "Once": 3562,
      "midline": 3563,
      "VIT": 3564,
      "effective": 3565,
      "cop": 3566,
      "##orph": 3567,
      "##vast": 3568,
      "Laterality": 3569,
      "##aterial": 3570,
      "##specified": 3571,
      "##othorax": 3572,
      "##rob": 3573,
      "isol": 3574,
      "testing": 3575,
      "##ips": 3576,
      "hemorrh": 3577,
      "##ontinued": 3578,
      "Ret": 3579,
      "##equate": 3580,
      "br": 3581,
      "##ellitus": 3582,
      "##ursing": 3583,
      "cho": 3584,
      "men": 3585,
      "movement": 3586,
      "upd": 3587,
      "proximal": 3588,
      "##eps": 3589,
      "##arrow": 3590,
      "surface": 3591,
      "determined": 3592,
      "##YL": 3593,
      "vess": 3594,
      "prol": 3595,
      "ALB": 3596,
      "cyan": 3597,
      "PHYS": 3598,
      "apparent": 3599,
      "RES": 3600,
      "initial": 3601,
      "Diagnoses": 3602,
      "##ographic": 3603,
      "Normocephalic": 3604,
      "away": 3605,
      "##enance": 3606,
      "program": 3607,
      "82": 3608,
      "section": 3609,
      "orig": 3610,
      "##jects": 3611,
      "##amine": 3612,
      "##izing": 3613,
      "##hyroid": 3614,
      "doing": 3615,
      "Summary": 3616,
      "factor": 3617,
      "Physicians": 3618,
      "aspirin": 3619,
      "##astric": 3620,
      "##ronch": 3621,
      "involved": 3622,
      "protocol": 3623,
      "##ened": 3624,
      "component": 3625,
      "Vi": 3626,
      "concentration": 3627,
      "necess": 3628,
      "accur": 3629,
      "abnormalities": 3630,
      "LT": 3631,
      "##ample": 3632,
      "differences": 3633,
      "##hesis": 3634,
      "79": 3635,
      "##ots": 3636,
      "bacter": 3637,
      "When": 3638,
      "##cal": 3639,
      "referral": 3640,
      "Det": 3641,
      "service": 3642,
      "recently": 3643,
      "##aintenance": 3644,
      "units": 3645,
      "ausc": 3646,
      "Ins": 3647,
      "DD": 3648,
      "##charged": 3649,
      "–": 3650,
      "RDW": 3651,
      "strong": 3652,
      "MET": 3653,
      "THE": 3654,
      "assessed": 3655,
      "bro": 3656,
      "Additional": 3657,
      "hypot": 3658,
      "108": 3659,
      "listed": 3660,
      "Ren": 3661,
      "baseline": 3662,
      "##ivers": 3663,
      "RBC": 3664,
      "vaccine": 3665,
      "##ites": 3666,
      "replace": 3667,
      "Output": 3668,
      "mob": 3669,
      "verbal": 3670,
      "Bre": 3671,
      "##lipid": 3672,
      "another": 3673,
      "meals": 3674,
      "##thop": 3675,
      "##ubin": 3676,
      "##ables": 3677,
      "ultrasound": 3678,
      "##iology": 3679,
      "76": 3680,
      "85": 3681,
      "##atelet": 3682,
      "immed": 3683,
      "##upational": 3684,
      "##roscop": 3685,
      "Set": 3686,
      "Ord": 3687,
      "##ophage": 3688,
      "##ieved": 3689,
      "moist": 3690,
      "##vic": 3691,
      "people": 3692,
      "pract": 3693,
      "##ird": 3694,
      "##cinoma": 3695,
      "vascular": 3696,
      "Release": 3697,
      "culture": 3698,
      "PCP": 3699,
      "##vastatin": 3700,
      "thromb": 3701,
      "##EX": 3702,
      "pelvis": 3703,
      "DV": 3704,
      "Rate": 3705,
      "Commun": 3706,
      "fatigue": 3707,
      "Grand": 3708,
      "##lipidemia": 3709,
      "contrib": 3710,
      "##ters": 3711,
      "10.0": 3712,
      "##ached": 3713,
      "##irubin": 3714,
      "Behavi": 3715,
      "magn": 3716,
      "constipation": 3717,
      "Mot": 3718,
      "##bs": 3719,
      "Part": 3720,
      "interpre": 3721,
      "MDM": 3722,
      "mail": 3723,
      "Future": 3724,
      "##rees": 3725,
      "unable": 3726,
      "vision": 3727,
      "safety": 3728,
      "Allergen": 3729,
      "emb": 3730,
      "CALC": 3731,
      "##asc": 3732,
      "attempt": 3733,
      "Cor": 3734,
      "94": 3735,
      "66": 3736,
      "Sw": 3737,
      "##ardial": 3738,
      "Transcription": 3739,
      "paramet": 3740,
      "##utroph": 3741,
      "External": 3742,
      "##ART": 3743,
      "##PCT": 3744,
      "##AG": 3745,
      "##PE": 3746,
      "course": 3747,
      "##ORM": 3748,
      "##imum": 3749,
      "MCHC": 3750,
      "##57": 3751,
      "DIF": 3752,
      "increasing": 3753,
      "##uterol": 3754,
      "##LY": 3755,
      "decrease": 3756,
      "##atal": 3757,
      "nerve": 3758,
      "0659": 3759,
      "##ubated": 3760,
      "Outcome": 3761,
      "##hor": 3762,
      "structures": 3763,
      "##ieve": 3764,
      "Maternal": 3765,
      "Extremities": 3766,
      "##atist": 3767,
      "##olesterol": 3768,
      "##emory": 3769,
      "##oids": 3770,
      "ASS": 3771,
      "MM": 3772,
      "sample": 3773,
      "Children": 3774,
      "Condition": 3775,
      "##ORT": 3776,
      "##IES": 3777,
      "Add": 3778,
      "intake": 3779,
      "Severe": 3780,
      "##oratory": 3781,
      "##tebral": 3782,
      "enl": 3783,
      "research": 3784,
      "mamm": 3785,
      "continued": 3786,
      "Count": 3787,
      "##omach": 3788,
      "schedule": 3789,
      "Signed": 3790,
      "Assoc": 3791,
      "erythema": 3792,
      "##illed": 3793,
      "##ocaine": 3794,
      "RR": 3795,
      "67": 3796,
      "BL": 3797,
      "WITH": 3798,
      "Relation": 3799,
      "##uation": 3800,
      "##ITION": 3801,
      "NaCl": 3802,
      "promot": 3803,
      "temp": 3804,
      "##ophageal": 3805,
      "##pped": 3806,
      "##alm": 3807,
      "notes": 3808,
      "PLAN": 3809,
      "what": 3810,
      "Mouth": 3811,
      "##urb": 3812,
      "##ains": 3813,
      "quant": 3814,
      "density": 3815,
      "MPV": 3816,
      "Score": 3817,
      "pneumothorax": 3818,
      "Vol": 3819,
      "spect": 3820,
      "pH": 3821,
      "##AX": 3822,
      "##achy": 3823,
      "structure": 3824,
      "##iotics": 3825,
      "tablets": 3826,
      "74": 3827,
      "EGFR": 3828,
      "altern": 3829,
      "po": 3830,
      "considered": 3831,
      "7.5": 3832,
      "solution": 3833,
      "reaction": 3834,
      "risks": 3835,
      "##isms": 3836,
      "RA": 3837,
      "Cre": 3838,
      "goal": 3839,
      "log": 3840,
      "##CE": 3841,
      "Back": 3842,
      "auscultation": 3843,
      "##OMY": 3844,
      "bus": 3845,
      "##olar": 3846,
      "Allergy": 3847,
      "relationship": 3848,
      "##known": 3849,
      "##ption": 3850,
      "Service": 3851,
      "Transcriptionist": 3852,
      "Val": 3853,
      "success": 3854,
      "Throat": 3855,
      "applied": 3856,
      "must": 3857,
      "estab": 3858,
      "pulse": 3859,
      "carb": 3860,
      "monitoring": 3861,
      "Our": 3862,
      "##rely": 3863,
      "##ivery": 3864,
      "102": 3865,
      "Used": 3866,
      "##05": 3867,
      "PCR": 3868,
      "##ession": 3869,
      "##astic": 3870,
      "Li": 3871,
      "##itting": 3872,
      "Ro": 3873,
      "Center": 3874,
      "##dle": 3875,
      "extra": 3876,
      "answ": 3877,
      "##ulations": 3878,
      "whether": 3879,
      "diaph": 3880,
      "Apply": 3881,
      "repeat": 3882,
      "77": 3883,
      "healthy": 3884,
      "dependent": 3885,
      "gallop": 3886,
      "##1.1": 3887,
      "Hyp": 3888,
      "##resp": 3889,
      "Female": 3890,
      "##zym": 3891,
      "Fall": 3892,
      "run": 3893,
      "perf": 3894,
      "events": 3895,
      "##axis": 3896,
      "train": 3897,
      "analyz": 3898,
      "##ier": 3899,
      "Protein": 3900,
      "Rem": 3901,
      "##18": 3902,
      "otherwise": 3903,
      "Division": 3904,
      "145": 3905,
      "##osa": 3906,
      "SOB": 3907,
      "##ouns": 3908,
      "headache": 3909,
      "69": 3910,
      "##adenopathy": 3911,
      "binding": 3912,
      "larg": 3913,
      "63": 3914,
      "Male": 3915,
      "particular": 3916,
      "pending": 3917,
      "125": 3918,
      "##odone": 3919,
      "##function": 3920,
      "base": 3921,
      "Location": 3922,
      "virus": 3923,
      "##ott": 3924,
      "gly": 3925,
      "##den": 3926,
      "death": 3927,
      "One": 3928,
      "flex": 3929,
      "medicines": 3930,
      "Air": 3931,
      "intervention": 3932,
      "##pec": 3933,
      "##16": 3934,
      "front": 3935,
      "Intervention": 3936,
      "Arter": 3937,
      "just": 3938,
      "according": 3939,
      "morph": 3940,
      "series": 3941,
      "uL": 3942,
      "material": 3943,
      "HC": 3944,
      "formation": 3945,
      "vitals": 3946,
      "panel": 3947,
      "require": 3948,
      "space": 3949,
      "Cell": 3950,
      "##ctal": 3951,
      "##fact": 3952,
      "cort": 3953,
      "Par": 3954,
      "conduct": 3955,
      "content": 3956,
      "Subcutaneous": 3957,
      "Occupational": 3958,
      "##OSC": 3959,
      "##atives": 3960,
      "fing": 3961,
      "##que": 3962,
      "3.3": 3963,
      "##ixed": 3964,
      "os": 3965,
      "improvement": 3966,
      "##ashes": 3967,
      "##arri": 3968,
      "##amic": 3969,
      "ech": 3970,
      "##izations": 3971,
      "ES": 3972,
      "##27": 3973,
      "Endoc": 3974,
      "exposure": 3975,
      "##ophils": 3976,
      "surv": 3977,
      "average": 3978,
      "diss": 3979,
      "AV": 3980,
      "give": 3981,
      "overall": 3982,
      "##igital": 3983,
      "YO": 3984,
      "##acity": 3985,
      "DL": 3986,
      "##19": 3987,
      "Bowel": 3988,
      "##aged": 3989,
      "fore": 3990,
      "gastro": 3991,
      "##chem": 3992,
      "##ann": 3993,
      "Reactions": 3994,
      "drainage": 3995,
      "##35": 3996,
      "anesthesia": 3997,
      "##26": 3998,
      "drop": 3999,
      "approach": 4000,
      "EOM": 4001,
      "GA": 4002,
      "##rium": 4003,
      "Sodium": 4004,
      "##oxic": 4005,
      "NEUR": 4006,
      "membrane": 4007,
      "Therapy": 4008,
      "##onic": 4009,
      "intrac": 4010,
      "guid": 4011,
      "CALCIUM": 4012,
      "meds": 4013,
      "height": 4014,
      "ter": 4015,
      "COD": 4016,
      "table": 4017,
      "##hetic": 4018,
      "##raw": 4019,
      "conn": 4020,
      "lig": 4021,
      "IF": 4022,
      "##over": 4023,
      "consider": 4024,
      "Src": 4025,
      "cer": 4026,
      "##49": 4027,
      "##ERG": 4028,
      "600": 4029,
      "##iast": 4030,
      "##atures": 4031,
      "CI": 4032,
      "Cult": 4033,
      "mellitus": 4034,
      "86": 4035,
      "internal": 4036,
      "El": 4037,
      "thyroid": 4038,
      "##omycin": 4039,
      "necessary": 4040,
      "phone": 4041,
      "dial": 4042,
      "phot": 4043,
      "##icient": 4044,
      "production": 4045,
      "detected": 4046,
      "##eutic": 4047,
      "thought": 4048,
      "87": 4049,
      "##eling": 4050,
      "Present": 4051,
      "##IDE": 4052,
      "ang": 4053,
      "stomach": 4054,
      "##enic": 4055,
      "##RIN": 4056,
      "der": 4057,
      "130": 4058,
      "Ongoing": 4059,
      "bal": 4060,
      "performance": 4061,
      "pregnancy": 4062,
      "##IME": 4063,
      "infar": 4064,
      "##generative": 4065,
      "bu": 4066,
      "##ects": 4067,
      "135": 4068,
      "treatments": 4069,
      "Inject": 4070,
      "expressed": 4071,
      "##hing": 4072,
      "concentr": 4073,
      "##asure": 4074,
      "##ises": 4075,
      "Place": 4076,
      "tested": 4077,
      "predict": 4078,
      "device": 4079,
      "May": 4080,
      "drugs": 4081,
      "##odies": 4082,
      "PE": 4083,
      "##ched": 4084,
      "##structions": 4085,
      "##ysm": 4086,
      "nodes": 4087,
      "final": 4088,
      "indicate": 4089,
      "might": 4090,
      "93": 4091,
      "near": 4092,
      "##ey": 4093,
      "Sec": 4094,
      "##nce": 4095,
      "##ump": 4096,
      "##itud": 4097,
      "##idine": 4098,
      "EM": 4099,
      "Sched": 4100,
      "repair": 4101,
      "screening": 4102,
      "##ask": 4103,
      "Intake": 4104,
      "##ATIENT": 4105,
      "told": 4106,
      "seizures": 4107,
      "Day": 4108,
      "Breast": 4109,
      "mil": 4110,
      "POCT": 4111,
      "Ep": 4112,
      "##utrophils": 4113,
      "##allow": 4114,
      "EF": 4115,
      "bo": 4116,
      "Hemoglobin": 4117,
      "discharged": 4118,
      "##enced": 4119,
      "Bi": 4120,
      "##version": 4121,
      "##hel": 4122,
      "##IX": 4123,
      "##13": 4124,
      "GLUC": 4125,
      "accept": 4126,
      "lear": 4127,
      "NG": 4128,
      "mental": 4129,
      "phase": 4130,
      "Quest": 4131,
      "##inant": 4132,
      "infer": 4133,
      "continues": 4134,
      "metast": 4135,
      "includes": 4136,
      "complet": 4137,
      "IS": 4138,
      "Pot": 4139,
      "symmetric": 4140,
      "##isin": 4141,
      "numbness": 4142,
      "##bing": 4143,
      "Pupils": 4144,
      "enter": 4145,
      "don": 4146,
      "various": 4147,
      "##went": 4148,
      "Clear": 4149,
      "Further": 4150,
      "Panel": 4151,
      "##aining": 4152,
      "congestion": 4153,
      "adequate": 4154,
      "wheezes": 4155,
      "cyanosis": 4156,
      "coronary": 4157,
      "twice": 4158,
      "image": 4159,
      "lungs": 4160,
      "dizziness": 4161,
      "ach": 4162,
      "clean": 4163,
      "Bilateral": 4164,
      "##opril": 4165,
      "##ANK": 4166,
      "deep": 4167,
      "vitamin": 4168,
      "##ergy": 4169,
      "summary": 4170,
      "##atch": 4171,
      "albuterol": 4172,
      "##urred": 4173,
      "incision": 4174,
      "adenopathy": 4175,
      "net": 4176,
      "bedside": 4177,
      "COP": 4178,
      "Interpreted": 4179,
      "benefits": 4180,
      "dat": 4181,
      "1.3": 4182,
      "worsening": 4183,
      "nose": 4184,
      "avoid": 4185,
      "##piration": 4186,
      "cur": 4187,
      "Asked": 4188,
      "HYDR": 4189,
      "##oppl": 4190,
      "motor": 4191,
      "Fil": 4192,
      "infusion": 4193,
      "92": 4194,
      "84": 4195,
      "Vaccine": 4196,
      "Ap": 4197,
      "views": 4198,
      "entire": 4199,
      "determine": 4200,
      "scale": 4201,
      "reduction": 4202,
      "Multiple": 4203,
      "Effort": 4204,
      "##word": 4205,
      "obes": 4206,
      "##icular": 4207,
      "##CTION": 4208,
      "Bilirubin": 4209,
      "##oration": 4210,
      "urinary": 4211,
      "Daily": 4212,
      "CN": 4213,
      "Stable": 4214,
      "##OMEN": 4215,
      "impact": 4216,
      "##TI": 4217,
      "Afric": 4218,
      "##OSCOP": 4219,
      "inflammatory": 4220,
      "ECG": 4221,
      "ratio": 4222,
      "smoking": 4223,
      "##TR": 4224,
      "pneumonia": 4225,
      "2014": 4226,
      "##ili": 4227,
      "electro": 4228,
      "ev": 4229,
      "enzym": 4230,
      "separ": 4231,
      "2010": 4232,
      "saw": 4233,
      "197": 4234,
      "prost": 4235,
      "EST": 4236,
      "services": 4237,
      "spl": 4238,
      "OP": 4239,
      "neur": 4240,
      "movements": 4241,
      "##essage": 4242,
      "lines": 4243,
      "caused": 4244,
      "pg": 4245,
      "SI": 4246,
      "DVT": 4247,
      "RNA": 4248,
      "##17": 4249,
      "diagnosed": 4250,
      "##itivity": 4251,
      "Lungs": 4252,
      "##structive": 4253,
      "##oh": 4254,
      "##eled": 4255,
      "hearing": 4256,
      "sulf": 4257,
      "##38": 4258,
      "105": 4259,
      "Progress": 4260,
      "##VD": 4261,
      "##night": 4262,
      "##OSE": 4263,
      "III": 4264,
      "yo": 4265,
      "puff": 4266,
      "##ASE": 4267,
      "five": 4268,
      "analys": 4269,
      "##CS": 4270,
      "Sens": 4271,
      "##rox": 4272,
      "Admission": 4273,
      "nutrition": 4274,
      "palpitations": 4275,
      "membranes": 4276,
      "HEENT": 4277,
      "Activity": 4278,
      "##ng": 4279,
      "3.5": 4280,
      "Moderate": 4281,
      "##rophy": 4282,
      "sed": 4283,
      "##ERD": 4284,
      "##oppler": 4285,
      "##ophag": 4286,
      "mi": 4287,
      "Off": 4288,
      "##9.9": 4289,
      "##ying": 4290,
      "XX": 4291,
      "0.00": 4292,
      "administration": 4293,
      "mig": 4294,
      "femoral": 4295,
      "##II": 4296,
      "PHYSICAL": 4297,
      "From": 4298,
      "##idal": 4299,
      "PATIENT": 4300,
      "six": 4301,
      "gait": 4302,
      "1.4": 4303,
      "liqu": 4304,
      "difference": 4305,
      "##PS": 4306,
      "Calcium": 4307,
      "##idation": 4308,
      "##COUNT": 4309,
      "PD": 4310,
      "meet": 4311,
      "ut": 4312,
      "RV": 4313,
      "Monocytes": 4314,
      "recorded": 4315,
      "signal": 4316,
      "UNIT": 4317,
      "COPD": 4318,
      "##TER": 4319,
      "ability": 4320,
      "##ledge": 4321,
      "1500": 4322,
      "##ette": 4323,
      "ischem": 4324,
      "##rology": 4325,
      "##isinopril": 4326,
      "Intact": 4327,
      "best": 4328,
      "subsequ": 4329,
      "##lo": 4330,
      "##CODONE": 4331,
      "safe": 4332,
      "DIAGNOS": 4333,
      "cost": 4334,
      "peripheral": 4335,
      "##eres": 4336,
      "Solution": 4337,
      "LEV": 4338,
      "vaginal": 4339,
      "##14": 4340,
      "##IGHT": 4341,
      "##hylaxis": 4342,
      "##IOR": 4343,
      "statist": 4344,
      "gas": 4345,
      "104": 4346,
      "hold": 4347,
      "CAPSUL": 4348,
      "Dear": 4349,
      "slow": 4350,
      "CAD": 4351,
      "##augh": 4352,
      "##amination": 4353,
      "12.5": 4354,
      "180": 4355,
      "Conjunctiv": 4356,
      "sites": 4357,
      "although": 4358,
      "mel": 4359,
      "venous": 4360,
      "look": 4361,
      "##work": 4362,
      "TID": 4363,
      "1.73": 4364,
      "containing": 4365,
      "ankle": 4366,
      "angi": 4367,
      "Discontinued": 4368,
      "across": 4369,
      "Dressing": 4370,
      "onset": 4371,
      "##erly": 4372,
      "writ": 4373,
      "##ycin": 4374,
      "sided": 4375,
      "own": 4376,
      "Tob": 4377,
      "shift": 4378,
      "##app": 4379,
      "unspecified": 4380,
      "PROT": 4381,
      "partner": 4382,
      "##CA": 4383,
      "let": 4384,
      "activation": 4385,
      "grade": 4386,
      "comparison": 4387,
      "Ax": 4388,
      "deform": 4389,
      "6.0": 4390,
      "src": 4391,
      "resulted": 4392,
      "Discussed": 4393,
      "Eos": 4394,
      "LY": 4395,
      "feeding": 4396,
      "rales": 4397,
      "Profess": 4398,
      "arth": 4399,
      "##terday": 4400,
      "lay": 4401,
      "##ready": 4402,
      "TSH": 4403,
      "##esium": 4404,
      "##autions": 4405,
      "Sincerely": 4406,
      "arri": 4407,
      "##ardia": 4408,
      "##ts": 4409,
      "##encies": 4410,
      "##ifest": 4411,
      "slightly": 4412,
      "Diet": 4413,
      "##olecular": 4414,
      "Renal": 4415,
      "Lim": 4416,
      "Phosph": 4417,
      "surve": 4418,
      "Triage": 4419,
      "usually": 4420,
      "band": 4421,
      "##seous": 4422,
      "reflux": 4423,
      "soon": 4424,
      "##rated": 4425,
      "upon": 4426,
      "Hg": 4427,
      "##ulate": 4428,
      "memory": 4429,
      "##ARY": 4430,
      "models": 4431,
      "##53": 4432,
      "serum": 4433,
      "hal": 4434,
      "GERD": 4435,
      "##illin": 4436,
      "800": 4437,
      "hom": 4438,
      "CARE": 4439,
      "##etite": 4440,
      "61": 4441,
      "Primary": 4442,
      "Pol": 4443,
      "89": 4444,
      "83": 4445,
      "sore": 4446,
      "##omated": 4447,
      "toget": 4448,
      "routine": 4449,
      "together": 4450,
      "##ULT": 4451,
      "lumbar": 4452,
      "characterist": 4453,
      "Car": 4454,
      "oxygen": 4455,
      "business": 4456,
      "getting": 4457,
      "operative": 4458,
      "Requ": 4459,
      "##tation": 4460,
      "##iotic": 4461,
      "peak": 4462,
      "##ped": 4463,
      "middle": 4464,
      "##mitt": 4465,
      "REP": 4466,
      "##cope": 4467,
      "##lation": 4468,
      "heparin": 4469,
      "ide": 4470,
      "##mother": 4471,
      "##urance": 4472,
      "already": 4473,
      "ENT": 4474,
      "SURGERY": 4475,
      "hx": 4476,
      "aware": 4477,
      "distribution": 4478,
      "urg": 4479,
      "MIC": 4480,
      "More": 4481,
      "trauma": 4482,
      "##omfort": 4483,
      "##earing": 4484,
      "dysuria": 4485,
      "##rateg": 4486,
      "assistance": 4487,
      "abuse": 4488,
      "cross": 4489,
      "##enza": 4490,
      "margin": 4491,
      "methods": 4492,
      "outpatient": 4493,
      "MON": 4494,
      "##ony": 4495,
      "##CR": 4496,
      "CAPSULE": 4497,
      "##eria": 4498,
      "dysfunction": 4499,
      "##idence": 4500,
      "Check": 4501,
      "##asone": 4502,
      "NS": 4503,
      "Vent": 4504,
      "##29": 4505,
      "removal": 4506,
      "Tube": 4507,
      "resource": 4508,
      "##respond": 4509,
      "Management": 4510,
      "Engl": 4511,
      "integ": 4512,
      "ET": 4513,
      "##ella": 4514,
      "find": 4515,
      "##hold": 4516,
      "tip": 4517,
      "mE": 4518,
      "beg": 4519,
      "SL": 4520,
      "affected": 4521,
      "resolved": 4522,
      "Volume": 4523,
      "##BLE": 4524,
      "##ANT": 4525,
      "Nutrition": 4526,
      "Orders": 4527,
      "##bl": 4528,
      "107": 4529,
      "##icle": 4530,
      "concer": 4531,
      "speech": 4532,
      "mEq": 4533,
      "Routine": 4534,
      "Enter": 4535,
      "##oprol": 4536,
      "hard": 4537,
      "##reased": 4538,
      "never": 4539,
      "##acer": 4540,
      "Some": 4541,
      "##olus": 4542,
      "che": 4543,
      "products": 4544,
      "estimated": 4545,
      "PLAT": 4546,
      "PROC": 4547,
      "neuro": 4548,
      "VA": 4549,
      "Ox": 4550,
      "OB": 4551,
      "patent": 4552,
      "103": 4553,
      "parameters": 4554,
      "##ape": 4555,
      "##orth": 4556,
      "##asma": 4557,
      "DDx": 4558,
      "lev": 4559,
      "##roup": 4560,
      "##elt": 4561,
      "stroke": 4562,
      "##aces": 4563,
      "##encing": 4564,
      "Neutrophils": 4565,
      "##azole": 4566,
      "Emergent": 4567,
      "##47": 4568,
      "##acks": 4569,
      "yesterday": 4570,
      "carotid": 4571,
      "PLATCOUNT": 4572,
      "energy": 4573,
      "LA": 4574,
      "Shift": 4575,
      "ROM": 4576,
      "Function": 4577,
      "turn": 4578,
      "Monitor": 4579,
      "dam": 4580,
      "espec": 4581,
      "scler": 4582,
      "Colon": 4583,
      "hepat": 4584,
      "##ned": 4585,
      "Form": 4586,
      "Depression": 4587,
      "question": 4588,
      "##ELL": 4589,
      "tox": 4590,
      "hemorrhage": 4591,
      "way": 4592,
      "Comple": 4593,
      "atrial": 4594,
      "advised": 4595,
      "future": 4596,
      "types": 4597,
      "Special": 4598,
      "YRS": 4599,
      "##itone": 4600,
      "##iversity": 4601,
      "Does": 4602,
      "den": 4603,
      "ec": 4604,
      "##ifications": 4605,
      "synt": 4606,
      "##oke": 4607,
      "page": 4608,
      "##1.19": 4609,
      "##JECT": 4610,
      "especially": 4611,
      "defined": 4612,
      "calcium": 4613,
      "PS": 4614,
      "chrom": 4615,
      "carcinoma": 4616,
      "strateg": 4617,
      "##ostomy": 4618,
      "recommendations": 4619,
      "##rec": 4620,
      "409.9": 4621,
      "641.19": 4622,
      "409.901": 4623,
      "Adult": 4624,
      "correspond": 4625,
      "CS": 4626,
      "Professor": 4627,
      "##acent": 4628,
      "Mob": 4629,
      "want": 4630,
      "##elect": 4631,
      "filed": 4632,
      "States": 4633,
      "ASSESS": 4634,
      "tachy": 4635,
      "Tobacco": 4636,
      "antibiotics": 4637,
      "rashes": 4638,
      "EVERY": 4639,
      "Study": 4640,
      "ov": 4641,
      "Modified": 4642,
      "##ocrit": 4643,
      "SW": 4644,
      "birth": 4645,
      "ann": 4646,
      "1.9": 4647,
      "##chym": 4648,
      "facial": 4649,
      "display": 4650,
      "STUD": 4651,
      "agg": 4652,
      "participants": 4653,
      "Doppler": 4654,
      "Dist": 4655,
      "##ococ": 4656,
      "Asthma": 4657,
      "mac": 4658,
      "View": 4659,
      "concentrations": 4660,
      "REV": 4661,
      "##oprolol": 4662,
      "Appoint": 4663,
      "rap": 4664,
      "##AIR": 4665,
      "appointments": 4666,
      "##urrence": 4667,
      "providing": 4668,
      "##INT": 4669,
      "chloride": 4670,
      "underwent": 4671,
      "##obal": 4672,
      "nucle": 4673,
      "doses": 4674,
      "Ill": 4675,
      "special": 4676,
      "transport": 4677,
      "##ndom": 4678,
      "Assist": 4679,
      "items": 4680,
      "adult": 4681,
      "informed": 4682,
      "CODES": 4683,
      "cultures": 4684,
      "illness": 4685,
      "identify": 4686,
      "palpable": 4687,
      "prim": 4688,
      "external": 4689,
      "ray": 4690,
      "##etron": 4691,
      "##ervation": 4692,
      "##AV": 4693,
      "##abol": 4694,
      "balance": 4695,
      "ASSESSMENT": 4696,
      "occur": 4697,
      "quad": 4698,
      "thoracic": 4699,
      "click": 4700,
      "##ILI": 4701,
      "Fac": 4702,
      "mLs": 4703,
      "expected": 4704,
      "random": 4705,
      "ARNP": 4706,
      "rates": 4707,
      "opp": 4708,
      "seizure": 4709,
      "ng": 4710,
      "Notes": 4711,
      "0.01": 4712,
      "seconds": 4713,
      "analyzed": 4714,
      "##gor": 4715,
      "##EF": 4716,
      "Manual": 4717,
      "##OOD": 4718,
      "##DITION": 4719,
      "##OSCOPY": 4720,
      "Culture": 4721,
      "##ansetron": 4722,
      "Inhale": 4723,
      "Tw": 4724,
      "##ges": 4725,
      "fevers": 4726,
      "##23": 4727,
      "aorta": 4728,
      "##UC": 4729,
      "##land": 4730,
      "house": 4731,
      "##inate": 4732,
      "LDL": 4733,
      "##ico": 4734,
      "session": 4735,
      "Wor": 4736,
      "Although": 4737,
      "HS": 4738,
      "Td": 4739,
      "toward": 4740,
      "And": 4741,
      "superior": 4742,
      "WH": 4743,
      "regions": 4744,
      "refill": 4745,
      "sequence": 4746,
      "Emergency": 4747,
      "Basic": 4748,
      "DI": 4749,
      "Automated": 4750,
      "Potassium": 4751,
      "##FP": 4752,
      "reduce": 4753,
      "##BP": 4754,
      "residents": 4755,
      "third": 4756,
      "potassium": 4757,
      "Click": 4758,
      "##ASC": 4759,
      "##rea": 4760,
      "##ancomycin": 4761,
      "##overy": 4762,
      "release": 4763,
      "HFA": 4764,
      "involving": 4765,
      "inferior": 4766,
      "##active": 4767,
      "agre": 4768,
      "young": 4769,
      "experiments": 4770,
      "episode": 4771,
      "##ctomy": 4772,
      "Vitamin": 4773,
      "##itrogen": 4774,
      "##icial": 4775,
      "Pe": 4776,
      "asthma": 4777,
      "concerning": 4778,
      "stimul": 4779,
      "##hens": 4780,
      "couns": 4781,
      "mill": 4782,
      "lymphadenopathy": 4783,
      "therapeutic": 4784,
      "Av": 4785,
      "resistance": 4786,
      "##34": 4787,
      "art": 4788,
      "marked": 4789,
      "136": 4790,
      "Ul": 4791,
      "Ig": 4792,
      "mom": 4793,
      "ile": 4794,
      "TT": 4795,
      "##ino": 4796,
      "ond": 4797,
      "fin": 4798,
      "##vision": 4799,
      "Sleep": 4800,
      "##orts": 4801,
      "##otype": 4802,
      "released": 4803,
      "352": 4804,
      "##YPE": 4805,
      "ondansetron": 4806,
      "Both": 4807,
      "longer": 4808,
      "vo": 4809,
      "chart": 4810,
      "91": 4811,
      "##izes": 4812,
      "Ser": 4813,
      "CTA": 4814,
      "father": 4815,
      "MV": 4816,
      "Anesthesia": 4817,
      "recon": 4818,
      "deficits": 4819,
      "member": 4820,
      "##rus": 4821,
      "easily": 4822,
      "##born": 4823,
      "tom": 4824,
      "##ipp": 4825,
      "##37": 4826,
      "err": 4827,
      "added": 4828,
      "cerebral": 4829,
      "versus": 4830,
      "##ICATIONS": 4831,
      "##rolled": 4832,
      "discomfort": 4833,
      "NOR": 4834,
      "infections": 4835,
      "##hal": 4836,
      "tone": 4837,
      "correlation": 4838,
      "infant": 4839,
      "##INU": 4840,
      "appearing": 4841,
      "CONT": 4842,
      "DIAGNOSIS": 4843,
      "UR": 4844,
      "located": 4845,
      "Continuous": 4846,
      "##MPH": 4847,
      "experience": 4848,
      "ambul": 4849,
      "##lusion": 4850,
      "dressing": 4851,
      "collection": 4852,
      "cold": 4853,
      "COL": 4854,
      "cut": 4855,
      "Orthop": 4856,
      "calculated": 4857,
      "VITAMIN": 4858,
      "##chi": 4859,
      "put": 4860,
      "grossly": 4861,
      "Examination": 4862,
      "counter": 4863,
      "survival": 4864,
      "Mass": 4865,
      "##oster": 4866,
      "degenerative": 4867,
      "##ferred": 4868,
      "##48": 4869,
      "##iaz": 4870,
      "Room": 4871,
      "##igare": 4872,
      "Mic": 4873,
      "##ida": 4874,
      "IR": 4875,
      "Has": 4876,
      "Anxiety": 4877,
      "African": 4878,
      "text": 4879,
      "##ries": 4880,
      "ulcer": 4881,
      "##ellular": 4882,
      "##enol": 4883,
      "Alb": 4884,
      "3.2": 4885,
      "UL": 4886,
      "fractures": 4887,
      "heard": 4888,
      "graft": 4889,
      "##hou": 4890,
      "CXR": 4891,
      "hernia": 4892,
      "source": 4893,
      "##urysm": 4894,
      "Instructions": 4895,
      "hepatic": 4896,
      "LYMPH": 4897,
      "word": 4898,
      "CLIN": 4899,
      "swallow": 4900,
      "##to": 4901,
      "asym": 4902,
      "medial": 4903,
      "relatively": 4904,
      "##oon": 4905,
      "pm": 4906,
      "prn": 4907,
      "vacc": 4908,
      "##eases": 4909,
      "lack": 4910,
      "receptor": 4911,
      "send": 4912,
      "pelvic": 4913,
      "CARD": 4914,
      "##aren": 4915,
      "##ogenic": 4916,
      "##self": 4917,
      "34.0": 4918,
      "location": 4919,
      "unit": 4920,
      "##entin": 4921,
      "degree": 4922,
      "SM": 4923,
      "4.2": 4924,
      "indu": 4925,
      "##phone": 4926,
      "anemia": 4927,
      "##ouch": 4928,
      "GEN": 4929,
      "During": 4930,
      "Also": 4931,
      "##rofen": 4932,
      "association": 4933,
      "visits": 4934,
      "PROCED": 4935,
      "ask": 4936,
      "##OUR": 4937,
      "genetic": 4938,
      "##AZ": 4939,
      "stent": 4940,
      "features": 4941,
      "Sat": 4942,
      "options": 4943,
      "Request": 4944,
      "YOU": 4945,
      "##ipl": 4946,
      "##ympanic": 4947,
      "thickening": 4948,
      "redness": 4949,
      "cord": 4950,
      "solid": 4951,
      "spinal": 4952,
      "technique": 4953,
      "Os": 4954,
      "making": 4955,
      "Endocrine": 4956,
      "##abetic": 4957,
      "cav": 4958,
      "collected": 4959,
      "PIC": 4960,
      "36.7": 4961,
      "feels": 4962,
      "episodes": 4963,
      "oxyCODONE": 4964,
      "2000": 4965,
      "##aud": 4966,
      "radiation": 4967,
      "respond": 4968,
      "obstruction": 4969,
      "3.8": 4970,
      "##ware": 4971,
      "SU": 4972,
      "##ares": 4973,
      "thus": 4974,
      "molecular": 4975,
      "Cat": 4976,
      "REVIEW": 4977,
      "feeling": 4978,
      "topically": 4979,
      "Line": 4980,
      "Acc": 4981,
      "regimen": 4982,
      "staff": 4983,
      "measuring": 4984,
      "Aort": 4985,
      "Direct": 4986,
      "Regular": 4987,
      "IND": 4988,
      "LOS": 4989,
      "##RU": 4990,
      "narrow": 4991,
      "regurg": 4992,
      "##PT": 4993,
      "recurrent": 4994,
      "importance": 4995,
      "propert": 4996,
      "language": 4997,
      "nurse": 4998,
      "appetite": 4999,
      "polym": 5000,
      "##pite": 5001,
      "36.8": 5002,
      "##rehens": 5003,
      "Techn": 5004,
      "advanced": 5005,
      "Work": 5006,
      "exist": 5007,
      "##icter": 5008,
      "mes": 5009,
      "reflex": 5010,
      "##uprofen": 5011,
      "emergency": 5012,
      "util": 5013,
      "Arterial": 5014,
      "paper": 5015,
      "Case": 5016,
      "heter": 5017,
      "Conf": 5018,
      "##akes": 5019,
      "tib": 5020,
      "conducted": 5021,
      "example": 5022,
      "rapid": 5023,
      "responses": 5024,
      "arch": 5025,
      "Scheduled": 5026,
      "asc": 5027,
      "supplement": 5028,
      "output": 5029,
      "##iring": 5030,
      "##astolic": 5031,
      "##36": 5032,
      "ACU": 5033,
      "TM": 5034,
      "##iles": 5035,
      "compli": 5036,
      "Qual": 5037,
      "sus": 5038,
      "Sim": 5039,
      "##UTR": 5040,
      "##arynge": 5041,
      "Temperature": 5042,
      "##ament": 5043,
      "900": 5044,
      "##heal": 5045,
      "Specimen": 5046,
      "become": 5047,
      "PROCEDURE": 5048,
      "Pat": 5049,
      "devi": 5050,
      "extract": 5051,
      "vessels": 5052,
      "ACUITY": 5053,
      "degrees": 5054,
      "sexual": 5055,
      "##renal": 5056,
      "##ivation": 5057,
      "##icip": 5058,
      "abscess": 5059,
      "PAN": 5060,
      "Recorded": 5061,
      "##rend": 5062,
      "##21": 5063,
      "inflammation": 5064,
      "##ventions": 5065,
      "##ameter": 5066,
      "DISCONTD": 5067,
      "##any": 5068,
      "##rog": 5069,
      "##LC": 5070,
      "kin": 5071,
      "defin": 5072,
      "rout": 5073,
      "neph": 5074,
      "older": 5075,
      "##pirations": 5076,
      "seeing": 5077,
      "Op": 5078,
      "asked": 5079,
      "hypert": 5080,
      "artic": 5081,
      "##28": 5082,
      "training": 5083,
      "##onomic": 5084,
      "ABDOMEN": 5085,
      "eng": 5086,
      "Neurologic": 5087,
      "Maintenance": 5088,
      "##ources": 5089,
      "STUDY": 5090,
      "going": 5091,
      "inhibit": 5092,
      "Tod": 5093,
      "eth": 5094,
      "gain": 5095,
      "##eros": 5096,
      "tend": 5097,
      "##oler": 5098,
      "bur": 5099,
      "##ACE": 5100,
      "ane": 5101,
      "##une": 5102,
      "link": 5103,
      "suic": 5104,
      "aden": 5105,
      "amp": 5106,
      "2015": 5107,
      "##ards": 5108,
      "presenting": 5109,
      "Nasal": 5110,
      "causes": 5111,
      "##ager": 5112,
      "feet": 5113,
      "analyses": 5114,
      "##rill": 5115,
      "outside": 5116,
      "AF": 5117,
      "wrist": 5118,
      "hist": 5119,
      "Relationship": 5120,
      "compl": 5121,
      "ICU": 5122,
      "##rat": 5123,
      "intermitt": 5124,
      "describ": 5125,
      "project": 5126,
      "squ": 5127,
      "2.7": 5128,
      "2.1": 5129,
      "Ben": 5130,
      "occas": 5131,
      "Low": 5132,
      "University": 5133,
      "ONE": 5134,
      "individuals": 5135,
      "lat": 5136,
      "##formed": 5137,
      "##isone": 5138,
      "step": 5139,
      "enlarged": 5140,
      "##ATIVE": 5141,
      "##idocaine": 5142,
      "Office": 5143,
      "Behavioral": 5144,
      "Each": 5145,
      "thin": 5146,
      "atelect": 5147,
      "glyc": 5148,
      "##rip": 5149,
      "setting": 5150,
      "Leg": 5151,
      "public": 5152,
      "smoke": 5153,
      "Return": 5154,
      "Dry": 5155,
      "Site": 5156,
      "laboratory": 5157,
      "procedures": 5158,
      "attention": 5159,
      "syncope": 5160,
      "segment": 5161,
      "CONDITION": 5162,
      "vertebral": 5163,
      "RO": 5164,
      "##ordination": 5165,
      "BS": 5166,
      "##ontaneous": 5167,
      "SK": 5168,
      "##bladder": 5169,
      "silhou": 5170,
      "patch": 5171,
      "bronch": 5172,
      "##ISON": 5173,
      "##fast": 5174,
      "Device": 5175,
      "##RIL": 5176,
      "##46": 5177,
      "plant": 5178,
      "infilt": 5179,
      "aim": 5180,
      "acqu": 5181,
      "##FER": 5182,
      "highly": 5183,
      "##ton": 5184,
      "Encounters": 5185,
      "org": 5186,
      "FR": 5187,
      "regurgitation": 5188,
      "##inated": 5189,
      "Created": 5190,
      "whole": 5191,
      "power": 5192,
      "English": 5193,
      "Path": 5194,
      "Hyperlipidemia": 5195,
      "ALK": 5196,
      "Nightly": 5197,
      "methyl": 5198,
      "Pneum": 5199,
      "##luded": 5200,
      "therefore": 5201,
      "screen": 5202,
      "Opt": 5203,
      "196": 5204,
      "##fully": 5205,
      "Chloride": 5206,
      "COMPAR": 5207,
      "UP": 5208,
      "metabol": 5209,
      "##ropathy": 5210,
      "COMPARISON": 5211,
      "##ognitive": 5212,
      "lisinopril": 5213,
      "pancreat": 5214,
      "##ubation": 5215,
      "nerv": 5216,
      "immune": 5217,
      "##pnea": 5218,
      "reveals": 5219,
      "##VIL": 5220,
      "unknown": 5221,
      "##asons": 5222,
      "##ches": 5223,
      "Scale": 5224,
      "interaction": 5225,
      "combination": 5226,
      "showing": 5227,
      "##aker": 5228,
      "Currently": 5229,
      "106": 5230,
      "sensation": 5231,
      "##onin": 5232,
      "BLOOD": 5233,
      "##reas": 5234,
      "##aryngeal": 5235,
      "Filed": 5236,
      "Cle": 5237,
      "foods": 5238,
      "Ed": 5239,
      "earli": 5240,
      "##INATION": 5241,
      "Nursing": 5242,
      "subjects": 5243,
      "walking": 5244,
      "Cr": 5245,
      "Signature": 5246,
      "##de": 5247,
      "##ik": 5248,
      "close": 5249,
      "half": 5250,
      "##nder": 5251,
      "enhance": 5252,
      "Def": 5253,
      "BMP": 5254,
      "911": 5255,
      "Pers": 5256,
      "EP": 5257,
      "diagnostic": 5258,
      "##overed": 5259,
      "##urity": 5260,
      "suff": 5261,
      "transferred": 5262,
      "##allen": 5263,
      "Therefore": 5264,
      "secret": 5265,
      "iron": 5266,
      "stay": 5267,
      "disturb": 5268,
      "portal": 5269,
      "2.2": 5270,
      "improving": 5271,
      "comfort": 5272,
      "Language": 5273,
      "##brid": 5274,
      "Today": 5275,
      "px": 5276,
      "mechanism": 5277,
      "Any": 5278,
      "suggested": 5279,
      "Readings": 5280,
      "pharmac": 5281,
      "portions": 5282,
      "frag": 5283,
      "somet": 5284,
      "##arp": 5285,
      "replacement": 5286,
      "##care": 5287,
      "##76": 5288,
      "metoprolol": 5289,
      "2009": 5290,
      "border": 5291,
      "tract": 5292,
      "requested": 5293,
      "##imals": 5294,
      "##rection": 5295,
      "##INUED": 5296,
      "Gu": 5297,
      "son": 5298,
      "##LET": 5299,
      "osseous": 5300,
      "others": 5301,
      "Good": 5302,
      "##head": 5303,
      "LIP": 5304,
      "typ": 5305,
      "##ongue": 5306,
      "mort": 5307,
      "##02": 5308,
      "##ah": 5309,
      "##ertion": 5310,
      "criteria": 5311,
      "##ops": 5312,
      "XXX": 5313,
      "characteristics": 5314,
      "distended": 5315,
      "persistent": 5316,
      "finger": 5317,
      "##gias": 5318,
      "underg": 5319,
      "Alert": 5320,
      "AA": 5321,
      "##ectious": 5322,
      "deficit": 5323,
      "width": 5324,
      "##cence": 5325,
      "chemotherapy": 5326,
      "How": 5327,
      "infected": 5328,
      "atelectasis": 5329,
      "silhouette": 5330,
      "PG": 5331,
      "knowledge": 5332,
      "rib": 5333,
      "fam": 5334,
      "viral": 5335,
      "##fe": 5336,
      "##AST": 5337,
      "learning": 5338,
      "Small": 5339,
      "##onchi": 5340,
      "##rical": 5341,
      "Conjunctivae": 5342,
      "Sl": 5343,
      "##cers": 5344,
      "##EV": 5345,
      "tit": 5346,
      "DC": 5347,
      "Sur": 5348,
      "##kal": 5349,
      "##phth": 5350,
      "Arthritis": 5351,
      "lact": 5352,
      "##imate": 5353,
      "fluids": 5354,
      "##ENS": 5355,
      "lip": 5356,
      "controls": 5357,
      "distension": 5358,
      "environmental": 5359,
      "began": 5360,
      "##bow": 5361,
      "2006": 5362,
      "continuous": 5363,
      "GU": 5364,
      "Ratio": 5365,
      "LAB": 5366,
      "clubbing": 5367,
      "fold": 5368,
      "yellow": 5369,
      "##asia": 5370,
      "nont": 5371,
      "##bri": 5372,
      "DISCONTINUED": 5373,
      "sterile": 5374,
      "diseases": 5375,
      "swe": 5376,
      "0.001": 5377,
      "##FL": 5378,
      "clus": 5379,
      "##51": 5380,
      "##rs": 5381,
      "Substance": 5382,
      "begin": 5383,
      "encou": 5384,
      "EXAMINATION": 5385,
      "##yte": 5386,
      "season": 5387,
      "pad": 5388,
      "referred": 5389,
      "miss": 5390,
      "intro": 5391,
      "##39": 5392,
      "NC": 5393,
      "##ERAL": 5394,
      "ampl": 5395,
      "selected": 5396,
      "Breath": 5397,
      "Nausea": 5398,
      "detection": 5399,
      "Point": 5400,
      "Digital": 5401,
      "Anemia": 5402,
      "regul": 5403,
      "working": 5404,
      "Consult": 5405,
      "Port": 5406,
      "underlying": 5407,
      "##EK": 5408,
      "##orus": 5409,
      "##rient": 5410,
      "Most": 5411,
      "##ogene": 5412,
      "delivery": 5413,
      "PRIOR": 5414,
      "plasma": 5415,
      "bul": 5416,
      "little": 5417,
      "load": 5418,
      "SYST": 5419,
      "##PHOS": 5420,
      "wave": 5421,
      "legs": 5422,
      "TW": 5423,
      "##ulitis": 5424,
      "spent": 5425,
      "##endence": 5426,
      "Dept": 5427,
      "ure": 5428,
      "ess": 5429,
      "cooperative": 5430,
      "##RT": 5431,
      "##ope": 5432,
      "trial": 5433,
      "##aughter": 5434,
      "diffuse": 5435,
      "explained": 5436,
      "benign": 5437,
      "Pel": 5438,
      "mRNA": 5439,
      "focus": 5440,
      "##lycem": 5441,
      "First": 5442,
      "Screening": 5443,
      "directly": 5444,
      "reb": 5445,
      "##itate": 5446,
      "##RAL": 5447,
      "sequences": 5448,
      "floor": 5449,
      "too": 5450,
      "uter": 5451,
      "##iastinal": 5452,
      "became": 5453,
      "certain": 5454,
      "ALKPHOS": 5455,
      "transcription": 5456,
      "axial": 5457,
      "sensitivity": 5458,
      "nan": 5459,
      "Food": 5460,
      "closed": 5461,
      "##ytic": 5462,
      "##ACT": 5463,
      "STAT": 5464,
      "NAD": 5465,
      "Hematocrit": 5466,
      "##irus": 5467,
      "basis": 5468,
      "ALL": 5469,
      "##NE": 5470,
      "brow": 5471,
      "stra": 5472,
      "peric": 5473,
      "##idate": 5474,
      "linear": 5475,
      "##estation": 5476,
      "intracranial": 5477,
      "precautions": 5478,
      "Eye": 5479,
      "pathway": 5480,
      "##orders": 5481,
      "reason": 5482,
      "box": 5483,
      "##comes": 5484,
      "##orb": 5485,
      "##abap": 5486,
      "consist": 5487,
      "Sexually": 5488,
      "malign": 5489,
      "polyp": 5490,
      "##ators": 5491,
      "maintained": 5492,
      "Quality": 5493,
      "parents": 5494,
      "eating": 5495,
      "components": 5496,
      "##abapentin": 5497,
      "decision": 5498,
      "sac": 5499,
      "hematuria": 5500,
      "Eth": 5501,
      "cycle": 5502,
      "CPT": 5503,
      "Metabolic": 5504,
      "mov": 5505,
      "bp": 5506,
      "summ": 5507,
      "EN": 5508,
      "##ionally": 5509,
      "##omal": 5510,
      "datab": 5511,
      "Full": 5512,
      "overnight": 5513,
      "##acin": 5514,
      "arteries": 5515,
      "feed": 5516,
      "##asty": 5517,
      "Order": 5518,
      "real": 5519,
      "progression": 5520,
      "##ifestyle": 5521,
      "investigated": 5522,
      "PRO": 5523,
      "##IB": 5524,
      "Illness": 5525,
      "##42": 5526,
      "##ithel": 5527,
      "7.4": 5528,
      "Hepatitis": 5529,
      "frontal": 5530,
      "##rum": 5531,
      "Intern": 5532,
      "key": 5533,
      "##esophageal": 5534,
      "Red": 5535,
      "diameter": 5536,
      "##odyn": 5537,
      "critical": 5538,
      "antibody": 5539,
      "purp": 5540,
      "repe": 5541,
      "fast": 5542,
      "fill": 5543,
      "reflect": 5544,
      "members": 5545,
      "5.0": 5546,
      "Mental": 5547,
      "select": 5548,
      "breakfast": 5549,
      "challen": 5550,
      "assay": 5551,
      "believe": 5552,
      "neurolog": 5553,
      "##room": 5554,
      "studied": 5555,
      "##olence": 5556,
      "mechanisms": 5557,
      "Elect": 5558,
      "2300": 5559,
      "war": 5560,
      "##QU": 5561,
      "##open": 5562,
      "takes": 5563,
      "involve": 5564,
      "##more": 5565,
      "detect": 5566,
      "2008": 5567,
      "##oll": 5568,
      "trig": 5569,
      "4.6": 5570,
      "##son": 5571,
      "##tained": 5572,
      "##leen": 5573,
      "whereas": 5574,
      "Appt": 5575,
      "rehab": 5576,
      "##HD": 5577,
      "gastric": 5578,
      "##aries": 5579,
      "##ners": 5580,
      "indicates": 5581,
      "What": 5582,
      "##ROID": 5583,
      "invas": 5584,
      "Bro": 5585,
      "Exit": 5586,
      "PSC": 5587,
      "QT": 5588,
      "##rant": 5589,
      "HP": 5590,
      "medium": 5591,
      "answered": 5592,
      "dig": 5593,
      "##oar": 5594,
      "lipid": 5595,
      "##201": 5596,
      "Two": 5597,
      "intensity": 5598,
      "##ceived": 5599,
      "##iced": 5600,
      "scrib": 5601,
      "8.0": 5602,
      "animals": 5603,
      "beta": 5604,
      "UF": 5605,
      "##asp": 5606,
      "Here": 5607,
      "Vascular": 5608,
      "##riction": 5609,
      "microscop": 5610,
      "film": 5611,
      "Cap": 5612,
      "##itative": 5613,
      "deformity": 5614,
      "pink": 5615,
      "EXT": 5616,
      "derived": 5617,
      "##oley": 5618,
      "##END": 5619,
      "Lipid": 5620,
      "Question": 5621,
      "displayed": 5622,
      "Hand": 5623,
      "##rade": 5624,
      "community": 5625,
      "8.6": 5626,
      "##atology": 5627,
      "##fl": 5628,
      "Sch": 5629,
      "damage": 5630,
      "36.6": 5631,
      "##abil": 5632,
      "HDL": 5633,
      "Author": 5634,
      "cand": 5635,
      "##igen": 5636,
      "essential": 5637,
      "IU": 5638,
      "Create": 5639,
      "established": 5640,
      "##eff": 5641,
      "participate": 5642,
      "##31": 5643,
      "bruising": 5644,
      "##imens": 5645,
      "Platelet": 5646,
      "predn": 5647,
      "canal": 5648,
      "insuff": 5649,
      "##ote": 5650,
      "##itoneal": 5651,
      "satis": 5652,
      "muscles": 5653,
      "late": 5654,
      "HD": 5655,
      "##FORM": 5656,
      "##oscopic": 5657,
      "isolated": 5658,
      "##erest": 5659,
      "rats": 5660,
      "SS": 5661,
      "##ttes": 5662,
      "recogn": 5663,
      "Mid": 5664,
      "Auto": 5665,
      "JVD": 5666,
      "aneurysm": 5667,
      "intravenous": 5668,
      "##oman": 5669,
      "##Your": 5670,
      "duration": 5671,
      "DT": 5672,
      "Susp": 5673,
      "dated": 5674,
      "Grandmother": 5675,
      "epid": 5676,
      "simple": 5677,
      "htt": 5678,
      "eGFR": 5679,
      "Administ": 5680,
      "Motor": 5681,
      "belong": 5682,
      "##inations": 5683,
      "apprec": 5684,
      "SD": 5685,
      "2016": 5686,
      "password": 5687,
      "media": 5688,
      "##75": 5689,
      "alignment": 5690,
      "##onate": 5691,
      "##utum": 5692,
      "3.7": 5693,
      "EMS": 5694,
      "LEFT": 5695,
      "HCl": 5696,
      "extensive": 5697,
      "650": 5698,
      "inhal": 5699,
      "##ptomatic": 5700,
      "##pha": 5701,
      "created": 5702,
      "clos": 5703,
      "murmurs": 5704,
      "While": 5705,
      "##ceed": 5706,
      "Sy": 5707,
      "Quant": 5708,
      "##vern": 5709,
      "##ylenol": 5710,
      "ped": 5711,
      "##omb": 5712,
      "PANEL": 5713,
      "Gross": 5714,
      "##iately": 5715,
      "mucosa": 5716,
      "tight": 5717,
      "metabolic": 5718,
      "Delayed": 5719,
      "Ears": 5720,
      "##44": 5721,
      "remained": 5722,
      "##iasis": 5723,
      "stiff": 5724,
      "aspect": 5725,
      "##earance": 5726,
      "suggesting": 5727,
      "Taking": 5728,
      "CY": 5729,
      "mobility": 5730,
      "Short": 5731,
      "mildly": 5732,
      "##ged": 5733,
      "Allergic": 5734,
      "outcomes": 5735,
      "Mood": 5736,
      "palpation": 5737,
      "##igarettes": 5738,
      "consol": 5739,
      "##cardia": 5740,
      "##bulization": 5741,
      "Dose": 5742,
      "tric": 5743,
      "Soc": 5744,
      "blue": 5745,
      "Stand": 5746,
      "36.9": 5747,
      "resulting": 5748,
      "bra": 5749,
      "##ding": 5750,
      "##oprazole": 5751,
      "pen": 5752,
      "##ibly": 5753,
      "come": 5754,
      "DAY": 5755,
      "Index": 5756,
      "immediate": 5757,
      "morbid": 5758,
      "opac": 5759,
      "PP": 5760,
      "allergic": 5761,
      "appe": 5762,
      "##brile": 5763,
      "##CM": 5764,
      "initially": 5765,
      "NEUTR": 5766,
      "Extended": 5767,
      "abused": 5768,
      "nontender": 5769,
      "##22": 5770,
      "5.1": 5771,
      "Thus": 5772,
      "ME": 5773,
      "##airs": 5774,
      "born": 5775,
      "novel": 5776,
      "##istic": 5777,
      "Noted": 5778,
      "stre": 5779,
      "Diagnostic": 5780,
      "Fluid": 5781,
      "black": 5782,
      "host": 5783,
      "3.0": 5784,
      "EG": 5785,
      "United": 5786,
      "NT": 5787,
      "Valve": 5788,
      "properties": 5789,
      "exud": 5790,
      "EOS": 5791,
      "##43": 5792,
      "written": 5793,
      "##ITOR": 5794,
      "personal": 5795,
      "serious": 5796,
      "##ground": 5797,
      "contract": 5798,
      "felt": 5799,
      "##ana": 5800,
      "absent": 5801,
      "LP": 5802,
      "2.3": 5803,
      "##rm": 5804,
      "##rief": 5805,
      "median": 5806,
      "dyn": 5807,
      "RIGHT": 5808,
      "progress": 5809,
      "##tes": 5810,
      "alone": 5811,
      "bony": 5812,
      "molec": 5813,
      "Net": 5814,
      "PICC": 5815,
      "##58": 5816,
      "##apse": 5817,
      "capacity": 5818,
      "Internal": 5819,
      "Max": 5820,
      "hands": 5821,
      "UTI": 5822,
      "mortality": 5823,
      "vitro": 5824,
      "accomp": 5825,
      "pept": 5826,
      "NEED": 5827,
      "##ocity": 5828,
      "experimental": 5829,
      "hrs": 5830,
      "Mobile": 5831,
      "Tympanic": 5832,
      "trend": 5833,
      "partial": 5834,
      "healing": 5835,
      "original": 5836,
      "Sinus": 5837,
      "##oretic": 5838,
      "Dys": 5839,
      "circum": 5840,
      "##imated": 5841,
      "##54": 5842,
      "las": 5843,
      "NOTE": 5844,
      "someone": 5845,
      "interventions": 5846,
      "Jan": 5847,
      "benefit": 5848,
      "points": 5849,
      "minor": 5850,
      "##ATED": 5851,
      "choosing": 5852,
      "unique": 5853,
      "increases": 5854,
      "scribe": 5855,
      "##ush": 5856,
      "Attends": 5857,
      "Tablets": 5858,
      "##phthalm": 5859,
      "##seud": 5860,
      "##ANC": 5861,
      "SV": 5862,
      "DES": 5863,
      "cate": 5864,
      "Upper": 5865,
      "GLUCOSE": 5866,
      "relief": 5867,
      "obstructive": 5868,
      "yet": 5869,
      "earlier": 5870,
      "facil": 5871,
      "impaired": 5872,
      "attached": 5873,
      "double": 5874,
      "Clean": 5875,
      "##olecyst": 5876,
      "liquid": 5877,
      "frequent": 5878,
      "guarding": 5879,
      "Make": 5880,
      "Knee": 5881,
      "Only": 5882,
      "Qty": 5883,
      "ART": 5884,
      "##sc": 5885,
      "Infusions": 5886,
      "Thyroid": 5887,
      "processes": 5888,
      "follows": 5889,
      "Appearance": 5890,
      "took": 5891,
      "nm": 5892,
      "##ancial": 5893,
      "Ult": 5894,
      "##itude": 5895,
      "bath": 5896,
      "TABS": 5897,
      "##rehensive": 5898,
      "##rosc": 5899,
      "think": 5900,
      "IVC": 5901,
      "meth": 5902,
      "##rought": 5903,
      "##arily": 5904,
      "##arian": 5905,
      "##het": 5906,
      "prescriptions": 5907,
      "Adv": 5908,
      "##gia": 5909,
      "signaling": 5910,
      "patterns": 5911,
      "obesity": 5912,
      "Pending": 5913,
      "falls": 5914,
      "##OUS": 5915,
      "Rh": 5916,
      "cholesterol": 5917,
      "notified": 5918,
      "bott": 5919,
      "450": 5920,
      "trem": 5921,
      "PAIN": 5922,
      "mM": 5923,
      "produced": 5924,
      "##rot": 5925,
      "138": 5926,
      "airway": 5927,
      "Fax": 5928,
      "liter": 5929,
      "dors": 5930,
      "##rack": 5931,
      "##ai": 5932,
      "Former": 5933,
      "though": 5934,
      "occurred": 5935,
      "4.1": 5936,
      "VACC": 5937,
      "Stress": 5938,
      "TBILI": 5939,
      "##ocardi": 5940,
      "arterial": 5941,
      "fraction": 5942,
      "##icted": 5943,
      "ib": 5944,
      "green": 5945,
      "maximum": 5946,
      "##JECTIVE": 5947,
      "Oroph": 5948,
      "portion": 5949,
      "absence": 5950,
      "committed": 5951,
      "2.8": 5952,
      "prolif": 5953,
      "exact": 5954,
      "means": 5955,
      "45.0": 5956,
      "mar": 5957,
      "constant": 5958,
      "tried": 5959,
      "disl": 5960,
      "Referring": 5961,
      "##umen": 5962,
      "##03": 5963,
      "##erol": 5964,
      "##med": 5965,
      "nat": 5966,
      "needle": 5967,
      "##ails": 5968,
      "##56": 5969,
      "##aches": 5970,
      "##anges": 5971,
      "##emic": 5972,
      "##uspid": 5973,
      "survey": 5974,
      "consulted": 5975,
      "viv": 5976,
      "Patients": 5977,
      "##RD": 5978,
      "##ECTOMY": 5979,
      "##inophils": 5980,
      "VACCINE": 5981,
      "Furthermore": 5982,
      "##ploy": 5983,
      "Onc": 5984,
      "preval": 5985,
      "2017": 5986,
      "mediated": 5987,
      "nond": 5988,
      "rhonchi": 5989,
      "nam": 5990,
      "Tra": 5991,
      "rhin": 5992,
      "living": 5993,
      "CMP": 5994,
      "Sept": 5995,
      "Gait": 5996,
      "##arenchym": 5997,
      "residual": 5998,
      "##luenza": 5999,
      "updated": 6000,
      "puffs": 6001,
      "interactions": 6002,
      "##ORTA": 6003,
      "Rest": 6004,
      "##uls": 6005,
      "appt": 6006,
      "deficiency": 6007,
      "consum": 6008,
      "11.0": 6009,
      "##estern": 6010,
      "2007": 6011,
      "##inct": 6012,
      "touch": 6013,
      "tele": 6014,
      "grand": 6015,
      "PTT": 6016,
      "627": 6017,
      "Mom": 6018,
      "##Cs": 6019,
      "som": 6020,
      "Rehab": 6021,
      "om": 6022,
      "mouse": 6023,
      "SOL": 6024,
      "##hood": 6025,
      "##unctions": 6026,
      "sick": 6027,
      "##PROT": 6028,
      "##lish": 6029,
      "##iver": 6030,
      "Method": 6031,
      "Hyd": 6032,
      "requiring": 6033,
      "sn": 6034,
      "Paternal": 6035,
      "Lymphocytes": 6036,
      "bring": 6037,
      "Cardiology": 6038,
      "compet": 6039,
      "identity": 6040,
      "##avi": 6041,
      "mitral": 6042,
      "network": 6043,
      "matter": 6044,
      "Pap": 6045,
      "clinically": 6046,
      "##SE": 6047,
      "HOUR": 6048,
      "starting": 6049,
      "2.6": 6050,
      "##ortion": 6051,
      "pleasure": 6052,
      "240": 6053,
      "##arriers": 6054,
      "Complex": 6055,
      "Oropharynx": 6056,
      "NPO": 6057,
      "esophag": 6058,
      "National": 6059,
      "happ": 6060,
      "##regular": 6061,
      "##iques": 6062,
      "Magn": 6063,
      "hab": 6064,
      "Staff": 6065,
      "resection": 6066,
      "diaphoretic": 6067,
      "##avy": 6068,
      "scores": 6069,
      "##DER": 6070,
      "Group": 6071,
      "amb": 6072,
      "arr": 6073,
      "##eprazole": 6074,
      "extension": 6075,
      "obvious": 6076,
      "White": 6077,
      "thickness": 6078,
      "rebound": 6079,
      "decl": 6080,
      "finding": 6081,
      "pediatric": 6082,
      "Bo": 6083,
      "Pass": 6084,
      "2259": 6085,
      "3.9": 6086,
      "Source": 6087,
      "intermittent": 6088,
      "##ULAR": 6089,
      "Assistant": 6090,
      "spray": 6091,
      "Muc": 6092,
      "prem": 6093,
      "##mitted": 6094,
      "heat": 6095,
      "DR": 6096,
      "##LOR": 6097,
      "Transport": 6098,
      "Tests": 6099,
      "##lication": 6100,
      "adapt": 6101,
      "3.1": 6102,
      "milk": 6103,
      "##NL": 6104,
      "Les": 6105,
      "##ricular": 6106,
      "##orvastatin": 6107,
      "leuk": 6108,
      "diver": 6109,
      "checked": 6110,
      "trials": 6111,
      "3.6": 6112,
      "Rash": 6113,
      "deviation": 6114,
      "2.4": 6115,
      "spontaneous": 6116,
      "##oring": 6117,
      "build": 6118,
      "##rew": 6119,
      "prostate": 6120,
      "temporal": 6121,
      "ren": 6122,
      "node": 6123,
      "##rig": 6124,
      "##oplasm": 6125,
      "wife": 6126,
      "alle": 6127,
      "##mia": 6128,
      "Drain": 6129,
      "##load": 6130,
      "##PIR": 6131,
      "##irr": 6132,
      "excess": 6133,
      "##omer": 6134,
      "resolution": 6135,
      "##ethyl": 6136,
      "SKIN": 6137,
      "CHF": 6138,
      "effort": 6139,
      "REPORT": 6140,
      "Respirations": 6141,
      "completely": 6142,
      "irrit": 6143,
      "relev": 6144,
      "cou": 6145,
      "subst": 6146,
      "##ache": 6147,
      "impl": 6148,
      "##antoprazole": 6149,
      "Wound": 6150,
      "98.2": 6151,
      "retro": 6152,
      "TIM": 6153,
      "##ATORY": 6154,
      "##father": 6155,
      "sugar": 6156,
      "auth": 6157,
      "##iary": 6158,
      "Now": 6159,
      "bar": 6160,
      "Mond": 6161,
      "vel": 6162,
      "##ducing": 6163,
      "##icles": 6164,
      "##ochond": 6165,
      "137": 6166,
      "Prop": 6167,
      "County": 6168,
      "tool": 6169,
      "immediately": 6170,
      "interest": 6171,
      "TD": 6172,
      "corresponding": 6173,
      "Fr": 6174,
      "##THROID": 6175,
      "Flor": 6176,
      "try": 6177,
      "PERR": 6178,
      "##41": 6179,
      "##ging": 6180,
      "##bo": 6181,
      "OD": 6182,
      "foc": 6183,
      "reference": 6184,
      "appeared": 6185,
      "##OH": 6186,
      "##CK": 6187,
      "##orbid": 6188,
      "requires": 6189,
      "od": 6190,
      "practice": 6191,
      "proposed": 6192,
      "129": 6193,
      "##ully": 6194,
      "wild": 6195,
      "lidocaine": 6196,
      "BR": 6197,
      "##lege": 6198,
      "##me": 6199,
      "##omas": 6200,
      "pregnant": 6201,
      "ibuprofen": 6202,
      "139": 6203,
      "Fin": 6204,
      "##hicle": 6205,
      "unex": 6206,
      "Aug": 6207,
      "ens": 6208,
      "nd": 6209,
      "Rect": 6210,
      "apnea": 6211,
      "recovery": 6212,
      "postoperative": 6213,
      "##IZ": 6214,
      "suggests": 6215,
      "Heme": 6216,
      "Symptoms": 6217,
      "##sis": 6218,
      "prominent": 6219,
      "specimen": 6220,
      "flat": 6221,
      "Xr": 6222,
      "##ochem": 6223,
      "##unn": 6224,
      "nodules": 6225,
      "went": 6226,
      "NEG": 6227,
      "Associated": 6228,
      "compar": 6229,
      "sulfate": 6230,
      "##agia": 6231,
      "pathology": 6232,
      "BI": 6233,
      "##esthetic": 6234,
      "##ortun": 6235,
      "##acerb": 6236,
      "cellular": 6237,
      "Needs": 6238,
      "dilated": 6239,
      "regulation": 6240,
      "##oz": 6241,
      "Urea": 6242,
      "proper": 6243,
      "narrowing": 6244,
      "TPROT": 6245,
      "radial": 6246,
      "##enomegaly": 6247,
      "##band": 6248,
      "eat": 6249,
      "input": 6250,
      "influence": 6251,
      "Screen": 6252,
      "Interval": 6253,
      "vivo": 6254,
      "vancomycin": 6255,
      "##ias": 6256,
      "##itr": 6257,
      "held": 6258,
      "newborn": 6259,
      "fluores": 6260,
      "##CL": 6261,
      "glass": 6262,
      "rect": 6263,
      "gabapentin": 6264,
      "techniques": 6265,
      "VIA": 6266,
      "##ephrosis": 6267,
      "Om": 6268,
      "distance": 6269,
      "##.732": 6270,
      "##iological": 6271,
      "##itary": 6272,
      "LTG": 6273,
      "apopt": 6274,
      "627.732": 6275,
      "awake": 6276,
      "##ger": 6277,
      "outcome": 6278,
      "Cholesterol": 6279,
      "PAST": 6280,
      "cognitive": 6281,
      "transition": 6282,
      "Eu": 6283,
      "occurs": 6284,
      "Visual": 6285,
      "##ta": 6286,
      "##UMB": 6287,
      "tongue": 6288,
      "Color": 6289,
      "trouble": 6290,
      "Estimated": 6291,
      "BSA": 6292,
      "elbow": 6293,
      "receiving": 6294,
      "010": 6295,
      "bacterial": 6296,
      "press": 6297,
      "satisfact": 6298,
      "Eosinophils": 6299,
      "database": 6300,
      "strains": 6301,
      "Stop": 6302,
      "far": 6303,
      "##inf": 6304,
      "inhibition": 6305,
      "mention": 6306,
      "##off": 6307,
      "center": 6308,
      "12.0": 6309,
      "##iral": 6310,
      "details": 6311,
      "##zine": 6312,
      "application": 6313,
      "rather": 6314,
      "##ogenesis": 6315,
      "##romeg": 6316,
      "##ria": 6317,
      "##igned": 6318,
      "Frequ": 6319,
      "nature": 6320,
      "hematoma": 6321,
      "antibiotic": 6322,
      "biological": 6323,
      "oroph": 6324,
      "represents": 6325,
      "sen": 6326,
      "axis": 6327,
      "1459": 6328,
      "Box": 6329,
      "HEP": 6330,
      "Prevent": 6331,
      "communication": 6332,
      "Conversion": 6333,
      "combined": 6334,
      "formerly": 6335,
      "Derm": 6336,
      "CHOL": 6337,
      "said": 6338,
      "98.1": 6339,
      "inst": 6340,
      "pall": 6341,
      "repeated": 6342,
      "RRR": 6343,
      "##agulation": 6344,
      "MT": 6345,
      "bacteria": 6346,
      "8.3": 6347,
      "IP": 6348,
      "usual": 6349,
      "mast": 6350,
      "##55": 6351,
      "HL": 6352,
      "##epam": 6353,
      "terms": 6354,
      "##rillation": 6355,
      "##33": 6356,
      "##ference": 6357,
      "MEDICATIONS": 6358,
      "ste": 6359,
      "generated": 6360,
      "exposed": 6361,
      "nodule": 6362,
      "disorders": 6363,
      "hall": 6364,
      "gallbladder": 6365,
      "cover": 6366,
      "##last": 6367,
      "stimulation": 6368,
      "hydrox": 6369,
      "fri": 6370,
      "Pharm": 6371,
      "##ams": 6372,
      "0.25": 6373,
      "##lements": 6374,
      "Influenza": 6375,
      "Oste": 6376,
      "Monday": 6377,
      "##most": 6378,
      "SING": 6379,
      "pal": 6380,
      "subsequent": 6381,
      "la": 6382,
      "##GF": 6383,
      "domain": 6384,
      "##ocular": 6385,
      "Spe": 6386,
      "Refills": 6387,
      "STA": 6388,
      "lac": 6389,
      "subcutaneous": 6390,
      "##ontinence": 6391,
      "##ronephrosis": 6392,
      "larger": 6393,
      "adults": 6394,
      "particularly": 6395,
      "##heum": 6396,
      "326": 6397,
      "##isions": 6398,
      "ASA": 6399,
      "adjacent": 6400,
      "Nitrogen": 6401,
      "insurance": 6402,
      "Indication": 6403,
      "var": 6404,
      "##HC": 6405,
      "FOL": 6406,
      "electroly": 6407,
      "##ifically": 6408,
      "##inating": 6409,
      "antibodies": 6410,
      "##ellar": 6411,
      "TP": 6412,
      "resid": 6413,
      "7.3": 6414,
      "miR": 6415,
      "quadrant": 6416,
      "Change": 6417,
      "experienced": 6418,
      "dialysis": 6419,
      "Peripheral": 6420,
      "STG": 6421,
      "diastolic": 6422,
      "PSCB": 6423,
      "TF": 6424,
      "##RIC": 6425,
      "##inc": 6426,
      "action": 6427,
      "pharmacy": 6428,
      "genome": 6429,
      "dip": 6430,
      "HEAD": 6431,
      "Keep": 6432,
      "USA": 6433,
      "##eine": 6434,
      "metastatic": 6435,
      "##MB": 6436,
      "ice": 6437,
      "Initial": 6438,
      "accurate": 6439,
      "pantoprazole": 6440,
      "fL": 6441,
      "forward": 6442,
      "##EMS": 6443,
      "Cal": 6444,
      "##uticasone": 6445,
      "daughter": 6446,
      "Orient": 6447,
      "4.3": 6448,
      "root": 6449,
      "##ANS": 6450,
      "##istry": 6451,
      "Aff": 6452,
      "fluor": 6453,
      "##umer": 6454,
      "multiv": 6455,
      "surround": 6456,
      "##imm": 6457,
      "brought": 6458,
      "maternal": 6459,
      "##NF": 6460,
      "cardiovascular": 6461,
      "##nes": 6462,
      "##aque": 6463,
      "anat": 6464,
      "##aiting": 6465,
      "PF": 6466,
      "##aster": 6467,
      "educated": 6468,
      "Given": 6469,
      "##aedic": 6470,
      "##aken": 6471,
      "provides": 6472,
      "atorvastatin": 6473,
      "frequently": 6474,
      "Product": 6475,
      "wean": 6476,
      "nursing": 6477,
      "THANK": 6478,
      "##rose": 6479,
      "SR": 6480,
      "differentiation": 6481,
      "normally": 6482,
      "Meds": 6483,
      "fund": 6484,
      "AK": 6485,
      "##aund": 6486,
      "defect": 6487,
      "measurements": 6488,
      "##othy": 6489,
      "XL": 6490,
      "ADL": 6491,
      "##raine": 6492,
      "chlor": 6493,
      "Days": 6494,
      "##otomy": 6495,
      "pap": 6496,
      "severity": 6497,
      "GFR": 6498,
      "##roscler": 6499,
      "ms": 6500,
      "##oarthritis": 6501,
      "Muscle": 6502,
      "withd": 6503,
      "pericardial": 6504,
      "exacerb": 6505,
      "6.4": 6506,
      "Neurology": 6507,
      "##erectomy": 6508,
      "##king": 6509,
      "organization": 6510,
      "##If": 6511,
      "dimension": 6512,
      "fu": 6513,
      "infarction": 6514,
      "itching": 6515,
      "bolus": 6516,
      "basal": 6517,
      "characterized": 6518,
      "Gap": 6519,
      "neurons": 6520,
      "icter": 6521,
      "Ech": 6522,
      "carried": 6523,
      "Kidne": 6524,
      "markers": 6525,
      "##PL": 6526,
      "stopped": 6527,
      "GCS": 6528,
      "##ience": 6529,
      "##ball": 6530,
      "possibly": 6531,
      "consolidation": 6532,
      "##gu": 6533,
      "compliance": 6534,
      "##raged": 6535,
      "py": 6536,
      "Cervical": 6537,
      "1600": 6538,
      "3.4": 6539,
      "dental": 6540,
      "Referral": 6541,
      "##78": 6542,
      "##jection": 6543,
      "unless": 6544,
      "infarct": 6545,
      "14.0": 6546,
      "##ILS": 6547,
      "drinking": 6548,
      "OS": 6549,
      "Had": 6550,
      "returned": 6551,
      "adverse": 6552,
      "Avoid": 6553,
      "says": 6554,
      "create": 6555,
      "alpha": 6556,
      "##70": 6557,
      "Types": 6558,
      "##lications": 6559,
      "http": 6560,
      "##ek": 6561,
      "##ocusate": 6562,
      "nor": 6563,
      "variables": 6564,
      "Second": 6565,
      "hydronephrosis": 6566,
      "compression": 6567,
      "leads": 6568,
      "PRES": 6569,
      "##RECT": 6570,
      "chann": 6571,
      "Mg": 6572,
      "0.03": 6573,
      "State": 6574,
      "urgent": 6575,
      "collect": 6576,
      "##NESS": 6577,
      "functions": 6578,
      "lap": 6579,
      "bases": 6580,
      "##heroscler": 6581,
      "109": 6582,
      "polic": 6583,
      "##iol": 6584,
      "##orrow": 6585,
      "##stead": 6586,
      "112": 6587,
      "tolerance": 6588,
      "Jud": 6589,
      "disturbance": 6590,
      "##openia": 6591,
      "111": 6592,
      "lives": 6593,
      "##pected": 6594,
      "WNL": 6595,
      "Duration": 6596,
      "Florida": 6597,
      "Hearing": 6598,
      "aer": 6599,
      "##ley": 6600,
      "##romegaly": 6601,
      "Interes": 6602,
      "SYSTEMS": 6603,
      "highest": 6604,
      "##mission": 6605,
      "complication": 6606,
      "duct": 6607,
      "planning": 6608,
      "effusions": 6609,
      "attending": 6610,
      "##itory": 6611,
      "radiograph": 6612,
      "aud": 6613,
      "EY": 6614,
      "populations": 6615,
      "##ining": 6616,
      "chemical": 6617,
      "HA": 6618,
      "Impaired": 6619,
      "##ameth": 6620,
      "##asant": 6621,
      "ischemic": 6622,
      "##opath": 6623,
      "monit": 6624,
      "spleen": 6625,
      "LD": 6626,
      "Need": 6627,
      "Lower": 6628,
      "mix": 6629,
      "caps": 6630,
      "##structed": 6631,
      "##hyroidism": 6632,
      "##rix": 6633,
      "##genital": 6634,
      "North": 6635,
      "numbers": 6636,
      "joints": 6637,
      "##ese": 6638,
      "##oper": 6639,
      "Bed": 6640,
      "Palp": 6641,
      "Latin": 6642,
      "##romycin": 6643,
      "##back": 6644,
      "PRIN": 6645,
      "parenchym": 6646,
      "PROV": 6647,
      "BC": 6648,
      "##usive": 6649,
      "Liver": 6650,
      "CDC": 6651,
      "##nicity": 6652,
      "Options": 6653,
      "supine": 6654,
      "platelet": 6655,
      "plans": 6656,
      "route": 6657,
      "Aortic": 6658,
      "Job": 6659,
      "##orp": 6660,
      "stiffness": 6661,
      "##phagia": 6662,
      "Every": 6663,
      "Moreover": 6664,
      "goals": 6665,
      "probably": 6666,
      "##eter": 6667,
      "Spine": 6668,
      "experiment": 6669,
      "##AGE": 6670,
      "adrenal": 6671,
      "##elines": 6672,
      "Jul": 6673,
      "bic": 6674,
      "##aching": 6675,
      "subject": 6676,
      "Race": 6677,
      "##change": 6678,
      "Sol": 6679,
      "electronically": 6680,
      "Seiz": 6681,
      "Hispanic": 6682,
      "Appointments": 6683,
      "GP": 6684,
      "prevention": 6685,
      "Message": 6686,
      "##ception": 6687,
      "Married": 6688,
      "verify": 6689,
      "ting": 6690,
      "implant": 6691,
      "##lycemia": 6692,
      "DP": 6693,
      "core": 6694,
      "talk": 6695,
      "MONOPCT": 6696,
      "situation": 6697,
      "Che": 6698,
      "Phosphorus": 6699,
      "abd": 6700,
      "##rowth": 6701,
      "Strength": 6702,
      "Sever": 6703,
      "INTER": 6704,
      "##iveness": 6705,
      "User": 6706,
      "EL": 6707,
      "##oresis": 6708,
      "##ARGE": 6709,
      "workup": 6710,
      "enhancement": 6711,
      "##ena": 6712,
      "Under": 6713,
      "gastroesophageal": 6714,
      "amino": 6715,
      "derm": 6716,
      "Germ": 6717,
      "tet": 6718,
      "insufficiency": 6719,
      "##ophil": 6720,
      "##uary": 6721,
      "thigh": 6722,
      "bag": 6723,
      "biom": 6724,
      "ca": 6725,
      "##LOD": 6726,
      "lbs": 6727,
      "regard": 6728,
      "##ze": 6729,
      "##ocyte": 6730,
      "irregular": 6731,
      "secure": 6732,
      "Confirm": 6733,
      "leading": 6734,
      "tumors": 6735,
      "##ping": 6736,
      "broad": 6737,
      "causing": 6738,
      "ol": 6739,
      "achieved": 6740,
      "rol": 6741,
      "append": 6742,
      "providers": 6743,
      "ZEST": 6744,
      "##SONE": 6745,
      "Nurse": 6746,
      "vessel": 6747,
      "thyromegaly": 6748,
      "Rectal": 6749,
      "prevalence": 6750,
      "Sent": 6751,
      "Pr": 6752,
      "##mol": 6753,
      "##thing": 6754,
      "kidneys": 6755,
      "Anion": 6756,
      "Using": 6757,
      "Oct": 6758,
      "##eful": 6759,
      "seat": 6760,
      "pathways": 6761,
      "Axis": 6762,
      "prepar": 6763,
      "##YR": 6764,
      "implement": 6765,
      "##lox": 6766,
      "##YN": 6767,
      "Level": 6768,
      "alter": 6769,
      "4.4": 6770,
      "indicating": 6771,
      "arrival": 6772,
      "CVA": 6773,
      "INDICATION": 6774,
      "ventil": 6775,
      "TIMES": 6776,
      "##iatry": 6777,
      "fibrillation": 6778,
      "gradient": 6779,
      "6.5": 6780,
      "rectal": 6781,
      "Injury": 6782,
      "opportun": 6783,
      "COUNT": 6784,
      "Abd": 6785,
      "##organ": 6786,
      "##ryl": 6787,
      "Transportation": 6788,
      "SUB": 6789,
      "##GA": 6790,
      "##cious": 6791,
      "exercises": 6792,
      "##EROL": 6793,
      "Orthopaedic": 6794,
      "veget": 6795,
      "dext": 6796,
      "98.4": 6797,
      "2005": 6798,
      "LYMPHPCT": 6799,
      "enough": 6800,
      "##geon": 6801,
      "vert": 6802,
      "##LODIP": 6803,
      "involvement": 6804,
      "##iliac": 6805,
      "Mal": 6806,
      "##attered": 6807,
      "concur": 6808,
      "Large": 6809,
      "morphine": 6810,
      "LMP": 6811,
      "strategies": 6812,
      "mixed": 6813,
      "##atase": 6814,
      "transfusion": 6815,
      "adjus": 6816,
      "265": 6817,
      "eval": 6818,
      "yield": 6819,
      "protection": 6820,
      "employ": 6821,
      "message": 6822,
      "97.9": 6823,
      "sensitive": 6824,
      "Indications": 6825,
      "##ocardial": 6826,
      "TWICE": 6827,
      "arthritis": 6828,
      "115": 6829,
      "##actic": 6830,
      "seems": 6831,
      "fluticasone": 6832,
      "Misc": 6833,
      "Decreased": 6834,
      "Recommendations": 6835,
      "##ruit": 6836,
      "GENERAL": 6837,
      "##Ch": 6838,
      "Overall": 6839,
      "PEL": 6840,
      "despite": 6841,
      "##rope": 6842,
      "##OPHILS": 6843,
      "bound": 6844,
      "Complications": 6845,
      "##DA": 6846,
      "##lycer": 6847,
      "Flow": 6848,
      "##oding": 6849,
      "Concl": 6850,
      "##metry": 6851,
      "cranial": 6852,
      "##ometry": 6853,
      "##roxine": 6854,
      "REC": 6855,
      "cry": 6856,
      "came": 6857,
      "Gran": 6858,
      "##oden": 6859,
      "Hum": 6860,
      "##ns": 6861,
      "2.9": 6862,
      "File": 6863,
      "##aves": 6864,
      "world": 6865,
      "SPEC": 6866,
      "injected": 6867,
      "##orrhea": 6868,
      "WB": 6869,
      "attack": 6870,
      "upt": 6871,
      "dislocation": 6872,
      "5.2": 6873,
      "Lymphs": 6874,
      "accum": 6875,
      "Dem": 6876,
      "quit": 6877,
      "Sed": 6878,
      "Revised": 6879,
      "##igm": 6880,
      "natural": 6881,
      "Peak": 6882,
      "CSF": 6883,
      "Venous": 6884,
      "tomorrow": 6885,
      "Sister": 6886,
      "##phys": 6887,
      "fully": 6888,
      "regression": 6889,
      "pancreas": 6890,
      "MI": 6891,
      "mutations": 6892,
      "36.4": 6893,
      "swallowing": 6894,
      "141": 6895,
      "CKD": 6896,
      "vehicle": 6897,
      "##ocks": 6898,
      "sputum": 6899,
      "Infant": 6900,
      "##rage": 6901,
      "Completed": 6902,
      "bones": 6903,
      "##rie": 6904,
      "Cells": 6905,
      "Tdap": 6906,
      "##OLE": 6907,
      "##USC": 6908,
      "HB": 6909,
      "##loxacin": 6910,
      "unli": 6911,
      "docusate": 6912,
      "author": 6913,
      "##spective": 6914,
      "published": 6915,
      "##atous": 6916,
      "wide": 6917,
      "MIN": 6918,
      "##ancing": 6919,
      "relevant": 6920,
      "##by": 6921,
      "maintenance": 6922,
      "##ococcal": 6923,
      "##plenomegaly": 6924,
      "oxid": 6925,
      "icterus": 6926,
      "alternative": 6927,
      "bottom": 6928,
      "exudate": 6929,
      "orth": 6930,
      "##alks": 6931,
      "PROTIME": 6932,
      "EEG": 6933,
      "##arv": 6934,
      "adhes": 6935,
      "2018": 6936,
      "Reference": 6937,
      "##kaline": 6938,
      "COV": 6939,
      "##vascular": 6940,
      "moder": 6941,
      "Detected": 6942,
      "Foot": 6943,
      "fram": 6944,
      "fix": 6945,
      "Magnesium": 6946,
      "##irrh": 6947,
      "feeds": 6948,
      "0.02": 6949,
      "Should": 6950,
      "diabetic": 6951,
      "counseling": 6952,
      "210": 6953,
      "NEUTROPCT": 6954,
      "flank": 6955,
      "fetal": 6956,
      "almost": 6957,
      "developing": 6958,
      "##pass": 6959,
      "Antib": 6960,
      "CHCM": 6961,
      "Team": 6962,
      "##OGR": 6963,
      "velocity": 6964,
      "SOC": 6965,
      "##othyroxine": 6966,
      "PELV": 6967,
      "discussion": 6968,
      "##farin": 6969,
      "Albumin": 6970,
      "##amber": 6971,
      "gland": 6972,
      "junction": 6973,
      "voice": 6974,
      "GM": 6975,
      "##ontrolled": 6976,
      "force": 6977,
      "enzyme": 6978,
      "Super": 6979,
      "sem": 6980,
      "correlated": 6981,
      "VENT": 6982,
      "Cranial": 6983,
      "##rams": 6984,
      "dro": 6985,
      "Hb": 6986,
      "approved": 6987,
      "STATUS": 6988,
      "Supplement": 6989,
      "psychiatric": 6990,
      "##olam": 6991,
      "ALLERG": 6992,
      "ten": 6993,
      "Urinary": 6994,
      "##eli": 6995,
      "minim": 6996,
      "investigate": 6997,
      "arms": 6998,
      "chair": 6999,
      "mechanical": 7000,
      "Basophils": 7001,
      "Independent": 7002,
      "fusion": 7003,
      "eight": 7004,
      "dark": 7005,
      "gran": 7006,
      "predicted": 7007,
      "equation": 7008,
      "delay": 7009,
      "##ERATIVE": 7010,
      "QU": 7011,
      "heavy": 7012,
      "compounds": 7013,
      "Temporal": 7014,
      "##rauma": 7015,
      "ventricle": 7016,
      "Pred": 7017,
      "referring": 7018,
      "accompan": 7019,
      "PRESENT": 7020,
      "##usband": 7021,
      "##ysterectomy": 7022,
      "acceptable": 7023,
      "January": 7024,
      "staining": 7025,
      "colonoscopy": 7026,
      "emot": 7027,
      "School": 7028,
      "violence": 7029,
      "##ptons": 7030,
      "salt": 7031,
      "neural": 7032,
      "sharp": 7033,
      "Communications": 7034,
      "closely": 7035,
      "IT": 7036,
      "conj": 7037,
      "Studies": 7038,
      "##amb": 7039,
      "sun": 7040,
      "Answ": 7041,
      "##aper": 7042,
      "context": 7043,
      "Parent": 7044,
      "##ashion": 7045,
      "Integ": 7046,
      "##stitute": 7047,
      "CLINIC": 7048,
      "HOURS": 7049,
      "station": 7050,
      "saline": 7051,
      "##ury": 7052,
      "##0000": 7053,
      "TEST": 7054,
      "axillary": 7055,
      "##ulmonary": 7056,
      "literature": 7057,
      "sensory": 7058,
      "QRS": 7059,
      "magnesium": 7060,
      "Fib": 7061,
      "mammogram": 7062,
      "remaining": 7063,
      "##reshold": 7064,
      "proliferation": 7065,
      "##umed": 7066,
      "Complexity": 7067,
      "ears": 7068,
      "forms": 7069,
      "weekly": 7070,
      "##ket": 7071,
      "ZESTRIL": 7072,
      "116": 7073,
      "creatinine": 7074,
      "Symptons": 7075,
      "##ROL": 7076,
      "inhibitor": 7077,
      "inhaler": 7078,
      "##hort": 7079,
      "Crit": 7080,
      "uns": 7081,
      "LEVEL": 7082,
      "##ILL": 7083,
      "epithel": 7084,
      "chromos": 7085,
      "REM": 7086,
      "RTC": 7087,
      "Frid": 7088,
      "adjust": 7089,
      "Stool": 7090,
      "Arm": 7091,
      "98.6": 7092,
      "mess": 7093,
      "entry": 7094,
      "mucous": 7095,
      "stret": 7096,
      "aspiration": 7097,
      "##OLIC": 7098,
      "##PER": 7099,
      "##emide": 7100,
      "32610": 7101,
      "fashion": 7102,
      "evening": 7103,
      "Hypot": 7104,
      "hepatos": 7105,
      "ongoing": 7106,
      "CNT": 7107,
      "induction": 7108,
      "8.7": 7109,
      "##RUCTION": 7110,
      "Through": 7111,
      "South": 7112,
      "teeth": 7113,
      "dyspnea": 7114,
      "##MR": 7115,
      "progn": 7116,
      "steps": 7117,
      "##rinks": 7118,
      "##aundice": 7119,
      "mainly": 7120,
      "Bel": 7121,
      "##leral": 7122,
      "##rogen": 7123,
      "IMM": 7124,
      "Wed": 7125,
      "##stitial": 7126,
      "DISCH": 7127,
      "118": 7128,
      "dent": 7129,
      "transl": 7130,
      "establish": 7131,
      "ischemia": 7132,
      "Speech": 7133,
      "advice": 7134,
      "##utive": 7135,
      "Ir": 7136,
      "sinuses": 7137,
      "##rawn": 7138,
      "applicable": 7139,
      "Sensation": 7140,
      "substr": 7141,
      "specimens": 7142,
      "unexpected": 7143,
      "Clip": 7144,
      "Preferred": 7145,
      "cavity": 7146,
      "##NI": 7147,
      "altered": 7148,
      "progressive": 7149,
      "dissection": 7150,
      "drinks": 7151,
      "hes": 7152,
      "##oli": 7153,
      "hospitalization": 7154,
      "##idity": 7155,
      "OM": 7156,
      "##vier": 7157,
      "prolong": 7158,
      "led": 7159,
      "layer": 7160,
      "hepatosplenomegaly": 7161,
      "organomegaly": 7162,
      "plants": 7163,
      "effic": 7164,
      "plate": 7165,
      "Repeat": 7166,
      "Fever": 7167,
      "mitochond": 7168,
      "cluster": 7169,
      "generally": 7170,
      "##acing": 7171,
      "##aract": 7172,
      "Oncology": 7173,
      "Ble": 7174,
      "allowing": 7175,
      "pancreatic": 7176,
      "Trauma": 7177,
      "tachycardia": 7178,
      "cream": 7179,
      "prophylaxis": 7180,
      "Inpatient": 7181,
      "cann": 7182,
      "regional": 7183,
      "Sulf": 7184,
      "enhanced": 7185,
      "proceed": 7186,
      "Else": 7187,
      "Amount": 7188,
      "##yr": 7189,
      "DS": 7190,
      "##ricted": 7191,
      "sitting": 7192,
      "##OTAL": 7193,
      "##aP": 7194,
      "tingling": 7195,
      "1.00": 7196,
      "360": 7197,
      "gets": 7198,
      "##iform": 7199,
      "horm": 7200,
      "therm": 7201,
      "Ess": 7202,
      "calcifications": 7203,
      "##xp": 7204,
      "Disorder": 7205,
      "uses": 7206,
      "osteop": 7207,
      "##ipment": 7208,
      "Chem": 7209,
      "visualization": 7210,
      "##rep": 7211,
      "hepatitis": 7212,
      "4.9": 7213,
      "accident": 7214,
      "##edness": 7215,
      "incontinence": 7216,
      "substance": 7217,
      "##IVIL": 7218,
      "##rost": 7219,
      "Brother": 7220,
      "MUSC": 7221,
      "PRINIVIL": 7222,
      "apply": 7223,
      "incidence": 7224,
      "reli": 7225,
      "##ottle": 7226,
      "intubated": 7227,
      "##otypes": 7228,
      "surrounding": 7229,
      "pp": 7230,
      "LR": 7231,
      "bypass": 7232,
      "##erosol": 7233,
      "scleral": 7234,
      "pleasant": 7235,
      "onto": 7236,
      "neut": 7237,
      "hot": 7238,
      "##ONTIN": 7239,
      "##arity": 7240,
      "##EDI": 7241,
      "133": 7242,
      "Lesions": 7243,
      "appropriately": 7244,
      "XII": 7245,
      "swit": 7246,
      "##intment": 7247,
      "Prot": 7248,
      "fist": 7249,
      "##ee": 7250,
      "##ript": 7251,
      "marrow": 7252,
      "Suspension": 7253,
      "##ETAL": 7254,
      "##anol": 7255,
      "##etry": 7256,
      "global": 7257,
      "sister": 7258,
      "##ls": 7259,
      "mutant": 7260,
      "deb": 7261,
      "Elsevier": 7262,
      "##80": 7263,
      "terminal": 7264,
      "MY": 7265,
      "leaf": 7266,
      "Europe": 7267,
      "Joint": 7268,
      "profess": 7269,
      "##xious": 7270,
      "Acid": 7271,
      "IB": 7272,
      "always": 7273,
      "suicidal": 7274,
      "##iet": 7275,
      "##icit": 7276,
      "##olerance": 7277,
      "##ames": 7278,
      "EOSPCT": 7279,
      "##opulmonary": 7280,
      "kn": 7281,
      "Following": 7282,
      "uptake": 7283,
      "Ge": 7284,
      "standing": 7285,
      "fung": 7286,
      "##ANDS": 7287,
      "RANK": 7288,
      "animal": 7289,
      "BASOPCT": 7290,
      "cef": 7291,
      "##cus": 7292,
      "transcript": 7293,
      "Ethnicity": 7294,
      "Latino": 7295,
      "tibial": 7296,
      "NI": 7297,
      "HF": 7298,
      "nuclear": 7299,
      "142": 7300,
      "##rays": 7301,
      "impair": 7302,
      "Aust": 7303,
      "9.5": 7304,
      "acquired": 7305,
      "Airway": 7306,
      "Hig": 7307,
      "##isp": 7308,
      "significance": 7309,
      "qual": 7310,
      "Contacting": 7311,
      "##DNA": 7312,
      "##va": 7313,
      "##ycodone": 7314,
      "FEN": 7315,
      "HEM": 7316,
      "PV": 7317,
      "##rosemide": 7318,
      "fatty": 7319,
      "sometimes": 7320,
      "##ilitation": 7321,
      "az": 7322,
      "Inhal": 7323,
      "spread": 7324,
      "stone": 7325,
      "guidelines": 7326,
      "##ophren": 7327,
      "veins": 7328,
      "##ero": 7329,
      "agreement": 7330,
      "profile": 7331,
      "##ZA": 7332,
      "cast": 7333,
      "optimal": 7334,
      "microb": 7335,
      "situ": 7336,
      "##ytes": 7337,
      "relig": 7338,
      "THIS": 7339,
      "Grandfather": 7340,
      "Exerc": 7341,
      "rat": 7342,
      "lot": 7343,
      "8.4": 7344,
      "Ultrasound": 7345,
      "dorsal": 7346,
      "variation": 7347,
      "rare": 7348,
      "##ober": 7349,
      "##lets": 7350,
      "DISCHARGE": 7351,
      "Friday": 7352,
      "comments": 7353,
      "morbidity": 7354,
      "##atation": 7355,
      "##ories": 7356,
      "verbalized": 7357,
      "opi": 7358,
      "##ialysis": 7359,
      "##iazide": 7360,
      "task": 7361,
      "##ipolar": 7362,
      "##52": 7363,
      "brother": 7364,
      "atheroscler": 7365,
      "sedation": 7366,
      "observation": 7367,
      "##83": 7368,
      "POS": 7369,
      "distinct": 7370,
      "##ows": 7371,
      "##ider": 7372,
      "##ulosis": 7373,
      "Den": 7374,
      "Frequency": 7375,
      "##yg": 7376,
      "NUMB": 7377,
      "trachea": 7378,
      "formed": 7379,
      "##orption": 7380,
      "Coronary": 7381,
      "towards": 7382,
      "wind": 7383,
      "APP": 7384,
      "Shortness": 7385,
      "Stroke": 7386,
      "HM": 7387,
      "##artan": 7388,
      "Received": 7389,
      "gel": 7390,
      "##icious": 7391,
      "FAM": 7392,
      "films": 7393,
      "Kidney": 7394,
      "lif": 7395,
      "hair": 7396,
      "gro": 7397,
      "authors": 7398,
      "Thought": 7399,
      "pri": 7400,
      "detailed": 7401,
      "contains": 7402,
      "134": 7403,
      "clon": 7404,
      "##rinc": 7405,
      "170": 7406,
      "crack": 7407,
      "CARDI": 7408,
      "SPINE": 7409,
      "##60": 7410,
      "ball": 7411,
      "##omnia": 7412,
      "##iations": 7413,
      "##ificant": 7414,
      "pig": 7415,
      "PERRL": 7416,
      "nonc": 7417,
      "selection": 7418,
      "consultation": 7419,
      "4.8": 7420,
      "belongings": 7421,
      "Ket": 7422,
      "Emot": 7423,
      "Essential": 7424,
      "sud": 7425,
      "sepsis": 7426,
      "Foley": 7427,
      "reactions": 7428,
      "Delivery": 7429,
      "reflexes": 7430,
      "department": 7431,
      "##ucas": 7432,
      "OX": 7433,
      "hemodyn": 7434,
      "calling": 7435,
      "##racheal": 7436,
      "METAB": 7437,
      "Ct": 7438,
      "easy": 7439,
      "Control": 7440,
      "Swelling": 7441,
      "NON": 7442,
      "PMHx": 7443,
      "flexion": 7444,
      "OSA": 7445,
      "origin": 7446,
      "Tric": 7447,
      "Pediatrics": 7448,
      "useful": 7449,
      "NUMBER": 7450,
      "##lin": 7451,
      "NEEDED": 7452,
      "dehyd": 7453,
      "2004": 7454,
      "ju": 7455,
      "##alb": 7456,
      "systemic": 7457,
      "phosphory": 7458,
      "##rench": 7459,
      "##ACH": 7460,
      "Endo": 7461,
      "peri": 7462,
      "stri": 7463,
      "injur": 7464,
      "live": 7465,
      "difficulties": 7466,
      "##osal": 7467,
      "Minutes": 7468,
      "designed": 7469,
      "prepared": 7470,
      "5.5": 7471,
      "Leuk": 7472,
      "##hat": 7473,
      "Hz": 7474,
      "occlusion": 7475,
      "War": 7476,
      "cortical": 7477,
      "Whe": 7478,
      "Administered": 7479,
      "Anal": 7480,
      "##unk": 7481,
      "##rosurg": 7482,
      "##ocytosis": 7483,
      "PUL": 7484,
      "FA": 7485,
      "##oming": 7486,
      "1200": 7487,
      "##ENDING": 7488,
      "activated": 7489,
      "stem": 7490,
      "##ropium": 7491,
      "requesting": 7492,
      "emergencies": 7493,
      "unlikely": 7494,
      "cryst": 7495,
      "Communication": 7496,
      "Based": 7497,
      "sett": 7498,
      "##chlor": 7499,
      "modified": 7500,
      "filled": 7501,
      "##pers": 7502,
      "##olve": 7503,
      "Const": 7504,
      "buff": 7505,
      "Pulses": 7506,
      "bis": 7507,
      "renew": 7508,
      "METABOLIC": 7509,
      "VIEWS": 7510,
      "Ann": 7511,
      "Base": 7512,
      "recurrence": 7513,
      "acids": 7514,
      "##azine": 7515,
      "elevation": 7516,
      "ADHD": 7517,
      "accuracy": 7518,
      "ureter": 7519,
      "Assess": 7520,
      "guidance": 7521,
      "participated": 7522,
      "sleeping": 7523,
      "COMPLET": 7524,
      "rubs": 7525,
      "June": 7526,
      "radiology": 7527,
      "husband": 7528,
      "##ORMAL": 7529,
      "update": 7530,
      "##TION": 7531,
      "generalized": 7532,
      "resistant": 7533,
      "##orter": 7534,
      "##QUE": 7535,
      "efficacy": 7536,
      "Joh": 7537,
      "lost": 7538,
      "esophagus": 7539,
      "auto": 7540,
      "Rfl": 7541,
      "##HES": 7542,
      "Growth": 7543,
      "subsequently": 7544,
      "ILL": 7545,
      "Otherwise": 7546,
      "36.5": 7547,
      "##adin": 7548,
      "background": 7549,
      "fair": 7550,
      "sut": 7551,
      "##irrhosis": 7552,
      "seg": 7553,
      "##ream": 7554,
      "According": 7555,
      "##VASC": 7556,
      "ge": 7557,
      "Pulm": 7558,
      "##CP": 7559,
      "DIFFT": 7560,
      "DIFFTYPE": 7561,
      "glycol": 7562,
      "threshold": 7563,
      "March": 7564,
      "woman": 7565,
      "31.0": 7566,
      "consequ": 7567,
      "tons": 7568,
      "enzymes": 7569,
      "##herent": 7570,
      "aged": 7571,
      "##inn": 7572,
      "web": 7573,
      "software": 7574,
      "Cigarettes": 7575,
      "##gorith": 7576,
      "Behavior": 7577,
      "alternatives": 7578,
      "37.1": 7579,
      "##aving": 7580,
      "sudden": 7581,
      "##lectomy": 7582,
      "smaller": 7583,
      "jud": 7584,
      "Vomiting": 7585,
      "disp": 7586,
      "Get": 7587,
      "divertic": 7588,
      "##codone": 7589,
      "ILLNESS": 7590,
      "interpreter": 7591,
      "##ogeneous": 7592,
      "mutation": 7593,
      "##light": 7594,
      "##uck": 7595,
      "##izer": 7596,
      "NECK": 7597,
      "##letion": 7598,
      "excluded": 7599,
      "subt": 7600,
      "smart": 7601,
      "WT": 7602,
      "##RST": 7603,
      "interstitial": 7604,
      "PSA": 7605,
      "##AND": 7606,
      "DEL": 7607,
      "resting": 7608,
      "cup": 7609,
      "##UMIN": 7610,
      "interpretation": 7611,
      "plus": 7612,
      "August": 7613,
      "molecules": 7614,
      "apoptosis": 7615,
      "IgG": 7616,
      "levothyroxine": 7617,
      "prote": 7618,
      "tubes": 7619,
      "law": 7620,
      "##ridor": 7621,
      "##ds": 7622,
      "yrs": 7623,
      "myal": 7624,
      "##rates": 7625,
      "CNTRST": 7626,
      "satisfaction": 7627,
      "117": 7628,
      "percentage": 7629,
      "##UTION": 7630,
      "EOMI": 7631,
      "rot": 7632,
      "Pathology": 7633,
      "Catheter": 7634,
      "LIPITOR": 7635,
      "Recommendation": 7636,
      "CRP": 7637,
      "exactly": 7638,
      "dilatation": 7639,
      "mach": 7640,
      "land": 7641,
      "April": 7642,
      "July": 7643,
      "##OSEC": 7644,
      "##ARE": 7645,
      "INSTRUCTION": 7646,
      "Sus": 7647,
      "hypertrophy": 7648,
      "behavioral": 7649,
      "structural": 7650,
      "Placed": 7651,
      "CB": 7652,
      "myel": 7653,
      "synthesis": 7654,
      "Activation": 7655,
      "gave": 7656,
      "Neph": 7657,
      "clot": 7658,
      "works": 7659,
      "##LOW": 7660,
      "128": 7661,
      "##ologies": 7662,
      "##cember": 7663,
      "Quantity": 7664,
      "##ogenous": 7665,
      "9.6": 7666,
      "Complete": 7667,
      "TTE": 7668,
      "nic": 7669,
      "IVF": 7670,
      "Meter": 7671,
      "Sitting": 7672,
      "eld": 7673,
      "carry": 7674,
      "Similar": 7675,
      "orthop": 7676,
      "##erase": 7677,
      "ground": 7678,
      "##asks": 7679,
      "##rupt": 7680,
      "coordination": 7681,
      "Bec": 7682,
      "##encephal": 7683,
      "EMERG": 7684,
      "evolution": 7685,
      "##amide": 7686,
      "elements": 7687,
      "##onazole": 7688,
      "COVID": 7689,
      "SHANDS": 7690,
      "##ceptible": 7691,
      "INSTRUCTIONS": 7692,
      "##strument": 7693,
      "agents": 7694,
      "CPAP": 7695,
      "chain": 7696,
      "##ONARY": 7697,
      "Oper": 7698,
      "gluc": 7699,
      "GT": 7700,
      "COR": 7701,
      "observ": 7702,
      "stability": 7703,
      "LAD": 7704,
      "intended": 7705,
      "##olin": 7706,
      "healed": 7707,
      "BASE": 7708,
      "7.0": 7709,
      "##99": 7710,
      "oil": 7711,
      "rule": 7712,
      "122": 7713,
      "Additionally": 7714,
      "error": 7715,
      "World": 7716,
      "##Ds": 7717,
      "##affeine": 7718,
      "Fat": 7719,
      "##etics": 7720,
      "##roponin": 7721,
      "ion": 7722,
      "tab": 7723,
      "##adine": 7724,
      "nutritional": 7725,
      "December": 7726,
      "##lim": 7727,
      "got": 7728,
      "periods": 7729,
      "identification": 7730,
      "remove": 7731,
      "##ser": 7732,
      "NEURONTIN": 7733,
      "##aryng": 7734,
      "##enter": 7735,
      "##erted": 7736,
      "Insulin": 7737,
      "opacities": 7738,
      "NR": 7739,
      "PET": 7740,
      "8.5": 7741,
      "114": 7742,
      "##LODIPine": 7743,
      "seem": 7744,
      "mediastinal": 7745,
      "embry": 7746,
      "algorith": 7747,
      "113": 7748,
      "monitored": 7749,
      "cytok": 7750,
      "vary": 7751,
      "Atrial": 7752,
      "##amics": 7753,
      "commands": 7754,
      "etiology": 7755,
      "##OPS": 7756,
      "NORVASC": 7757,
      "opening": 7758,
      "MP": 7759,
      "antico": 7760,
      "cereb": 7761,
      "##cort": 7762,
      "differential": 7763,
      "Nebulization": 7764,
      "##peritoneal": 7765,
      "atrium": 7766,
      "Benign": 7767,
      "Answer": 7768,
      "pool": 7769,
      "##economic": 7770,
      "PELVIS": 7771,
      "97.7": 7772,
      "coverage": 7773,
      "lib": 7774,
      "##omed": 7775,
      "issue": 7776,
      "fields": 7777,
      "processing": 7778,
      "##PRE": 7779,
      "bran": 7780,
      "policy": 7781,
      "##nar": 7782,
      "regulated": 7783,
      "agreed": 7784,
      "College": 7785,
      "TYPE": 7786,
      "##obic": 7787,
      "capt": 7788,
      "SA": 7789,
      "paran": 7790,
      "pump": 7791,
      "relax": 7792,
      "Minimal": 7793,
      "##RN": 7794,
      "##OME": 7795,
      "fellow": 7796,
      "MOC": 7797,
      "narrative": 7798,
      "##madin": 7799,
      "mentioned": 7800,
      "desc": 7801,
      "optim": 7802,
      "transverse": 7803,
      "##umes": 7804,
      "summar": 7805,
      "traumatic": 7806,
      "Es": 7807,
      "##vem": 7808,
      "126": 7809,
      "##gg": 7810,
      "pseud": 7811,
      "Lifestyle": 7812,
      "nerves": 7813,
      "countries": 7814,
      "##aze": 7815,
      "bleed": 7816,
      "##INES": 7817,
      "atten": 7818,
      "matrix": 7819,
      "slight": 7820,
      "##iO": 7821,
      "Unknown": 7822,
      "Tylenol": 7823,
      "##ioeconomic": 7824,
      "ZO": 7825,
      "Measure": 7826,
      "ANEST": 7827,
      "##iding": 7828,
      "running": 7829,
      "connections": 7830,
      "##ycl": 7831,
      "190": 7832,
      "##obacter": 7833,
      "wire": 7834,
      "omeprazole": 7835,
      "French": 7836,
      "fax": 7837,
      "DTaP": 7838,
      "statistical": 7839,
      "degrad": 7840,
      "angle": 7841,
      "Granul": 7842,
      "EGD": 7843,
      "measurement": 7844,
      "reading": 7845,
      "##ellent": 7846,
      "##avicular": 7847,
      "fiber": 7848,
      "Feb": 7849,
      "Three": 7850,
      "seven": 7851,
      "##ulating": 7852,
      "fed": 7853,
      "fit": 7854,
      "limit": 7855,
      "computer": 7856,
      "predom": 7857,
      "died": 7858,
      "uncontrolled": 7859,
      "presentation": 7860,
      "vag": 7861,
      "atrophy": 7862,
      "##agen": 7863,
      "Unc": 7864,
      "##ucasian": 7865,
      "132": 7866,
      "##hex": 7867,
      "travel": 7868,
      "replaced": 7869,
      "##olone": 7870,
      "Penic": 7871,
      "interview": 7872,
      "labeled": 7873,
      "los": 7874,
      "Pen": 7875,
      "majority": 7876,
      "defects": 7877,
      "Financial": 7878,
      "Orth": 7879,
      "attrib": 7880,
      "##uity": 7881,
      "SIGN": 7882,
      "119": 7883,
      "Class": 7884,
      "Workup": 7885,
      "Internet": 7886,
      "##epime": 7887,
      "iliac": 7888,
      "moving": 7889,
      "pounds": 7890,
      "##erred": 7891,
      "ring": 7892,
      "conjunctiv": 7893,
      "enlarg": 7894,
      "##DN": 7895,
      "stridor": 7896,
      "allowed": 7897,
      "##uing": 7898,
      "##ju": 7899,
      "##AMINE": 7900,
      "##SD": 7901,
      "biliary": 7902,
      "mus": 7903,
      "Vacc": 7904,
      "SEEK": 7905,
      "##ithiasis": 7906,
      "fol": 7907,
      "abund": 7908,
      "gallops": 7909,
      "religious": 7910,
      "##vernment": 7911,
      "5.9": 7912,
      "receptors": 7913,
      "October": 7914,
      "FE": 7915,
      "##KEL": 7916,
      "organizations": 7917,
      "September": 7918,
      "halluc": 7919,
      "variable": 7920,
      "drive": 7921,
      "corrections": 7922,
      "incubated": 7923,
      "paras": 7924,
      "successful": 7925,
      "produce": 7926,
      "visible": 7927,
      "express": 7928,
      "0006": 7929,
      "messages": 7930,
      "40.0": 7931,
      "COLON": 7932,
      "SOCIAL": 7933,
      "Anterior": 7934,
      "accompanied": 7935,
      "uterus": 7936,
      "annual": 7937,
      "##ementia": 7938,
      "Bar": 7939,
      "exchange": 7940,
      "##hers": 7941,
      "Pert": 7942,
      "errors": 7943,
      "Develop": 7944,
      "infectious": 7945,
      "obese": 7946,
      "fent": 7947,
      "Exercise": 7948,
      "UXR": 7949,
      "Attestation": 7950,
      "warfarin": 7951,
      "##ocl": 7952,
      "Aw": 7953,
      "Free": 7954,
      "##olecystectomy": 7955,
      "##GS": 7956,
      "sweats": 7957,
      "##RNAs": 7958,
      "##FRAN": 7959,
      "TRA": 7960,
      "##ulature": 7961,
      "##ipine": 7962,
      "fixed": 7963,
      "statistically": 7964,
      "possibility": 7965,
      "tell": 7966,
      "Tender": 7967,
      "Cough": 7968,
      "genital": 7969,
      "meetings": 7970,
      "sclera": 7971,
      "Aerosol": 7972,
      "trad": 7973,
      "##ada": 7974,
      "##68": 7975,
      "MOT": 7976,
      "##iment": 7977,
      "inpatient": 7978,
      "overlying": 7979,
      "myalgias": 7980,
      "##verexp": 7981,
      "##90": 7982,
      "numer": 7983,
      "Affect": 7984,
      "onc": 7985,
      "etc": 7986,
      "##ename": 7987,
      "Limited": 7988,
      "appreciated": 7989,
      "##UMM": 7990,
      "Impro": 7991,
      "candidate": 7992,
      "burn": 7993,
      "ensure": 7994,
      "partially": 7995,
      "Alkaline": 7996,
      "##ITE": 7997,
      "Saf": 7998,
      "gm": 7999,
      "notification": 8000,
      "version": 8001,
      "incident": 8002,
      "##aria": 8003,
      "dd": 8004,
      "##the": 8005,
      "Transplant": 8006,
      "thrombosis": 8007,
      "phosphate": 8008,
      "carbon": 8009,
      "##etine": 8010,
      "repro": 8011,
      "ZOFRAN": 8012,
      "specifically": 8013,
      "tim": 8014,
      "##down": 8015,
      "##amous": 8016,
      "5.4": 8017,
      "ok": 8018,
      "superf": 8019,
      "injuries": 8020,
      "HPV": 8021,
      "cardiopulmonary": 8022,
      "Hepatic": 8023,
      "##rating": 8024,
      "myocardial": 8025,
      "RESP": 8026,
      "Profile": 8027,
      "##itated": 8028,
      "vac": 8029,
      "Hgb": 8030,
      "painful": 8031,
      "duoden": 8032,
      "##OLIN": 8033,
      "stools": 8034,
      "extent": 8035,
      "withdraw": 8036,
      "##weight": 8037,
      "SYN": 8038,
      "anxious": 8039,
      "##guinal": 8040,
      "students": 8041,
      "plasm": 8042,
      "##oxetine": 8043,
      "##001": 8044,
      "sch": 8045,
      "interf": 8046,
      "paral": 8047,
      "##oin": 8048,
      "adjusted": 8049,
      "Tim": 8050,
      "##rex": 8051,
      "##rans": 8052,
      "TV": 8053,
      "Colonoscopy": 8054,
      "skills": 8055,
      "Supplementary": 8056,
      "orb": 8057,
      "##ille": 8058,
      "linked": 8059,
      "fav": 8060,
      "furosemide": 8061,
      "reached": 8062,
      "Bladder": 8063,
      "Et": 8064,
      "##rity": 8065,
      "conscious": 8066,
      "DIFFER": 8067,
      "Nov": 8068,
      "vide": 8069,
      "padding": 8070,
      "wet": 8071,
      "##oul": 8072,
      "decomp": 8073,
      "Lip": 8074,
      "ORAL": 8075,
      "leave": 8076,
      "ulcers": 8077,
      "interes": 8078,
      "females": 8079,
      "##istended": 8080,
      "##ENTIAL": 8081,
      "pallor": 8082,
      "##MIT": 8083,
      "La": 8084,
      "Sal": 8085,
      "suggestive": 8086,
      "independently": 8087,
      "suspicious": 8088,
      "2019": 8089,
      "brief": 8090,
      "proportion": 8091,
      "fasc": 8092,
      "MB": 8093,
      "Significant": 8094,
      "foreign": 8095,
      "introduced": 8096,
      "Mel": 8097,
      "true": 8098,
      "##ochemical": 8099,
      "##oxy": 8100,
      "##ATH": 8101,
      "mobile": 8102,
      "##phrine": 8103,
      "invasive": 8104,
      "coming": 8105,
      "##REEN": 8106,
      "comorbid": 8107,
      "prolonged": 8108,
      "Unable": 8109,
      "##yel": 8110,
      "bodies": 8111,
      "scalp": 8112,
      "Technique": 8113,
      "##eries": 8114,
      "Increased": 8115,
      "0107": 8116,
      "sections": 8117,
      "Panc": 8118,
      "driving": 8119,
      "kne": 8120,
      "metabolism": 8121,
      "Feeding": 8122,
      "restricted": 8123,
      "ALLERGIES": 8124,
      "2003": 8125,
      "Acet": 8126,
      "Position": 8127,
      "##vity": 8128,
      "PAC": 8129,
      "##inence": 8130,
      "wounds": 8131,
      "professional": 8132,
      "Granulocytes": 8133,
      "Caucasian": 8134,
      "##ULOS": 8135,
      "encouraged": 8136,
      "6.2": 8137,
      "##itrite": 8138,
      "FOLLOW": 8139,
      "LO": 8140,
      "Jap": 8141,
      "toe": 8142,
      "Shoulder": 8143,
      "smartphone": 8144,
      "##ORTABLE": 8145,
      "contribute": 8146,
      "hesitate": 8147,
      "fish": 8148,
      "amLODIPine": 8149,
      "elderly": 8150,
      "tendon": 8151,
      "##ura": 8152,
      "##uncture": 8153,
      "##ibular": 8154,
      "##ARD": 8155,
      "ket": 8156,
      "occasional": 8157,
      "shot": 8158,
      "becomes": 8159,
      "tree": 8160,
      "Immunologic": 8161,
      "electron": 8162,
      "tricuspid": 8163,
      "confusion": 8164,
      "POST": 8165,
      "minute": 8166,
      "mostly": 8167,
      "allergy": 8168,
      "extended": 8169,
      "Judgment": 8170,
      "Sup": 8171,
      "instead": 8172,
      "leak": 8173,
      "jaundice": 8174,
      "##urning": 8175,
      "copy": 8176,
      "##ecurity": 8177,
      "##ISS": 8178,
      "Stage": 8179,
      "household": 8180,
      "epile": 8181,
      "endoc": 8182,
      "Flex": 8183,
      "144": 8184,
      "##ulus": 8185,
      "Gender": 8186,
      "##ofen": 8187,
      "Mc": 8188,
      "dominant": 8189,
      "scar": 8190,
      "PN": 8191,
      "glands": 8192,
      "Extra": 8193,
      "ANESTHES": 8194,
      "##opic": 8195,
      "Member": 8196,
      "##ULOSKEL": 8197,
      "4.7": 8198,
      "Rhythm": 8199,
      "dest": 8200,
      "insight": 8201,
      "Have": 8202,
      "bid": 8203,
      "Appointment": 8204,
      "##oe": 8205,
      "GR": 8206,
      "##ethylene": 8207,
      "MMOL": 8208,
      "Because": 8209,
      "Mit": 8210,
      "strongly": 8211,
      "Personal": 8212,
      "DEP": 8213,
      "Resolved": 8214,
      "##000": 8215,
      "##elch": 8216,
      "##ULOSKELETAL": 8217,
      "aspart": 8218,
      "digital": 8219,
      "excessive": 8220,
      "##Will": 8221,
      "Barriers": 8222,
      "##ica": 8223,
      "124": 8224,
      "PORTABLE": 8225,
      "Japan": 8226,
      "Elev": 8227,
      "CF": 8228,
      "Dil": 8229,
      "LAT": 8230,
      "INT": 8231,
      "Women": 8232,
      "##2057": 8233,
      "PHOS": 8234,
      "Hematology": 8235,
      "ECH": 8236,
      "limb": 8237,
      "##anyl": 8238,
      "10.2": 8239,
      "MUSCULOSKELETAL": 8240,
      "##strual": 8241,
      "shunt": 8242,
      "peptide": 8243,
      "bpm": 8244,
      "##ezing": 8245,
      "##apping": 8246,
      "lock": 8247,
      "Anesthes": 8248,
      "Reports": 8249,
      "Comprehensive": 8250,
      "complicated": 8251,
      "soc": 8252,
      "passed": 8253,
      "osteoarthritis": 8254,
      "##inalysis": 8255,
      "##2.": 8256,
      "DIRECT": 8257,
      "##maker": 8258,
      "##YT": 8259,
      "##AK": 8260,
      "##ector": 8261,
      "##azepam": 8262,
      "1602057": 8263,
      "describe": 8264,
      "BED": 8265,
      "97.5": 8266,
      "mineral": 8267,
      "TOTAL": 8268,
      "##vember": 8269,
      "##irect": 8270,
      "BIOPS": 8271,
      "stones": 8272,
      "insecurity": 8273,
      "##inity": 8274,
      "Inv": 8275,
      "clubs": 8276,
      "##resh": 8277,
      "spati": 8278,
      "tasks": 8279,
      "Fellow": 8280,
      "##upp": 8281,
      "emergent": 8282,
      "kinase": 8283,
      "watch": 8284,
      "##plasia": 8285,
      "cath": 8286,
      "notify": 8287,
      "TECHNI": 8288,
      "Ven": 8289,
      "opportunity": 8290,
      "book": 8291,
      "coli": 8292,
      "calcification": 8293,
      "Amb": 8294,
      "Thurs": 8295,
      "gtt": 8296,
      "##itrate": 8297,
      "beginning": 8298,
      "Fail": 8299,
      "November": 8300,
      "##rontal": 8301,
      "TOP": 8302,
      "empt": 8303,
      "pet": 8304,
      "##ragm": 8305,
      "TECHNIQUE": 8306,
      "##lete": 8307,
      "sul": 8308,
      "concept": 8309,
      "##ansion": 8310,
      "mask": 8311,
      "sooner": 8312,
      "cohort": 8313,
      "Osmol": 8314,
      "SINGLE": 8315,
      "Then": 8316,
      "##inum": 8317,
      "former": 8318,
      "##HAL": 8319,
      "categor": 8320,
      "delayed": 8321,
      "drap": 8322,
      "##ewhat": 8323,
      "Morph": 8324,
      "PGY": 8325,
      "PULM": 8326,
      "Ocodone": 8327,
      "FAMILY": 8328,
      "John": 8329,
      "pill": 8330,
      "str": 8331,
      "Immature": 8332,
      "calib": 8333,
      "##ometric": 8334,
      "ULTR": 8335,
      "##aim": 8336,
      "strategy": 8337,
      "acted": 8338,
      "lapar": 8339,
      "divided": 8340,
      "mode": 8341,
      "makes": 8342,
      "overl": 8343,
      "gast": 8344,
      "clearance": 8345,
      "##lam": 8346,
      "##ICU": 8347,
      "Mark": 8348,
      "##ady": 8349,
      "bat": 8350,
      "##space": 8351,
      "relieved": 8352,
      "Response": 8353,
      "cran": 8354,
      "DIFFERENTIAL": 8355,
      "MULT": 8356,
      "##vix": 8357,
      "bars": 8358,
      "healthcare": 8359,
      "SB": 8360,
      "laceration": 8361,
      "endors": 8362,
      "##optysis": 8363,
      "143": 8364,
      "perfusion": 8365,
      "accessible": 8366,
      "ip": 8367,
      "Side": 8368,
      "quantitative": 8369,
      "Prox": 8370,
      "LLC": 8371,
      "Finally": 8372,
      "si": 8373,
      "Western": 8374,
      "fragment": 8375,
      "macroph": 8376,
      "##ORE": 8377,
      "diaphoresis": 8378,
      "0600": 8379,
      "xx": 8380,
      "LAS": 8381,
      "##ours": 8382,
      "insertion": 8383,
      "##inger": 8384,
      "ovarian": 8385,
      "##ilical": 8386,
      "friction": 8387,
      "fluorescence": 8388,
      "##nex": 8389,
      "7.2": 8390,
      "intolerance": 8391,
      "TRANS": 8392,
      "strand": 8393,
      "2001": 8394,
      "signing": 8395,
      "formula": 8396,
      "dietary": 8397,
      "131": 8398,
      "denied": 8399,
      "RESPIR": 8400,
      "famil": 8401,
      "MAP": 8402,
      "##lusive": 8403,
      "reass": 8404,
      "GC": 8405,
      "2002": 8406,
      "nondistended": 8407,
      "instrument": 8408,
      "123": 8409,
      "parenchymal": 8410,
      "Tues": 8411,
      "separate": 8412,
      "##ocardiogram": 8413,
      "AG": 8414,
      "##igo": 8415,
      "rd": 8416,
      "dl": 8417,
      "stabil": 8418,
      "tooth": 8419,
      "Equ": 8420,
      "commonly": 8421,
      "lys": 8422,
      "developmental": 8423,
      "covered": 8424,
      "experiencing": 8425,
      "wants": 8426,
      "VITAL": 8427,
      "16.0": 8428,
      "win": 8429,
      "direction": 8430,
      "JX": 8431,
      "Many": 8432,
      "multi": 8433,
      "##VILLE": 8434,
      "webs": 8435,
      "Hematologic": 8436,
      "vasc": 8437,
      "##acemaker": 8438,
      "##iter": 8439,
      "##using": 8440,
      "Support": 8441,
      "preparation": 8442,
      "Pri": 8443,
      "potentially": 8444,
      "revers": 8445,
      "colum": 8446,
      "BIOPSY": 8447,
      "##othel": 8448,
      "UCT": 8449,
      "##rotein": 8450,
      "ascites": 8451,
      "##ATA": 8452,
      "hemoglobin": 8453,
      "enlargement": 8454,
      "contra": 8455,
      "RESPIRATORY": 8456,
      "##ades": 8457,
      "Highest": 8458,
      "Iss": 8459,
      "nitro": 8460,
      "anything": 8461,
      "trace": 8462,
      "behaviors": 8463,
      "127": 8464,
      "##ums": 8465,
      "##otine": 8466,
      "##LEX": 8467,
      "fig": 8468,
      "Contrast": 8469,
      "suction": 8470,
      "##wards": 8471,
      "vas": 8472,
      "##imic": 8473,
      "things": 8474,
      "##ensities": 8475,
      "Prep": 8476,
      "##ATERAL": 8477,
      "##upt": 8478,
      "168": 8479,
      "##ermal": 8480,
      "materials": 8481,
      "verified": 8482,
      "Pertinent": 8483,
      "##agon": 8484,
      "Reasons": 8485,
      "Taken": 8486,
      "DE": 8487,
      "sutures": 8488,
      "unclear": 8489,
      "amounts": 8490,
      "Zip": 8491,
      "121": 8492,
      "ACC": 8493,
      "gent": 8494,
      "substant": 8495,
      "Pelvis": 8496,
      "widely": 8497,
      "excellent": 8498,
      "settings": 8499,
      "selective": 8500,
      "##ci": 8501,
      "ATT": 8502,
      "carefully": 8503,
      "closure": 8504,
      "resources": 8505,
      "Great": 8506,
      "##orial": 8507,
      "rob": 8508,
      "focused": 8509,
      "TC": 8510,
      "##OPERATIVE": 8511,
      "inhibitors": 8512,
      "males": 8513,
      "SCREEN": 8514,
      "Inability": 8515,
      "##IDS": 8516,
      "Phosphatase": 8517,
      "##lude": 8518,
      "coupl": 8519,
      "##elchair": 8520,
      "Bleeding": 8521,
      "opacity": 8522,
      "cleared": 8523,
      "Squ": 8524,
      "13.0": 8525,
      "injections": 8526,
      "Syn": 8527,
      "Id": 8528,
      "fistula": 8529,
      "cmH": 8530,
      "restrict": 8531,
      "##oxid": 8532,
      "Mac": 8533,
      "tunn": 8534,
      "failed": 8535,
      "retract": 8536,
      "##79": 8537,
      "Sk": 8538,
      "##INESVILLE": 8539,
      "expect": 8540,
      "void": 8541,
      "##iastinum": 8542,
      "750": 8543,
      "Men": 8544,
      "##ALL": 8545,
      "Authorizing": 8546,
      "conver": 8547,
      "##FS": 8548,
      "##YLEN": 8549,
      "generation": 8550,
      "vaccination": 8551,
      "glut": 8552,
      "Chew": 8553,
      "##UP": 8554,
      "examine": 8555,
      "##icated": 8556,
      "Circ": 8557,
      "GAINESVILLE": 8558,
      "##cribe": 8559,
      "distention": 8560,
      "##ster": 8561,
      "PREV": 8562,
      "##IPTION": 8563,
      "Central": 8564,
      "Trac": 8565,
      "skull": 8566,
      "Lumbar": 8567,
      "##ecutive": 8568,
      "melan": 8569,
      "Ventric": 8570,
      "##ira": 8571,
      "ligament": 8572,
      "ot": 8573,
      "echo": 8574,
      "tolerating": 8575,
      "purpose": 8576,
      "##rosurgery": 8577,
      "sept": 8578,
      "variety": 8579,
      "##ratropium": 8580,
      "consists": 8581,
      "##anging": 8582,
      "Services": 8583,
      "Austral": 8584,
      "multivitamin": 8585,
      "##ollen": 8586,
      "DIRECTED": 8587,
      "##otyp": 8588,
      "##arring": 8589,
      "Early": 8590,
      "approaches": 8591,
      "depressed": 8592,
      "polyethylene": 8593,
      "##DM": 8594,
      "cues": 8595,
      "assemb": 8596,
      "##ASCULAR": 8597,
      "Physically": 8598,
      "xxx": 8599,
      "Hip": 8600,
      "subcl": 8601,
      "feature": 8602,
      "IJ": 8603,
      "scattered": 8604,
      "endomet": 8605,
      "signals": 8606,
      "responsible": 8607,
      "marker": 8608,
      "Heparin": 8609,
      "draw": 8610,
      "hallucinations": 8611,
      "350": 8612,
      "directions": 8613,
      "MIS": 8614,
      "shock": 8615,
      "##ANCE": 8616,
      "BG": 8617,
      "neurological": 8618,
      "TROP": 8619,
      "trache": 8620,
      "blot": 8621,
      "packs": 8622,
      "toxic": 8623,
      "tear": 8624,
      "OSH": 8625,
      "primarily": 8626,
      "Carb": 8627,
      "EVAL": 8628,
      "##eal": 8629,
      "China": 8630,
      "Long": 8631,
      "##uscular": 8632,
      "coughing": 8633,
      "consumption": 8634,
      "##uting": 8635,
      "coeff": 8636,
      "##ococcus": 8637,
      "Micro": 8638,
      "##atically": 8639,
      "dextrose": 8640,
      "##ithromycin": 8641,
      "##FORMIN": 8642,
      "##ellaneous": 8643,
      "Remember": 8644,
      "##rusting": 8645,
      "strict": 8646,
      "migraine": 8647,
      "inguinal": 8648,
      "pick": 8649,
      "##ispl": 8650,
      "cortex": 8651,
      "Bet": 8652,
      "probe": 8653,
      "SNP": 8654,
      "##lab": 8655,
      "sx": 8656,
      "##72": 8657,
      "representing": 8658,
      "##term": 8659,
      "##INAL": 8660,
      "##naire": 8661,
      "Ophthalm": 8662,
      "pedal": 8663,
      "antigen": 8664,
      "Program": 8665,
      "extending": 8666,
      "highlight": 8667,
      "##ifact": 8668,
      "##icks": 8669,
      "##HS": 8670,
      "indication": 8671,
      "##ringe": 8672,
      "quick": 8673,
      "knees": 8674,
      "Link": 8675,
      "Prob": 8676,
      "LEVO": 8677,
      "played": 8678,
      "speak": 8679,
      "##obia": 8680,
      "manner": 8681,
      "efficiency": 8682,
      "##Care": 8683,
      "##.001": 8684,
      "Headache": 8685,
      "explain": 8686,
      "coord": 8687,
      "rig": 8688,
      "sequencing": 8689,
      "##oplasty": 8690,
      "benz": 8691,
      "thoughts": 8692,
      "bond": 8693,
      "MOD": 8694,
      "Pa": 8695,
      "fingers": 8696,
      "relationships": 8697,
      "pharmacist": 8698,
      "Brain": 8699,
      "##ostasis": 8700,
      "din": 8701,
      "senna": 8702,
      "Da": 8703,
      "COLONOSCOPY": 8704,
      "Pharmacy": 8705,
      "6.3": 8706,
      "browser": 8707,
      "##ASS": 8708,
      "Mean": 8709,
      "##vin": 8710,
      "NEURO": 8711,
      "national": 8712,
      "##etric": 8713,
      "##yy": 8714,
      "RS": 8715,
      "Where": 8716,
      "concl": 8717,
      "##esity": 8718,
      "harm": 8719,
      "Unit": 8720,
      "exhibited": 8721,
      "Fund": 8722,
      "Br": 8723,
      "stages": 8724,
      "princ": 8725,
      "NET": 8726,
      "Relationships": 8727,
      "limitations": 8728,
      "27.0": 8729,
      "INF": 8730,
      "spoke": 8731,
      "persons": 8732,
      "femur": 8733,
      "RH": 8734,
      "hemoptysis": 8735,
      "##ufact": 8736,
      "Socioeconomic": 8737,
      "confidence": 8738,
      "entrusting": 8739,
      "MICU": 8740,
      "largest": 8741,
      "steroid": 8742,
      "##icate": 8743,
      "##metric": 8744,
      "noticed": 8745,
      "##raint": 8746,
      "brown": 8747,
      "suture": 8748,
      "##Do": 8749,
      "Miscellaneous": 8750,
      "##umps": 8751,
      "CELL": 8752,
      "##YSIS": 8753,
      "Thursday": 8754,
      "PERC": 8755,
      "ce": 8756,
      "curve": 8757,
      "returns": 8758,
      "Ve": 8759,
      "Quit": 8760,
      "Critical": 8761,
      "##rane": 8762,
      "dog": 8763,
      "Decide": 8764,
      "##ventional": 8765,
      "symmetrical": 8766,
      "146": 8767,
      "Supple": 8768,
      "Coordination": 8769,
      "hypog": 8770,
      "HOME": 8771,
      "##GT": 8772,
      "APRN": 8773,
      "intern": 8774,
      "Caps": 8775,
      "city": 8776,
      "Subject": 8777,
      "ExitCare": 8778,
      "WHO": 8779,
      "##AY": 8780,
      "operation": 8781,
      "##point": 8782,
      "##sh": 8783,
      "oropharyngeal": 8784,
      "CMV": 8785,
      "SLP": 8786,
      "falling": 8787,
      "hern": 8788,
      "planned": 8789,
      "##OXIC": 8790,
      "##owder": 8791,
      "FINAL": 8792,
      "##yd": 8793,
      "somewhat": 8794,
      "comes": 8795,
      "maxillary": 8796,
      "embol": 8797,
      "Gyn": 8798,
      "LUN": 8799,
      "Dim": 8800,
      "symptom": 8801,
      "targets": 8802,
      "Specific": 8803,
      "SIGNS": 8804,
      "fibrosis": 8805,
      "##HA": 8806,
      "chamber": 8807,
      "Gets": 8808,
      "FLU": 8809,
      "accumulation": 8810,
      "login": 8811,
      "##.81": 8812,
      "drip": 8813,
      "remote": 8814,
      "Within": 8815,
      "##UG": 8816,
      "recip": 8817,
      "Osmolality": 8818,
      "##ependence": 8819,
      "recomb": 8820,
      "##osin": 8821,
      "Prost": 8822,
      "##The": 8823,
      "nut": 8824,
      "##ocar": 8825,
      "##auc": 8826,
      "superficial": 8827,
      "formal": 8828,
      "concerned": 8829,
      "performing": 8830,
      "gau": 8831,
      "##vertebral": 8832,
      "##KA": 8833,
      "dict": 8834,
      "0800": 8835,
      "##orks": 8836,
      "bad": 8837,
      "nervous": 8838,
      "KNE": 8839,
      "predominant": 8840,
      "##nesday": 8841,
      "##era": 8842,
      "ECHO": 8843,
      "yy": 8844,
      "NSA": 8845,
      "Cyt": 8846,
      "Submit": 8847,
      "Are": 8848,
      "Ankle": 8849,
      "##otracheal": 8850,
      "arthral": 8851,
      "HLD": 8852,
      "##roscopy": 8853,
      "yyyy": 8854,
      "Tuesday": 8855,
      "microscopy": 8856,
      "ipratropium": 8857,
      "Hives": 8858,
      "foram": 8859,
      "##amycin": 8860,
      "fine": 8861,
      "meal": 8862,
      "##rich": 8863,
      "transmission": 8864,
      "securely": 8865,
      "QID": 8866,
      "##oking": 8867,
      "clearly": 8868,
      "xxxx": 8869,
      "##oxide": 8870,
      "Las": 8871,
      "##aid": 8872,
      "Password": 8873,
      "Reset": 8874,
      "dependence": 8875,
      "Obesity": 8876,
      "exacerbation": 8877,
      "36.3": 8878,
      "PBS": 8879,
      "Infectious": 8880,
      "##ruary": 8881,
      "xxxxx": 8882,
      "##65": 8883,
      "expiration": 8884,
      "urgency": 8885,
      "conjug": 8886,
      "##stream": 8887,
      "LC": 8888,
      "Oxy": 8889,
      "fixation": 8890,
      "But": 8891,
      "##olescent": 8892,
      "##estic": 8893,
      "##ilin": 8894,
      "##1.": 8895,
      "##ifier": 8896,
      "datas": 8897,
      "##UQ": 8898,
      "secretions": 8899,
      "steroids": 8900,
      "achieve": 8901,
      "Fear": 8902,
      "recall": 8903,
      "##osite": 8904,
      "filling": 8905,
      "Was": 8906,
      "IVP": 8907,
      "Unspecified": 8908,
      "reson": 8909,
      "catal": 8910,
      "estimation": 8911,
      "letter": 8912,
      "MEDIC": 8913,
      "##ifying": 8914,
      "Mig": 8915,
      "hydr": 8916,
      "PI": 8917,
      "existing": 8918,
      "URINE": 8919,
      "ABG": 8920,
      "encephal": 8921,
      "tolerate": 8922,
      "moved": 8923,
      "Four": 8924,
      "February": 8925,
      "##ulum": 8926,
      "typically": 8927,
      "typical": 8928,
      "incorp": 8929,
      "native": 8930,
      "afe": 8931,
      "##rocardi": 8932,
      "ALBUMIN": 8933,
      "##ague": 8934,
      "##ypical": 8935,
      "##ogenicity": 8936,
      "LL": 8937,
      "5.3": 8938,
      "excision": 8939,
      "36.0": 8940,
      "##illins": 8941,
      "DEV": 8942,
      "ACET": 8943,
      "##rows": 8944,
      "composition": 8945,
      "VI": 8946,
      "OBJECTIVE": 8947,
      "##burn": 8948,
      "splint": 8949,
      "##ACEMENT": 8950,
      "renewals": 8951,
      "spaces": 8952,
      "thrombus": 8953,
      "##east": 8954,
      "CAB": 8955,
      "CONTRA": 8956,
      "##inates": 8957,
      "##anus": 8958,
      "Basos": 8959,
      "Orthopaedics": 8960,
      "cancers": 8961,
      "haz": 8962,
      "stimuli": 8963,
      "Ketones": 8964,
      "##rophic": 8965,
      "specificity": 8966,
      "##IAN": 8967,
      "inserted": 8968,
      "Urob": 8969,
      "Called": 8970,
      "##otide": 8971,
      "AX": 8972,
      "facet": 8973,
      "segments": 8974,
      "DIFF": 8975,
      "forearm": 8976,
      "Fact": 8977,
      "AKI": 8978,
      "branch": 8979,
      "tightness": 8980,
      "##ius": 8981,
      "Nitrite": 8982,
      "NF": 8983,
      "Wednesday": 8984,
      "hybrid": 8985,
      "##hep": 8986,
      "##ITAL": 8987,
      "Vaccines": 8988,
      "##OK": 8989,
      "drops": 8990,
      "epithelial": 8991,
      "BE": 8992,
      "objective": 8993,
      "Ask": 8994,
      "pit": 8995,
      "afebrile": 8996,
      "refused": 8997,
      "poorly": 8998,
      "Bronch": 8999,
      "##estational": 9000,
      "##ugular": 9001,
      "endothel": 9002,
      "Expires": 9003,
      "Capillary": 9004,
      "inside": 9005,
      "##opram": 9006,
      "##iferol": 9007,
      "suspected": 9008,
      "retention": 9009,
      "missed": 9010,
      "tracheal": 9011,
      "##alciferol": 9012,
      "clar": 9013,
      "Son": 9014,
      "##con": 9015,
      "albumin": 9016,
      "valid": 9017,
      "utilized": 9018,
      "Ot": 9019,
      "MAM": 9020,
      "Views": 9021,
      "promote": 9022,
      "discontinued": 9023,
      "submitted": 9024,
      "Pelvic": 9025,
      "Forced": 9026,
      "20.0": 9027,
      "followup": 9028,
      "VENTOLIN": 9029,
      "prepped": 9030,
      "sources": 9031,
      "equipment": 9032,
      "##aph": 9033,
      "Iron": 9034,
      "##vant": 9035,
      "prednisone": 9036,
      "BASIC": 9037,
      "hyperlipidemia": 9038,
      "9.0": 9039,
      "##ilol": 9040,
      "##orosis": 9041,
      "##lofen": 9042,
      "##cil": 9043,
      "cultured": 9044,
      "Bone": 9045,
      "ductal": 9046,
      "END": 9047,
      "threat": 9048,
      "USE": 9049,
      "Extremity": 9050,
      "giving": 9051,
      "inj": 9052,
      "KNEE": 9053,
      "Elevated": 9054,
      "Encou": 9055,
      "CLINICAL": 9056,
      "estimate": 9057,
      "Worry": 9058,
      "Partners": 9059,
      "##eed": 9060,
      "mitochondrial": 9061,
      "##orced": 9062,
      "##HL": 9063,
      "Psychiatry": 9064,
      "##YLENOL": 9065,
      "##oscope": 9066,
      "10.6": 9067,
      "TYLENOL": 9068,
      "helps": 9069,
      "verte": 9070,
      "440": 9071,
      "sublux": 9072,
      "speed": 9073,
      "agent": 9074,
      "incomp": 9075,
      "##vedilol": 9076,
      "##psy": 9077,
      "soil": 9078,
      "Among": 9079,
      "equival": 9080,
      "describes": 9081,
      "advant": 9082,
      "##rease": 9083,
      "##char": 9084,
      "Emotionally": 9085,
      "ideation": 9086,
      "groin": 9087,
      "NORCO": 9088,
      "spectrum": 9089,
      "##LEASE": 9090,
      "##ossible": 9091,
      "insp": 9092,
      "CRE": 9093,
      "##ONASE": 9094,
      "tradition": 9095,
      "Talks": 9096,
      "##illa": 9097,
      "Sedation": 9098,
      "younger": 9099,
      "Laboratory": 9100,
      "##acement": 9101,
      "Failure": 9102,
      "SYNTHROID": 9103,
      "FLONASE": 9104,
      "ADVIL": 9105,
      "100.0": 9106,
      "practices": 9107,
      "9.1": 9108,
      "##elled": 9109,
      "##1.9": 9110,
      "umb": 9111,
      "##esare": 9112,
      "##zen": 9113,
      "VAL": 9114,
      "website": 9115,
      "channel": 9116,
      "##ropl": 9117,
      "UNITS": 9118,
      "coup": 9119,
      "MOTRIN": 9120,
      "vector": 9121,
      "comfortable": 9122,
      "Black": 9123,
      "##osen": 9124,
      "Rating": 9125,
      "Intimate": 9126,
      "##ropriate": 9127,
      "Conclusions": 9128,
[...]
