[PAD]
[unused1]
[unused2]
[unused3]
[unused4]
[unused5]
[unused6]
[unused7]
[unused8]
[unused9]
[unused10]
[unused11]
[unused12]
[unused13]
[unused14]
[unused15]
[unused16]
[unused17]
[unused18]
[unused19]
[unused20]
[unused21]
[unused22]
[unused23]
[unused24]
[unused25]
[unused26]
[unused27]
[unused28]
[unused29]
[unused30]
[unused31]
[unused32]
[unused33]
[unused34]
[unused35]
[unused36]
[unused37]
[unused38]
[unused39]
[unused40]
[unused41]
[unused42]
[unused43]
[unused44]
[unused45]
[unused46]
[unused47]
[unused48]
[unused49]
[unused50]
[unused51]
[unused52]
[unused53]
[unused54]
[unused55]
[unused56]
[unused57]
[unused58]
[unused59]
[unused60]
[unused61]
[unused62]
[unused63]
[unused64]
[unused65]
[unused66]
[unused67]
[unused68]
[unused69]
[unused70]
[unused71]
[unused72]
[unused73]
[unused74]
[unused75]
[unused76]
[unused77]
[unused78]
[unused79]
[unused80]
[unused81]
[unused82]
[unused83]
[unused84]
[unused85]
[unused86]
[unused87]
[unused88]
[unused89]
[unused90]
[unused91]
[unused92]
[unused93]
[unused94]
[unused95]
[unused96]
[unused97]
[unused98]
[unused99]
[UNK]
[CLS]
[SEP]
[MASK]
*
##in
a
t
##on
##re
##at
##he
.
##al
##en
##er
##or
s
##ed
,
##is
:
p
c
##it
##es
w
##ion
m
##ic
o
f
##nd
d
the
D
[
]
##as
##le
##ar
-
b
##ent
##an
in
P
1
N
##ou
and
C
T
##ing
of
n
##ro
S
A
)
(
##AT
M
##ct
re
to
I
h
##il
##ve
/
##om
##ation
2
R
e
H
##ATE
DATE
##ul
L
##ol
##us
##ot
l
##os
##ig
##id
##ith
with
##el
E
##im
##ur
for
##et
##ati
th
O
##ra
is
##ly
##ON
•
3
##ce
##ab
F
B
##ist
st
##ow
##ut
g
##res
on
##st
or
##AM
##am
##if
0
The
##ter
##ate
##em
y
##ac
v
con
##ain
##th
##um
as
##od
he
##orm
##ical
##AME
NAME
##atient
##op
an
##ge
4
was
##ec
##ay
at
r
##ess
pro
##oc
##ment
5
by
##ere
##igh
##ated
##ver
##our
##ad
##ri
u
##ect
G
##ir
##ION
_
ex
V
be
W
##nt
##ine
##able
##est
##ure
No
##pp
al
##OC
##ight
##ch
##ity
##ory
##ast
10
##ak
no
##se
##ult
##og
##ial
##ive
##iv
##ia
##her
##ATION
not
U
##ell
##ort
##qu
ne
LOC
9
are
;
6
##omp
##ies
##ill
"
##ormal
##ep
ch
le
LOCATION
##end
##ER
##rom
In
that
patient
##ant
per
##ress
##IN
##ST
##.0
##hy
##IT
##ations
##art
sp
##ase
##vi
dis
##ative
##act
##ions
su
##pt
%
##ign
##ue
##iz
##ail
##are
##ud
##istory
res
Ne
<
7
>
##one
##un
##ef
ab
8
k
##ous
##all
20
##ary
##ip
se
were
ha
##ew
mg
##edic
cont
us
ad
wh
##ake
from
##ag
##ib
##ablet
'
##ard
##ore
##ear
your
##ph
comp
sh
##per
##ff
app
has
##ans
##ont
we
##ft
this
normal
ac
im
He
IN
##ther
inc
pain
##ime
##uc
pl
##CT
=
Res
##ound
##reat
##ular
MG
##low
##ile
##ru
##ld
##ral
12
cl
Pro
int
have
##aily
##ction
##ens
Patient
MD
St
##.5
Re
##ition
##ub
##RE
##outh
##ap
History
##00
##ers
daily
##ood
##ym
inf
rep
Y
##olog
Th
you
##out
##view
##UT
##gative
·
11
pre
##inal
##EN
ID
##ost
##vid
##ater
Al
##ance
mouth
##IC
Date
de
can
##ome
##AL
##ric
pres
rec
##vel
##ital
##ace
##age
Take
##ific
##iff
##ass
sign
##ange
sc
##ual
0.
##and
##erg
left
##val
un
up
##its
##rol
##yp
tr
##ence
Ex
##ollow
##ose
##ied
##ide
##ness
##ord
K
##gh
##pl
INST
##omm
##ET
##UTE
##ild
##OR
There
She
##ys
##yst
ar
##int
##ITUTE
INSTITUTE
##ased
##urg
##ne
##ron
need
her
##enc
day
##hys
##ough
CON
15
##osis
##ok
Not
##urre
##TA
##form
will
di
##te
ind
##ind
##own
##ich
##ang
right
##TH
##edical
medic
Ch
ass
Tablet
##cer
##ice
##ob
##hen
me
##ale
Con
stud
ED
ob
Dis
reg
time
bl
##ould
?
##atus
##ults
##ced
##ings
Negative
cell
##ss
AM
14
##gn
care
follow
which
ref
act
##viewed
13
##ack
ag
PM
+
##ved
##ED
19
Q
Medic
##ates
°
##.1
##cri
##urrent
##fter
inter
well
tablet
##ble
present
##ONE
Oral
mm
pos
##.7
100
Sp
##ute
##.2
cons
##ors
We
PR
do
dist
she
imp
##ject
30
##ery
x
##lect
This
##cess
been
eff
PH
##ression
all
##ified
##.9
vis
diff
Comp
##ears
16
##rap
##ures
but
##hed
##THER
it
##ree
##ite
##ardi
trans
##lu
OTHER
fe
##ely
##umb
history
##ident
##so
##hest
##OS
##ally
may
##.8
##oint
##.6
hour
##arge
##ach
had
##.3
report
mon
file
qu
##OL
##aus
All
other
##valu
##.4
gen
##dom
min
#
##ms
##ry
##lud
##AN
##kin
##TACT
##amin
Z
##iss
CONTACT
##ond
##iagn
reviewed
##ted
##ES
J
##nal
am
Ab
|
##ments
##ium
kg
##red
after
##ks
##alth
provid
##ology
##rop
also
18
pt
his
font
met
any
OR
##ENT
col
##ame
##ID
##ily
24
##hes
##rad
##AR
##ong
ext
sub
li
##pir
##ruct
ser
##tain
##imes
out
##OM
##IL
An
en
X
low
##ove
und
##ease
##ize
rel
25
##alue
disc
Ad
##lease
##ax
None
##ITY
##IS
##atory
##ered
##ract
##mok
##itis
##day
##ke
##ici
includ
over
bet
##ities
40
test
mL
so
##uring
##ex
hours
exp
##vent
Cl
##OP
##erent
201
ST
incre
TA
##rain
PHONE
##very
use
&
##ility
hy
##dition
##co
##nown
Pt
##usc
without
##ically
##oth
study
##ocial
Pul
than
signific
##erm
##ystem
Ref
activ
times
treat
wee
Im
Phys
Pl
pers
if
##CH
##AS
j
##ection
Normal
0.0
On
##ution
##ren
span
##rem
##ating
mod
##indings
under
perform
significant
part
##ox
##ized
show
##ics
sym
##alc
##ING
clin
##ount
PO
##uss
Value
00
more
##ath
##we
21
##amily
EX
##ateral
level
##du
##ule
##emp
##itive
ed
##ov
##anc
##arg
CITY
200
50
##charge
Ass
##cular
disease
##cript
##sy
##iated
##ata
Range
##let
##yt
##ause
At
rem
Int
##cedure
needed
##IP
##lic
##unction
dec
##omy
##ole
results
call
ant
days
##ues
Allerg
wor
##atic
##BC
size
Ac
##ven
ph
##ptom
##oid
surg
##up
patients
non
medications
effect
man
BP
##AD
whe
##ension
using
36
gr
person
##ech
spec
Un
cells
##velop
these
##UL
Lab
##osp
medical
##MP
##onary
requ
tw
Cont
##rect
used
resp
contin
def
det
##usion
##ype
dL
Time
during
##umber
##lear
chang
##valuation
##row
##oup
##ram
blood
##ert
##essment
acc
child
##ior
##other
cm
adm
Social
FL
who
17
today
co
##erv
Medical
##vious
##rior
ORD
22
##ran
treatment
##oun
##aps
##ting
control
cor
develop
EXAM
health
Temp
MR
sec
negative
##cc
one
##ween
##der
Medications
Smok
RE
bil
##BL
##als
##ency
##struct
Exam
pul
##ari
every
between
current
status
##ascular
##ning
##ender
Dep
Yes
Status
##ature
seen
##ick
Act
when
##ict
ins
##ospital
##ung
##ody
##ons
##rough
##ptoms
em
##iagnosis
##hem
##aint
chest
##ode
mass
##ending
anal
des
supp
med
abdom
Dr
dep
div
Sc
##ise
##les
performed
##ected
##SS
##eral
Col
##eck
Sign
##iat
gl
If
fem
##ement
##lex
##ark
##rug
##isk
##ization
##rit
place
hem
ro
CT
Rec
high
Neu
into
##ible
car
back
##emb
##oph
##tein
##rac
##eft
##pert
##iven
within
CH
noted
##ysis
new
##ever
visit
##str
Cardi
##NA
inv
##cept
comm
##normal
##OD
##rial
60
sin
symptoms
sm
group
##ust
month
ret
##OT
##cop
Other
##monary
IV
##rapy
discuss
##enies
att
Left
##sp
##rolog
flu
##piratory
data
two
##ounds
##ages
##ronic
##gest
##reath
##UR
Inter
By
##arm
Right
##duc
##ulation
##yle
##hib
form
##olic
inform
Physical
there
##OB
##EL
should
PRN
##INE
##IA
Pulse
Gen
sw
##IV
found
prior
years
bel
head
proble
about
##ving
32
##ision
findings
##MS
##ended
acute
Pain
##rim
year
discharge
post
##ared
##yl
changes
##ient
phys
dem
Pre
##10
due
evid
obtain
their
##ening
98
activity
ident
##gen
past
exam
##ines
##sych
##hol
23
Assessment
following
##onent
fl
##urn
##fore
plan
Sub
##stit
##cent
Clin
meas
indic
ear
PT
age
##aking
lb
Di
impro
##yc
Skin
##UM
##arr
both
through
Resp
##itor
##ases
Vital
Disp
##artment
##ressure
known
go
above
Bl
lower
function
##ema
Diff
lab
##AP
TABL
App
system
En
Surg
off
TABLET
As
Rad
##ural
##ix
some
##ymph
##ocal
old
end
##irst
assoc
Result
##ounter
bi
##av
clear
rate
AL
35
Current
##vers
##way
evidence
Plan
last
##cription
lim
##apsule
only
different
breath
##ler
given
week
vi
work
##oss
bre
##urther
##ration
Ur
##UN
Ph
AN
##onstr
previous
##aced
val
##cern
Se
BM
change
##ros
PA
##laint
It
##owever
Per
Last
##ired
sur
Results
##imal
##air
then
99
##crib
com
av
Com
tender
##ety
You
##abet
##eren
Past
##ulated
##ument
Allergies
rad
37
##led
MC
Proble
IC
mult
Radi
Imp
family
see
demonstr
home
sy
style
Out
imm
bed
sug
##eding
protein
op
##ool
clinic
Tr
##lection
occ
##line
increased
risk
Hy
##owel
##iting
27
##IST
weight
small
##iatric
Or
Comm
Am
##ink
##US
##ane
rece
skin
abnormal
information
Department
##ha
sim
45
90
ep
soft
##gi
based
et
les
##yes
face
second
te
##oma
##tern
##ited
tiss
!
STRE
each
##OG
most
heart
##terior
Fig
Hem
pol
mot
recent
##vere
##cohol
start
ra
##gan
##ission
##osition
##ie
##tic
##athy
##reated
##ian
##CC
##rib
26
such
female
arter
examin
first
sa
STREET
##resent
##amm
##acter
ml
tub
including
##ross
NE
Att
does
par
Diagnosis
they
pat
cardi
Please
Active
fract
##ils
##elling
##EST
##ational
##ovascular
conf
quest
##ants
fact
CO
calc
##jective
surgery
##ire
##ogen
result
decre
partic
##IF
##ocyt
intact
To
28
abdominal
Review
For
SpO
poss
record
comple
bec
##urs
##fer
PC
appro
##erential
##ician
Vis
##vis
BMI
vari
Gl
Chest
provider
Ar
##gth
our
##ock
ZIP
tra
ur
would
##ential
mid
##alp
##PI
##osed
ent
enc
##oral
distress
ord
##01
##LE
edema
hel
Neurolog
##ucose
Component
##ye
procedure
##ORY
##thm
##pper
##otal
Top
months
##ck
ve
##els
exper
Procedure
sounds
get
##ish
obtained
##az
##leep
97
##aging
view
further
weeks
Contin
##pertension
TH
##ived
align
##venous
associated
mild
##ash
Dict
my
Use
##ravenous
##ocument
Differential
Number
##xt
lung
31
##abetes
##ined
direct
fat
discussed
ORDER
##ade
##ightly
cancer
##tal
##formation
pressure
##RESS
Weight
male
before
29
problems
##emia
Total
aff
##eg
##li
##duct
extrem
recomm
est
loss
suggest
prog
##hythm
PL
##ull
##ective
##kely
Abdom
##mit
continue
##ately
##asal
Trans
reports
Name
##acc
obs
dose
hyd
fluid
pot
Blood
##ished
##ologist
its
mic
##ouse
contact
Dictated
now
add
##lor
help
presents
##agement
##stitution
mor
##erc
memb
##havi
infection
short
##ability
0.5
##ank
##SA
Evaluation
since
Ind
musc
rest
hyp
dys
##iple
Clinical
hospital
System
vent
range
instruct
evalu
##ism
##RA
denies
Will
type
##hod
radi
medication
##ality
##ief
ver
##GN
evaluation
##ilar
appear
##vice
equ
##inist
##IM
Sh
Ext
##ental
##erative
Final
Family
##lev
showed
500
agree
##inary
##requ
did
##ez
avail
##ropri
##jur
below
Musc
##aneous
states
##ICAL
studies
##ological
##heck
##neum
##arent
chronic
##kelet
Cardiovascular
process
##acco
##set
positive
Ver
personally
IMP
fac
##ausea
Abs
air
react
34
analysis
##patient
##amp
appoint
ox
Ob
capsule
Psych
Calc
##astro
##rast
OF
monitor
bowel
Information
levels
stable
expression
area
three
07
##lectron
##ills
tenderness
addition
long
AD
##DING
could
##erate
##cribed
therapy
##met
##olution
Provid
##ulos
import
##hea
##vention
fever
Care
06
##hyl
number
please
##opathy
##stand
SE
##ious
##ification
placed
compared
##keletal
regular
##elf
remain
Vitals
available
Problem
visual
##ination
NO
while
HE
##utes
appears
##umm
main
##rimary
questions
##stitutional
80
##50
HIST
1.0
FIN
date
##RESSION
Su
##59
sched
HISTORY
note
Inf
Pos
take
cat
##ingle
set
##old
##FR
##AC
Impression
swelling
side
hep
images
related
identified
##idne
Follow
##ison
ben
fracture
Intravenous
being
Respiratory
##oscop
##ful
##omiting
##KE
IMPRESSION
upper
path
33
Mar
hand
##order
##ocytes
gu
appropri
##istent
joint
##ma
Met
DA
##20
orient
##ually
##roph
##ued
list
request
like
##ents
Do
sens
##ring
effects
AB
bas
##ason
prot
mmol
Visit
class
light
AC
leg
where
invol
reported
##oses
Health
08
##atin
Constitutional
##icult
GI
developed
likely
exhib
##iqu
rhythm
cent
##aterally
AR
body
AP
##endent
##ces
ple
##12
II
These
Collection
less
##ured
Topics
##uloskeletal
Neck
Can
Eyes
neck
##jury
provided
##roid
Findings
tube
breast
##irth
##cin
##SUL
surgical
##only
inject
line
Em
##ogra
##ify
Drug
hig
##uff
##oor
##ste
Go
Arial
struct
##lectronically
educ
fil
cough
##omet
##echn
##ulin
##pre
My
ICD
lo
##put
##erved
09
pe
tissue
drug
1.7
##iness
pulmonary
##oot
neu
ble
##irm
De
bilateral
##ivity
##olute
##itions
Provider
again
del
sans
Sex
Hospital
site
Rep
refer
serif
MED
possible
Disc
specific
method
75
oz
GL
Disposition
represent
taking
Verified
condition
good
##emper
##iety
oriented
immun
New
##iod
Musculoskeletal
##duction
yes
##idual
clinical
children
##ins
CD
diet
0.2
##erence
##nee
FINDING
fib
TE
##ressed
FINDINGS
##ices
##ume
##ourse
eye
lymph
Medication
General
Positive
frequ
##otic
##ially
However
Never
sleep
determ
##ICE
##uled
difficult
End
##ves
sit
bilaterally
total
##onse
init
toler
38
Access
DIA
02
##30
DIS
very
Surgical
0.9
concern
MRN
antib
cult
Head
##usp
Known
port
##osph
##ather
palp
##Hg
vomiting
es
Medicine
prop
Man
##ipid
##eric
increase
organ
alert
understand
move
##ctor
##ores
artery
##arison
nausea
##unct
mmHg
Absolute
Mod
severe
LE
##IE
TAKE
hum
CL
tum
##rel
appropriate
abs
##amet
##hip
##iron
##OLOG
administ
BID
##ator
Type
done
pneum
gra
consid
wheez
##of
kidne
Rel
FS
Discharge
aut
Mon
tob
significantly
DIAGN
##now
assess
grow
##ays
##use
CBC
70
Read
##ocation
lesions
Neurological
Commonly
Test
contrast
fall
95
made
acid
##eds
prom
Systems
management
##au
Over
Sin
Resident
sever
##emperature
WBC
##ars
000
term
##ner
support
Continue
##ward
stand
150
##aryn
Alcohol
Smoking
tobacco
reve
order
allerg
##uter
water
##ense
particip
pred
65
tests
##ention
smok
##iation
pop
##adder
##eep
acet
motion
Wh
Labs
##MENT
##rate
return
include
##yn
Height
ventric
nod
##roat
down
vol
complaint
##ife
Init
SER
Spec
##ug
##heter
remo
review
Note
##duced
SP
##ervical
hr
injury
sl
opt
}
Le
##odium
mur
needs
treated
##alk
##phal
AND
##aternal
##11
##ave
{
great
decreased
##ten
Us
complic
examination
##ressing
##eld
same
##xiety
MCH
headac
muscle
Qu
important
AT
##ILY
Aut
##cedures
##uture
minutes
red
##itation
ML
CM
Pulmonary
Heart
##ift
Chief
elect
1.5
higher
tri
Bas
concent
ap
Electronically
Bil
access
##uria
caus
fail
Comments
Reviewed
##AB
exc
unt
multiple
appointment
weak
aort
78
model
##ontin
exhibits
##itted
##ras
region
##ritis
48
##plant
##ork
COM
##leased
##ats
improve
LV
##ae
##esthes
behavi
##ograph
const
##ource
potential
them
consult
##RO
##rin
encounter
saf
##rid
Attending
##asis
free
super
account
Non
##inent
el
sequ
Radiologist
DOB
MCG
##aly
factors
him
i
##estinal
dry
active
His
response
Sig
##arding
respiratory
Code
tak
##ield
large
Signs
Wt
sep
Complaint
physician
##echan
##eration
CV
position
observed
inhib
here
expl
primary
81
murm
bleeding
HPI
Cons
##aff
##arged
##reen
##YS
top
Glucose
lead
##ummary
Her
Goal
received
##itamin
0.4
supple
##IR
##ASON
renal
liver
##ives
##accine
##orr
##ONT
Gastro
Up
Rx
q
2.5
64
##xim
elev
displ
##operative
colon
char
point
##uration
##bral
diagnosis
exerc
##FT
micro
mother
Denies
ON
##used
##ty
Enc
##ones
##lamm
hyper
AS
##anel
grad
vir
ROS
XR
##CO
##IEW
##ales
affect
##rength
##ling
knee
transfer
##imen
Lymph
##ayed
Years
72
abdomen
spine
oper
Surgery
similar
cond
##eless
flow
##aj
pel
Age
Mother
mat
instructions
##istor
##utr
##arrhea
##ividual
Smoker
##ses
Your
##enopathy
groups
##etic
##arin
##ensity
##anged
After
contain
##arrative
kidney
check
induc
RAD
mark
##ophen
Hypertension
##oscopy
diagn
##ently
##ication
Thank
assist
brain
##VICE
##utrition
04
able
wound
admission
signs
case
having
##ternal
US
ax
##15
199
Hx
period
shown
Figure
currently
##orn
education
##ERY
Des
deg
sinus
##Cl
Is
Acute
39
membran
gene
##ECT
##ril
DAILY
##aled
until
42
##utaneous
started
##lob
##arget
food
REASON
team
POC
pass
##raum
##rag
High
Refer
##ait
##aminophen
doctor
document
resident
nb
So
ago
##rc
iss
character
##side
##NT
development
physical
##ampl
Neg
##abs
mean
##EC
##usions
05
##ules
Concern
wall
##ands
nbsp
##acy
Min
feel
SERVICE
MA
mechan
hydro
55
Units
##omen
individual
300
several
complete
##OST
##ided
because
##tt
##ediatric
HCC
CP
Diagn
##BS
dil
##IUM
Pres
##intestinal
however
techn
##ked
##iate
Cancer
44
TECH
##criptions
lateral
consistent
four
GLU
##inine
##eat
indicated
59
know
##itus
confirm
Birth
##itro
focal
UA
##cephal
Onset
CA
systems
event
##arkable
trac
distal
##IG
better
experim
##EP
##bul
Urine
##rine
Be
##cl
Imm
##IVE
##rict
conditions
insulin
Gra
##ypes
##esthesia
Lat
##oles
##time
count
##agn
##und
gall
signed
##ple
##lected
interact
TR
evaluated
effusion
drain
thick
PER
Diabetes
stress
shows
##sth
z
##fort
sol
COMP
##IOLOG
Comment
##TATION
CHEST
##aring
96
estim
warm
still
orders
##RNA
##ored
Hep
##irc
hemat
##SC
##not
thou
aw
List
moderate
BUN
##GE
##vised
rash
##chool
improved
##ept
shortness
NA
##uous
##ystolic
respective
ordered
mo
Post
diarrhea
##iving
seiz
##bal
##RS
imaging
those
##ationship
spe
adv
##PV
sampl
EC
even
complex
experi
##othe
growth
PRE
##ections
Data
catheter
##ajor
ster
anti
##reatinine
chem
via
aspir
benef
##GFR
mut
emerg
##come
##ching
Psychiatric
injection
HT
weakness
cardiac
full
genes
##cutaneous
##OV
##SH
##ique
target
cervical
CMS
invest
Hemat
general
Adm
Abdominal
tumor
muc
around
ill
##EB
code
required
read
medicine
MRI
HENT
##URE
Since
nightly
human
##ependent
47
Smokeless
##osure
quality
posterior
##oing
biop
##ogram
##outine
##ional
failure
##32
recommend
Mild
recommended
Hour
##inding
41
cu
complaints
##ancy
Encounter
##remarkable
local
few
62
##ESS
1.6
single
Main
Educ
inflamm
0.1
oxy
cause
Na
##erve
next
##nea
##though
##illary
Abdomen
temperature
ir
alb
52
understanding
##ret
pattern
##wn
Objective
Chronic
psych
Inc
##ula
CONSUL
Initiated
night
mal
##ength
masses
Occ
caregi
cle
cyst
##istorical
Ear
diabetes
Fl
Co
dr
##omes
dia
completed
##IED
nasal
0.7
RADIOLOG
##NP
##tle
##omic
NOT
Latest
syn
acetaminophen
##ogn
common
##ologic
relative
investig
called
morning
##aby
Call
disorder
described
once
foot
secondary
##ides
##rome
##reg
Emerg
##arch
01
previously
##viron
loc
##thritis
Subjective
##ensive
stim
Calculated
Document
##ellow
##ried
repl
correl
state
##ectomy
adj
Radiology
VER
##OX
max
cap
induced
anterior
respectively
##IFIED
##atio
approxim
Comparison
Narrative
ventricular
##reening
problem
Gastrointestinal
##icians
amount
##ranial
##REAT
commun
crit
extremities
comb
lesion
scheduled
keep
early
##af
Soft
allow
lob
ER
urine
bone
Cent
FOR
ult
cyc
##stru
Chart
nec
oste
##sthma
##ext
2.0
CC
##changed
##ulf
social
white
mice
##iot
hypertension
##oglob
##raz
epis
pregn
49
##ained
SC
##ber
120
##verage
##aling
Procedures
self
03
##eline
Eff
##sequ
Me
CONSULTATION
##You
##ought
name
##ormo
pleural
##assium
RD
##orac
##angu
strength
Recent
##ilt
oral
0.6
TO
##sw
##wise
correct
BY
alcohol
Tabs
##utions
values
Ht
RN
least
prob
##iciency
##spec
##utic
ORDERING
##port
Mult
directed
##rasound
46
Historical
equal
##DL
Addition
UN
ACT
##OSTIC
major
54
##asing
##ipher
250
DIAGNOSTIC
caregiver
##loride
arm
Outpatient
##ray
Fe
0.8
strain
Reg
##ends
difficulty
##ront
surf
##erences
numb
##rest
##ences
maintain
##icity
placement
assessment
anxiety
##uch
Treat
cyt
stated
admitted
pr
##ising
##verse
##raction
murmur
included
unremarkable
systolic
1.8
VERIFIED
role
Phone
Prog
Education
##equ
101
glucose
##IAL
57
prof
abnormality
vs
SY
thy
make
ery
many
Americ
limited
##ndrome
standard
wors
IM
##ina
exercise
RADIOLOGY
##KG
HTN
areas
##vironment
##eph
HR
56
0.3
pur
##GB
##apt
taken
##get
DISC
presented
Accession
MO
DNA
##ograp
how
concerns
sex
##anced
##onia
EV
##OW
Spouse
##unt
Marital
IL
dri
Dec
SEX
##ostic
##anic
measure
##.00
##oglobin
controlled
1.2
chills
##gl
elevated
Stud
##raumatic
sal
HY
##PH
43
symmet
##25
cases
##enous
Med
removed
##read
Child
##cephalic
pulses
respons
##onal
##going
lit
##ival
##ipation
##arb
1.1
scan
##itations
Of
EKG
sent
pa
WEB
product
##enosis
Clinic
species
Lung
##ower
##orrh
##hyd
Extrem
##ourished
prec
##esis
cal
td
club
##opl
SUR
Disease
##romb
activities
##ording
CAL
open
enh
pub
du
##enz
room
intra
defic
##rist
##XR
Released
0.05
visualized
Recomm
##roc
##UNT
index
Due
prox
##oy
Capsule
approximately
##na
##olved
##EM
labs
Mr
greater
RT
4.5
Lateral
##ps
With
325
Report
Discuss
See
71
DO
none
stool
Neuro
Ant
##aw
measures
complications
##izz
##yan
##orax
##uk
##ids
##gment
58
bedtime
##io
samples
##them
followed
additional
along
##olec
cc
##ipheral
Est
##nia
##ither
INV
##ormocephalic
demonstrated
##ene
Serv
MS
##anguage
##cg
among
##ocol
ul
mood
##lux
interval
##due
RMS
PMH
reactive
##uted
400
Admit
##ICATION
issues
dom
limits
##lying
Refill
##ably
records
online
hip
wheezing
##here
##less
##ems
MEDICAL
140
biopsy
DISCONT
aortic
2012
break
Flu
INR
pert
Del
##ister
nourished
##junct
poor
baby
Interpre
React
vital
Supp
vers
provide
Course
DM
MCV
160
##FA
cre
circ
Treatment
Record
stop
##ll
##PR
regarding
Overdue
valve
demonstrate
changed
tissues
##ets
##bid
Sym
##hab
Home
##aine
stenosis
Af
cere
mcg
Physician
life
##AMIN
Cardiac
##OPH
reach
sat
eas
##igue
score
##rong
frequency
Hyper
length
Sexual
Creatinine
##45
##40
depression
##roke
throughout
revealed
administered
51
percent
therap
Ms
##UE
phosph
BAS
##ressive
against
walk
##atitis
Previous
##ultation
##OPCT
allergies
##odes
##ITH
##terol
##ways
HGB
##otid
##ourinary
##itourinary
tolerated
examined
##abolic
Exp
##omeg
sk
88
##UTH
##empt
rub
appearance
##ering
later
CR
rese
women
Abnormal
syndrome
detail
2013
##ople
53
population
OT
school
Te
much
##isks
##vices
Problems
##umin
##LA
##lement
##ography
Pediatric
HIV
cannot
VIEW
##asm
1000
##err
rh
Risk
Sm
volume
##UD
Fem
Prof
##rosis
reduced
prescription
field
##ised
##ires
##arynx
Prior
color
erythem
Imaging
distrib
CK
SH
parent
##ODONE
Next
##umbar
##EG
stage
prep
applic
Recommend
198
Table
vein
sil
Pressure
##stance
NP
environment
ABD
##aginal
##omegaly
##ibility
proteins
throat
Inh
atraumatic
gross
##ember
##ouble
Single
extremity
value
asp
##junctiv
##duce
susp
instructed
##kle
resist
##DR
Immun
HCT
independent
CREAT
bladder
cr
transf
gener
prevent
suc
prescribed
Genitourinary
panc
presence
congest
conc
pharm
sure
Div
breathing
often
except
unc
receive
demonstrates
round
poly
headaches
drink
Body
mit
design
110
Prescriptions
dim
traum
nuc
lobe
unchanged
central
##och
AST
Dispense
##man
transplant
Reason
office
evaluate
confirmed
##UB
##oracic
73
##lished
bru
##tered
Well
##opt
behavior
ALT
##ININE
block
0700
##lied
phen
CREATININE
shoulder
documented
measured
CAR
##24
consent
##struction
##yz
##ists
sodium
##aired
Nose
marg
##otherapy
4.0
remains
Start
##eth
##HT
Contact
##ATI
rz
SCH
pertinent
##ances
##isc
Ag
Ca
minimal
coll
play
CAP
##razole
neg
##cem
##panic
Father
American
##DS
SURG
wid
##izziness
facility
##osing
Tri
TB
influ
##ications
##arc
either
MOUTH
worse
##round
sup
##etal
They
pack
2011
Description
##ocus
##upils
68
functional
Tub
##rof
recept
##urse
eyes
address
Once
midline
VIT
effective
cop
##orph
##vast
Laterality
##aterial
##specified
##othorax
##rob
isol
testing
##ips
hemorrh
##ontinued
Ret
##equate
br
##ellitus
##ursing
cho
men
movement
upd
proximal
##eps
##arrow
surface
determined
##YL
vess
prol
ALB
cyan
PHYS
apparent
RES
initial
Diagnoses
##ographic
Normocephalic
away
##enance
program
82
section
orig
##jects
##amine
##izing
##hyroid
doing
Summary
factor
Physicians
aspirin
##astric
##ronch
involved
protocol
##ened
component
Vi
concentration
necess
accur
abnormalities
LT
##ample
differences
##hesis
79
##ots
bacter
When
##cal
referral
Det
service
recently
##aintenance
units
ausc
Ins
DD
##charged
–
RDW
strong
MET
THE
assessed
bro
Additional
hypot
108
listed
Ren
baseline
##ivers
RBC
vaccine
##ites
replace
Output
mob
verbal
Bre
##lipid
another
meals
##thop
##ubin
##ables
ultrasound
##iology
76
85
##atelet
immed
##upational
##roscop
Set
Ord
##ophage
##ieved
moist
##vic
people
pract
##ird
##cinoma
vascular
Release
culture
PCP
##vastatin
thromb
##EX
pelvis
DV
Rate
Commun
fatigue
Grand
##lipidemia
contrib
##ters
10.0
##ached
##irubin
Behavi
magn
constipation
Mot
##bs
Part
interpre
MDM
mail
Future
##rees
unable
vision
safety
Allergen
emb
CALC
##asc
attempt
Cor
94
66
Sw
##ardial
Transcription
paramet
##utroph
External
##ART
##PCT
##AG
##PE
course
##ORM
##imum
MCHC
##57
DIF
increasing
##uterol
##LY
decrease
##atal
nerve
0659
##ubated
Outcome
##hor
structures
##ieve
Maternal
Extremities
##atist
##olesterol
##emory
##oids
ASS
MM
sample
Children
Condition
##ORT
##IES
Add
intake
Severe
##oratory
##tebral
enl
research
mamm
continued
Count
##omach
schedule
Signed
Assoc
erythema
##illed
##ocaine
RR
67
BL
WITH
Relation
##uation
##ITION
NaCl
promot
temp
##ophageal
##pped
##alm
notes
PLAN
what
Mouth
##urb
##ains
quant
density
MPV
Score
pneumothorax
Vol
spect
pH
##AX
##achy
structure
##iotics
tablets
74
EGFR
altern
po
considered
7.5
solution
reaction
risks
##isms
RA
Cre
goal
log
##CE
Back
auscultation
##OMY
bus
##olar
Allergy
relationship
##known
##ption
Service
Transcriptionist
Val
success
Throat
applied
must
estab
pulse
carb
monitoring
Our
##rely
##ivery
102
Used
##05
PCR
##ession
##astic
Li
##itting
Ro
Center
##dle
extra
answ
##ulations
whether
diaph
Apply
repeat
77
healthy
dependent
gallop
##1.1
Hyp
##resp
Female
##zym
Fall
run
perf
events
##axis
train
analyz
##ier
Protein
Rem
##18
otherwise
Division
145
##osa
SOB
##ouns
headache
69
##adenopathy
binding
larg
63
Male
particular
pending
125
##odone
##function
base
Location
virus
##ott
gly
##den
death
One
flex
medicines
Air
intervention
##pec
##16
front
Intervention
Arter
just
according
morph
series
uL
material
HC
formation
vitals
panel
require
space
Cell
##ctal
##fact
cort
Par
conduct
content
Subcutaneous
Occupational
##OSC
##atives
fing
##que
3.3
##ixed
os
improvement
##ashes
##arri
##amic
ech
##izations
ES
##27
Endoc
exposure
##ophils
surv
average
diss
AV
give
overall
##igital
YO
##acity
DL
##19
Bowel
##aged
fore
gastro
##chem
##ann
Reactions
drainage
##35
anesthesia
##26
drop
approach
EOM
GA
##rium
Sodium
##oxic
NEUR
membrane
Therapy
##onic
intrac
guid
CALCIUM
meds
height
ter
COD
table
##hetic
##raw
conn
lig
IF
##over
consider
Src
cer
##49
##ERG
600
##iast
##atures
CI
Cult
mellitus
86
internal
El
thyroid
##omycin
necessary
phone
dial
phot
##icient
production
detected
##eutic
thought
87
##eling
Present
##IDE
ang
stomach
##enic
##RIN
der
130
Ongoing
bal
performance
pregnancy
##IME
infar
##generative
bu
##ects
135
treatments
Inject
expressed
##hing
concentr
##asure
##ises
Place
tested
predict
device
May
drugs
##odies
PE
##ched
##structions
##ysm
nodes
final
indicate
might
93
near
##ey
Sec
##nce
##ump
##itud
##idine
EM
Sched
repair
screening
##ask
Intake
##ATIENT
told
seizures
Day
Breast
mil
POCT
Ep
##utrophils
##allow
EF
bo
Hemoglobin
discharged
##enced
Bi
##version
##hel
##IX
##13
GLUC
accept
lear
NG
mental
phase
Quest
##inant
infer
continues
metast
includes
complet
IS
Pot
symmetric
##isin
numbness
##bing
Pupils
enter
don
various
##went
Clear
Further
Panel
##aining
congestion
adequate
wheezes
cyanosis
coronary
twice
image
lungs
dizziness
ach
clean
Bilateral
##opril
##ANK
deep
vitamin
##ergy
summary
##atch
albuterol
##urred
incision
adenopathy
net
bedside
COP
Interpreted
benefits
dat
1.3
worsening
nose
avoid
##piration
cur
Asked
HYDR
##oppl
motor
Fil
infusion
92
84
Vaccine
Ap
views
entire
determine
scale
reduction
Multiple
Effort
##word
obes
##icular
##CTION
Bilirubin
##oration
urinary
Daily
CN
Stable
##OMEN
impact
##TI
Afric
##OSCOP
inflammatory
ECG
ratio
smoking
##TR
pneumonia
2014
##ili
electro
ev
enzym
separ
2010
saw
197
prost
EST
services
spl
OP
neur
movements
##essage
lines
caused
pg
SI
DVT
RNA
##17
diagnosed
##itivity
Lungs
##structive
##oh
##eled
hearing
sulf
##38
105
Progress
##VD
##night
##OSE
III
yo
puff
##ASE
five
analys
##CS
Sens
##rox
Admission
nutrition
palpitations
membranes
HEENT
Activity
##ng
3.5
Moderate
##rophy
sed
##ERD
##oppler
##ophag
mi
Off
##9.9
##ying
XX
0.00
administration
mig
femoral
##II
PHYSICAL
From
##idal
PATIENT
six
gait
1.4
liqu
difference
##PS
Calcium
##idation
##COUNT
PD
meet
ut
RV
Monocytes
recorded
signal
UNIT
COPD
##TER
ability
##ledge
1500
##ette
ischem
##rology
##isinopril
Intact
best
subsequ
##lo
##CODONE
safe
DIAGNOS
cost
peripheral
##eres
Solution
LEV
vaginal
##14
##IGHT
##hylaxis
##IOR
statist
gas
104
hold
CAPSUL
Dear
slow
CAD
##augh
##amination
12.5
180
Conjunctiv
sites
although
mel
venous
look
##work
TID
1.73
containing
ankle
angi
Discontinued
across
Dressing
onset
##erly
writ
##ycin
sided
own
Tob
shift
##app
unspecified
PROT
partner
##CA
let
activation
grade
comparison
Ax
deform
6.0
src
resulted
Discussed
Eos
LY
feeding
rales
Profess
arth
##terday
lay
##ready
TSH
##esium
##autions
Sincerely
arri
##ardia
##ts
##encies
##ifest
slightly
Diet
##olecular
Renal
Lim
Phosph
surve
Triage
usually
band
##seous
reflux
soon
##rated
upon
Hg
##ulate
memory
##ARY
models
##53
serum
hal
GERD
##illin
800
hom
CARE
##etite
61
Primary
Pol
89
83
sore
##omated
toget
routine
together
##ULT
lumbar
characterist
Car
oxygen
business
getting
operative
Requ
##tation
##iotic
peak
##ped
middle
##mitt
REP
##cope
##lation
heparin
ide
##mother
##urance
already
ENT
SURGERY
hx
aware
distribution
urg
MIC
More
trauma
##omfort
##earing
dysuria
##rateg
assistance
abuse
cross
##enza
margin
methods
outpatient
MON
##ony
##CR
CAPSULE
##eria
dysfunction
##idence
Check
##asone
NS
Vent
##29
removal
Tube
resource
##respond
Management
Engl
integ
ET
##ella
find
##hold
tip
mE
beg
SL
affected
resolved
Volume
##BLE
##ANT
Nutrition
Orders
##bl
107
##icle
concer
speech
mEq
Routine
Enter
##oprol
hard
##reased
never
##acer
Some
##olus
che
products
estimated
PLAT
PROC
neuro
VA
Ox
OB
patent
103
parameters
##ape
##orth
##asma
DDx
lev
##roup
##elt
stroke
##aces
##encing
Neutrophils
##azole
Emergent
##47
##acks
yesterday
carotid
PLATCOUNT
energy
LA
Shift
ROM
Function
turn
Monitor
dam
espec
scler
Colon
hepat
##ned
Form
Depression
question
##ELL
tox
hemorrhage
way
Comple
atrial
advised
future
types
Special
YRS
##itone
##iversity
Does
den
ec
##ifications
synt
##oke
page
##1.19
##JECT
especially
defined
calcium
PS
chrom
carcinoma
strateg
##ostomy
recommendations
##rec
409.9
641.19
409.901
Adult
correspond
CS
Professor
##acent
Mob
want
##elect
filed
States
ASSESS
tachy
Tobacco
antibiotics
rashes
EVERY
Study
ov
Modified
##ocrit
SW
birth
ann
1.9
##chym
facial
display
STUD
agg
participants
Doppler
Dist
##ococ
Asthma
mac
View
concentrations
REV
##oprolol
Appoint
rap
##AIR
appointments
##urrence
providing
##INT
chloride
underwent
##obal
nucle
doses
Ill
special
transport
##ndom
Assist
items
adult
informed
CODES
cultures
illness
identify
palpable
prim
external
ray
##etron
##ervation
##AV
##abol
balance
ASSESSMENT
occur
quad
thoracic
click
##ILI
Fac
mLs
expected
random
ARNP
rates
opp
seizure
ng
Notes
0.01
seconds
analyzed
##gor
##EF
Manual
##OOD
##DITION
##OSCOPY
Culture
##ansetron
Inhale
Tw
##ges
fevers
##23
aorta
##UC
##land
house
##inate
LDL
##ico
session
Wor
Although
HS
Td
toward
And
superior
WH
regions
refill
sequence
Emergency
Basic
DI
Automated
Potassium
##FP
reduce
##BP
residents
third
potassium
Click
##ASC
##rea
##ancomycin
##overy
release
HFA
involving
inferior
##active
agre
young
experiments
episode
##ctomy
Vitamin
##itrogen
##icial
Pe
asthma
concerning
stimul
##hens
couns
mill
lymphadenopathy
therapeutic
Av
resistance
##34
art
marked
136
Ul
Ig
mom
ile
TT
##ino
ond
fin
##vision
Sleep
##orts
##otype
released
352
##YPE
ondansetron
Both
longer
vo
chart
91
##izes
Ser
CTA
father
MV
Anesthesia
recon
deficits
member
##rus
easily
##born
tom
##ipp
##37
err
added
cerebral
versus
##ICATIONS
##rolled
discomfort
NOR
infections
##hal
tone
correlation
infant
##INU
appearing
CONT
DIAGNOSIS
UR
located
Continuous
##MPH
experience
ambul
##lusion
dressing
collection
cold
COL
cut
Orthop
calculated
VITAMIN
##chi
put
grossly
Examination
counter
survival
Mass
##oster
degenerative
##ferred
##48
##iaz
Room
##igare
Mic
##ida
IR
Has
Anxiety
African
text
##ries
ulcer
##ellular
##enol
Alb
3.2
UL
fractures
heard
graft
##hou
CXR
hernia
source
##urysm
Instructions
hepatic
LYMPH
word
CLIN
swallow
##to
asym
medial
relatively
##oon
pm
prn
vacc
##eases
lack
receptor
send
pelvic
CARD
##aren
##ogenic
##self
34.0
location
unit
##entin
degree
SM
4.2
indu
##phone
anemia
##ouch
GEN
During
Also
##rofen
association
visits
PROCED
ask
##OUR
genetic
##AZ
stent
features
Sat
options
Request
YOU
##ipl
##ympanic
thickening
redness
cord
solid
spinal
technique
Os
making
Endocrine
##abetic
cav
collected
PIC
36.7
feels
episodes
oxyCODONE
2000
##aud
radiation
respond
obstruction
3.8
##ware
SU
##ares
thus
molecular
Cat
REVIEW
feeling
topically
Line
Acc
regimen
staff
measuring
Aort
Direct
Regular
IND
LOS
##RU
narrow
regurg
##PT
recurrent
importance
propert
language
nurse
appetite
polym
##pite
36.8
##rehens
Techn
advanced
Work
exist
##icter
mes
reflex
##uprofen
emergency
util
Arterial
paper
Case
heter
Conf
##akes
tib
conducted
example
rapid
responses
arch
Scheduled
asc
supplement
output
##iring
##astolic
##36
ACU
TM
##iles
compli
Qual
sus
Sim
##UTR
##arynge
Temperature
##ament
900
##heal
Specimen
become
PROCEDURE
Pat
devi
extract
vessels
ACUITY
degrees
sexual
##renal
##ivation
##icip
abscess
PAN
Recorded
##rend
##21
inflammation
##ventions
##ameter
DISCONTD
##any
##rog
##LC
kin
defin
rout
neph
older
##pirations
seeing
Op
asked
hypert
artic
##28
training
##onomic
ABDOMEN
eng
Neurologic
Maintenance
##ources
STUDY
going
inhibit
Tod
eth
gain
##eros
tend
##oler
bur
##ACE
ane
##une
link
suic
aden
amp
2015
##ards
presenting
Nasal
causes
##ager
feet
analyses
##rill
outside
AF
wrist
hist
Relationship
compl
ICU
##rat
intermitt
describ
project
squ
2.7
2.1
Ben
occas
Low
University
ONE
individuals
lat
##formed
##isone
step
enlarged
##ATIVE
##idocaine
Office
Behavioral
Each
thin
atelect
glyc
##rip
setting
Leg
public
smoke
Return
Dry
Site
laboratory
procedures
attention
syncope
segment
CONDITION
vertebral
RO
##ordination
BS
##ontaneous
SK
##bladder
silhou
patch
bronch
##ISON
##fast
Device
##RIL
##46
plant
infilt
aim
acqu
##FER
highly
##ton
Encounters
org
FR
regurgitation
##inated
Created
whole
power
English
Path
Hyperlipidemia
ALK
Nightly
methyl
Pneum
##luded
therefore
screen
Opt
196
##fully
Chloride
COMPAR
UP
metabol
##ropathy
COMPARISON
##ognitive
lisinopril
pancreat
##ubation
nerv
immune
##pnea
reveals
##VIL
unknown
##asons
##ches
Scale
interaction
combination
showing
##aker
Currently
106
sensation
##onin
BLOOD
##reas
##aryngeal
Filed
Cle
foods
Ed
earli
##INATION
Nursing
subjects
walking
Cr
Signature
##de
##ik
close
half
##nder
enhance
Def
BMP
911
Pers
EP
diagnostic
##overed
##urity
suff
transferred
##allen
Therefore
secret
iron
stay
disturb
portal
2.2
improving
comfort
Language
##brid
Today
px
mechanism
Any
suggested
Readings
pharmac
portions
frag
somet
##arp
replacement
##care
##76
metoprolol
2009
border
tract
requested
##imals
##rection
##INUED
Gu
son
##LET
osseous
others
Good
##head
LIP
typ
##ongue
mort
##02
##ah
##ertion
criteria
##ops
XXX
characteristics
distended
persistent
finger
##gias
underg
Alert
AA
##ectious
deficit
width
##cence
chemotherapy
How
infected
atelectasis
silhouette
PG
knowledge
rib
fam
viral
##fe
##AST
learning
Small
##onchi
##rical
Conjunctivae
Sl
##cers
##EV
tit
DC
Sur
##kal
##phth
Arthritis
lact
##imate
fluids
##ENS
lip
controls
distension
environmental
began
##bow
2006
continuous
GU
Ratio
LAB
clubbing
fold
yellow
##asia
nont
##bri
DISCONTINUED
sterile
diseases
swe
0.001
##FL
clus
##51
##rs
Substance
begin
encou
EXAMINATION
##yte
season
pad
referred
miss
intro
##39
NC
##ERAL
ampl
selected
Breath
Nausea
detection
Point
Digital
Anemia
regul
working
Consult
Port
underlying
##EK
##orus
##rient
Most
##ogene
delivery
PRIOR
plasma
bul
little
load
SYST
##PHOS
wave
legs
TW
##ulitis
spent
##endence
Dept
ure
ess
cooperative
##RT
##ope
trial
##aughter
diffuse
explained
benign
Pel
mRNA
focus
##lycem
First
Screening
directly
reb
##itate
##RAL
sequences
floor
too
uter
##iastinal
became
certain
ALKPHOS
transcription
axial
sensitivity
nan
Food
closed
##ytic
##ACT
STAT
NAD
Hematocrit
##irus
basis
ALL
##NE
brow
stra
peric
##idate
linear
##estation
intracranial
precautions
Eye
pathway
##orders
reason
box
##comes
##orb
##abap
consist
Sexually
malign
polyp
##ators
maintained
Quality
parents
eating
components
##abapentin
decision
sac
hematuria
Eth
cycle
CPT
Metabolic
mov
bp
summ
EN
##ionally
##omal
datab
Full
overnight
##acin
arteries
feed
##asty
Order
real
progression
##ifestyle
investigated
PRO
##IB
Illness
##42
##ithel
7.4
Hepatitis
frontal
##rum
Intern
key
##esophageal
Red
diameter
##odyn
critical
antibody
purp
repe
fast
fill
reflect
members
5.0
Mental
select
breakfast
challen
assay
believe
neurolog
##room
studied
##olence
mechanisms
Elect
2300
war
##QU
##open
takes
involve
##more
detect
2008
##oll
trig
4.6
##son
##tained
##leen
whereas
Appt
rehab
##HD
gastric
##aries
##ners
indicates
What
##ROID
invas
Bro
Exit
PSC
QT
##rant
HP
medium
answered
dig
##oar
lipid
##201
Two
intensity
##ceived
##iced
scrib
8.0
animals
beta
UF
##asp
Here
Vascular
##riction
microscop
film
Cap
##itative
deformity
pink
EXT
derived
##oley
##END
Lipid
Question
displayed
Hand
##rade
community
8.6
##atology
##fl
Sch
damage
36.6
##abil
HDL
Author
cand
##igen
essential
IU
Create
established
##eff
participate
##31
bruising
##imens
Platelet
predn
canal
insuff
##ote
##itoneal
satis
muscles
late
HD
##FORM
##oscopic
isolated
##erest
rats
SS
##ttes
recogn
Mid
Auto
JVD
aneurysm
intravenous
##oman
##Your
duration
DT
Susp
dated
Grandmother
epid
simple
htt
eGFR
Administ
Motor
belong
##inations
apprec
SD
2016
password
media
##75
alignment
##onate
##utum
3.7
EMS
LEFT
HCl
extensive
650
inhal
##ptomatic
##pha
created
clos
murmurs
While
##ceed
Sy
Quant
##vern
##ylenol
ped
##omb
PANEL
Gross
##iately
mucosa
tight
metabolic
Delayed
Ears
##44
remained
##iasis
stiff
aspect
##earance
suggesting
Taking
CY
mobility
Short
mildly
##ged
Allergic
outcomes
Mood
palpation
##igarettes
consol
##cardia
##bulization
Dose
tric
Soc
blue
Stand
36.9
resulting
bra
##ding
##oprazole
pen
##ibly
come
DAY
Index
immediate
morbid
opac
PP
allergic
appe
##brile
##CM
initially
NEUTR
Extended
abused
nontender
##22
5.1
Thus
ME
##airs
born
novel
##istic
Noted
stre
Diagnostic
Fluid
black
host
3.0
EG
United
NT
Valve
properties
exud
EOS
##43
written
##ITOR
personal
serious
##ground
contract
felt
##ana
absent
LP
2.3
##rm
##rief
median
dyn
RIGHT
progress
##tes
alone
bony
molec
Net
PICC
##58
##apse
capacity
Internal
Max
hands
UTI
mortality
vitro
accomp
pept
NEED
##ocity
experimental
hrs
Mobile
Tympanic
trend
partial
healing
original
Sinus
##oretic
Dys
circum
##imated
##54
las
NOTE
someone
interventions
Jan
benefit
points
minor
##ATED
choosing
unique
increases
scribe
##ush
Attends
Tablets
##phthalm
##seud
##ANC
SV
DES
cate
Upper
GLUCOSE
relief
obstructive
yet
earlier
facil
impaired
attached
double
Clean
##olecyst
liquid
frequent
guarding
Make
Knee
Only
Qty
ART
##sc
Infusions
Thyroid
processes
follows
Appearance
took
nm
##ancial
Ult
##itude
bath
TABS
##rehensive
##rosc
think
IVC
meth
##rought
##arily
##arian
##het
prescriptions
Adv
##gia
signaling
patterns
obesity
Pending
falls
##OUS
Rh
cholesterol
notified
bott
450
trem
PAIN
mM
produced
##rot
138
airway
Fax
liter
dors
##rack
##ai
Former
though
occurred
4.1
VACC
Stress
TBILI
##ocardi
arterial
fraction
##icted
ib
green
maximum
##JECTIVE
Oroph
portion
absence
committed
2.8
prolif
exact
means
45.0
mar
constant
tried
disl
Referring
##umen
##03
##erol
##med
nat
needle
##ails
##56
##aches
##anges
##emic
##uspid
survey
consulted
viv
Patients
##RD
##ECTOMY
##inophils
VACCINE
Furthermore
##ploy
Onc
preval
2017
mediated
nond
rhonchi
nam
Tra
rhin
living
CMP
Sept
Gait
##arenchym
residual
##luenza
updated
puffs
interactions
##ORTA
Rest
##uls
appt
deficiency
consum
11.0
##estern
2007
##inct
touch
tele
grand
PTT
627
Mom
##Cs
som
Rehab
om
mouse
SOL
##hood
##unctions
sick
##PROT
##lish
##iver
Method
Hyd
requiring
sn
Paternal
Lymphocytes
bring
Cardiology
compet
identity
##avi
mitral
network
matter
Pap
clinically
##SE
HOUR
starting
2.6
##ortion
pleasure
240
##arriers
Complex
Oropharynx
NPO
esophag
National
happ
##regular
##iques
Magn
hab
Staff
resection
diaphoretic
##avy
scores
##DER
Group
amb
arr
##eprazole
extension
obvious
White
thickness
rebound
decl
finding
pediatric
Bo
Pass
2259
3.9
Source
intermittent
##ULAR
Assistant
spray
Muc
prem
##mitted
heat
DR
##LOR
Transport
Tests
##lication
adapt
3.1
milk
##NL
Les
##ricular
##orvastatin
leuk
diver
checked
trials
3.6
Rash
deviation
2.4
spontaneous
##oring
build
##rew
prostate
temporal
ren
node
##rig
##oplasm
wife
alle
##mia
Drain
##load
##PIR
##irr
excess
##omer
resolution
##ethyl
SKIN
CHF
effort
REPORT
Respirations
completely
irrit
relev
cou
subst
##ache
impl
##antoprazole
Wound
98.2
retro
TIM
##ATORY
##father
sugar
auth
##iary
Now
bar
Mond
vel
##ducing
##icles
##ochond
137
Prop
County
tool
immediately
interest
TD
corresponding
Fr
##THROID
Flor
try
PERR
##41
##ging
##bo
OD
foc
reference
appeared
##OH
##CK
##orbid
requires
od
practice
proposed
129
##ully
wild
lidocaine
BR
##lege
##me
##omas
pregnant
ibuprofen
139
Fin
##hicle
unex
Aug
ens
nd
Rect
apnea
recovery
postoperative
##IZ
suggests
Heme
Symptoms
##sis
prominent
specimen
flat
Xr
##ochem
##unn
nodules
went
NEG
Associated
compar
sulfate
##agia
pathology
BI
##esthetic
##ortun
##acerb
cellular
Needs
dilated
regulation
##oz
Urea
proper
narrowing
TPROT
radial
##enomegaly
##band
eat
input
influence
Screen
Interval
vivo
vancomycin
##ias
##itr
held
newborn
fluores
##CL
glass
rect
gabapentin
techniques
VIA
##ephrosis
Om
distance
##.732
##iological
##itary
LTG
apopt
627.732
awake
##ger
outcome
Cholesterol
PAST
cognitive
transition
Eu
occurs
Visual
##ta
##UMB
tongue
Color
trouble
Estimated
BSA
elbow
receiving
010
bacterial
press
satisfact
Eosinophils
database
strains
Stop
far
##inf
inhibition
mention
##off
center
12.0
##iral
details
##zine
application
rather
##ogenesis
##romeg
##ria
##igned
Frequ
nature
hematoma
antibiotic
biological
oroph
represents
sen
axis
1459
Box
HEP
Prevent
communication
Conversion
combined
formerly
Derm
CHOL
said
98.1
inst
pall
repeated
RRR
##agulation
MT
bacteria
8.3
IP
usual
mast
##55
HL
##epam
terms
##rillation
##33
##ference
MEDICATIONS
ste
generated
exposed
nodule
disorders
hall
gallbladder
cover
##last
stimulation
hydrox
fri
Pharm
##ams
0.25
##lements
Influenza
Oste
Monday
##most
SING
pal
subsequent
la
##GF
domain
##ocular
Spe
Refills
STA
lac
subcutaneous
##ontinence
##ronephrosis
larger
adults
particularly
##heum
326
##isions
ASA
adjacent
Nitrogen
insurance
Indication
var
##HC
FOL
electroly
##ifically
##inating
antibodies
##ellar
TP
resid
7.3
miR
quadrant
Change
experienced
dialysis
Peripheral
STG
diastolic
PSCB
TF
##RIC
##inc
action
pharmacy
genome
dip
HEAD
Keep
USA
##eine
metastatic
##MB
ice
Initial
accurate
pantoprazole
fL
forward
##EMS
Cal
##uticasone
daughter
Orient
4.3
root
##ANS
##istry
Aff
fluor
##umer
multiv
surround
##imm
brought
maternal
##NF
cardiovascular
##nes
##aque
anat
##aiting
PF
##aster
educated
Given
##aedic
##aken
provides
atorvastatin
frequently
Product
wean
nursing
THANK
##rose
SR
differentiation
normally
Meds
fund
AK
##aund
defect
measurements
##othy
XL
ADL
##raine
chlor
Days
##otomy
pap
severity
GFR
##roscler
ms
##oarthritis
Muscle
withd
pericardial
exacerb
6.4
Neurology
##erectomy
##king
organization
##If
dimension
fu
infarction
itching
bolus
basal
characterized
Gap
neurons
icter
Ech
carried
Kidne
markers
##PL
stopped
GCS
##ience
##ball
possibly
consolidation
##gu
compliance
##raged
py
Cervical
1600
3.4
dental
Referral
##78
##jection
unless
infarct
14.0
##ILS
drinking
OS
Had
returned
adverse
Avoid
says
create
alpha
##70
Types
##lications
http
##ek
##ocusate
nor
variables
Second
hydronephrosis
compression
leads
PRES
##RECT
chann
Mg
0.03
State
urgent
collect
##NESS
functions
lap
bases
##heroscler
109
polic
##iol
##orrow
##stead
112
tolerance
Jud
disturbance
##openia
111
lives
##pected
WNL
Duration
Florida
Hearing
aer
##ley
##romegaly
Interes
SYSTEMS
highest
##mission
complication
duct
planning
effusions
attending
##itory
radiograph
aud
EY
populations
##ining
chemical
HA
Impaired
##ameth
##asant
ischemic
##opath
monit
spleen
LD
Need
Lower
mix
caps
##structed
##hyroidism
##rix
##genital
North
numbers
joints
##ese
##oper
Bed
Palp
Latin
##romycin
##back
PRIN
parenchym
PROV
BC
##usive
Liver
CDC
##nicity
Options
supine
platelet
plans
route
Aortic
Job
##orp
stiffness
##phagia
Every
Moreover
goals
probably
##eter
Spine
experiment
##AGE
adrenal
##elines
Jul
bic
##aching
subject
Race
##change
Sol
electronically
Seiz
Hispanic
Appointments
GP
prevention
Message
##ception
Married
verify
ting
implant
##lycemia
DP
core
talk
MONOPCT
situation
Che
Phosphorus
abd
##rowth
Strength
Sever
INTER
##iveness
User
EL
##oresis
##ARGE
workup
enhancement
##ena
Under
gastroesophageal
amino
derm
Germ
tet
insufficiency
##ophil
##uary
thigh
bag
biom
ca
##LOD
lbs
regard
##ze
##ocyte
irregular
secure
Confirm
leading
tumors
##ping
broad
causing
ol
achieved
rol
append
providers
ZEST
##SONE
Nurse
vessel
thyromegaly
Rectal
prevalence
Sent
Pr
##mol
##thing
kidneys
Anion
Using
Oct
##eful
seat
pathways
Axis
prepar
##YR
implement
##lox
##YN
Level
alter
4.4
indicating
arrival
CVA
INDICATION
ventil
TIMES
##iatry
fibrillation
gradient
6.5
rectal
Injury
opportun
COUNT
Abd
##organ
##ryl
Transportation
SUB
##GA
##cious
exercises
##EROL
Orthopaedic
veget
dext
98.4
2005
LYMPHPCT
enough
##geon
vert
##LODIP
involvement
##iliac
Mal
##attered
concur
Large
morphine
LMP
strategies
mixed
##atase
transfusion
adjus
265
eval
yield
protection
employ
message
97.9
sensitive
Indications
##ocardial
TWICE
arthritis
115
##actic
seems
fluticasone
Misc
Decreased
Recommendations
##ruit
GENERAL
##Ch
Overall
PEL
despite
##rope
##OPHILS
bound
Complications
##DA
##lycer
Flow
##oding
Concl
##metry
cranial
##ometry
##roxine
REC
cry
came
Gran
##oden
Hum
##ns
2.9
File
##aves
world
SPEC
injected
##orrhea
WB
attack
upt
dislocation
5.2
Lymphs
accum
Dem
quit
Sed
Revised
##igm
natural
Peak
CSF
Venous
tomorrow
Sister
##phys
fully
regression
pancreas
MI
mutations
36.4
swallowing
141
CKD
vehicle
##ocks
sputum
Infant
##rage
Completed
bones
##rie
Cells
Tdap
##OLE
##USC
HB
##loxacin
unli
docusate
author
##spective
published
##atous
wide
MIN
##ancing
relevant
##by
maintenance
##ococcal
##plenomegaly
oxid
icterus
alternative
bottom
exudate
orth
##alks
PROTIME
EEG
##arv
adhes
2018
Reference
##kaline
COV
##vascular
moder
Detected
Foot
fram
fix
Magnesium
##irrh
feeds
0.02
Should
diabetic
counseling
210
NEUTROPCT
flank
fetal
almost
developing
##pass
Antib
CHCM
Team
##OGR
velocity
SOC
##othyroxine
PELV
discussion
##farin
Albumin
##amber
gland
junction
voice
GM
##ontrolled
force
enzyme
Super
sem
correlated
VENT
Cranial
##rams
dro
Hb
approved
STATUS
Supplement
psychiatric
##olam
ALLERG
ten
Urinary
##eli
minim
investigate
arms
chair
mechanical
Basophils
Independent
fusion
eight
dark
gran
predicted
equation
delay
##ERATIVE
QU
heavy
compounds
Temporal
##rauma
ventricle
Pred
referring
accompan
PRESENT
##usband
##ysterectomy
acceptable
January
staining
colonoscopy
emot
School
violence
##ptons
salt
neural
sharp
Communications
closely
IT
conj
Studies
##amb
sun
Answ
##aper
context
Parent
##ashion
Integ
##stitute
CLINIC
HOURS
station
saline
##ury
##0000
TEST
axillary
##ulmonary
literature
sensory
QRS
magnesium
Fib
mammogram
remaining
##reshold
proliferation
##umed
Complexity
ears
forms
weekly
##ket
ZESTRIL
116
creatinine
Symptons
##ROL
inhibitor
inhaler
##hort
Crit
uns
LEVEL
##ILL
epithel
chromos
REM
RTC
Frid
adjust
Stool
Arm
98.6
mess
entry
mucous
stret
aspiration
##OLIC
##PER
##emide
32610
fashion
evening
Hypot
hepatos
ongoing
CNT
induction
8.7
##RUCTION
Through
South
teeth
dyspnea
##MR
progn
steps
##rinks
##aundice
mainly
Bel
##leral
##rogen
IMM
Wed
##stitial
DISCH
118
dent
transl
establish
ischemia
Speech
advice
##utive
Ir
sinuses
##rawn
applicable
Sensation
substr
specimens
unexpected
Clip
Preferred
cavity
##NI
altered
progressive
dissection
drinks
hes
##oli
hospitalization
##idity
OM
##vier
prolong
led
layer
hepatosplenomegaly
organomegaly
plants
effic
plate
Repeat
Fever
mitochond
cluster
generally
##acing
##aract
Oncology
Ble
allowing
pancreatic
Trauma
tachycardia
cream
prophylaxis
Inpatient
cann
regional
Sulf
enhanced
proceed
Else
Amount
##yr
DS
##ricted
sitting
##OTAL
##aP
tingling
1.00
360
gets
##iform
horm
therm
Ess
calcifications
##xp
Disorder
uses
osteop
##ipment
Chem
visualization
##rep
hepatitis
4.9
accident
##edness
incontinence
substance
##IVIL
##rost
Brother
MUSC
PRINIVIL
apply
incidence
reli
##ottle
intubated
##otypes
surrounding
pp
LR
bypass
##erosol
scleral
pleasant
onto
neut
hot
##ONTIN
##arity
##EDI
133
Lesions
appropriately
XII
swit
##intment
Prot
fist
##ee
##ript
marrow
Suspension
##ETAL
##anol
##etry
global
sister
##ls
mutant
deb
Elsevier
##80
terminal
MY
leaf
Europe
Joint
profess
##xious
Acid
IB
always
suicidal
##iet
##icit
##olerance
##ames
EOSPCT
##opulmonary
kn
Following
uptake
Ge
standing
fung
##ANDS
RANK
animal
BASOPCT
cef
##cus
transcript
Ethnicity
Latino
tibial
NI
HF
nuclear
142
##rays
impair
Aust
9.5
acquired
Airway
Hig
##isp
significance
qual
Contacting
##DNA
##va
##ycodone
FEN
HEM
PV
##rosemide
fatty
sometimes
##ilitation
az
Inhal
spread
stone
guidelines
##ophren
veins
##ero
agreement
profile
##ZA
cast
optimal
microb
situ
##ytes
relig
THIS
Grandfather
Exerc
rat
lot
8.4
Ultrasound
dorsal
variation
rare
##ober
##lets
DISCHARGE
Friday
comments
morbidity
##atation
##ories
verbalized
opi
##ialysis
##iazide
task
##ipolar
##52
brother
atheroscler
sedation
observation
##83
POS
distinct
##ows
##ider
##ulosis
Den
Frequency
##yg
NUMB
trachea
formed
##orption
Coronary
towards
wind
APP
Shortness
Stroke
HM
##artan
Received
gel
##icious
FAM
films
Kidney
lif
hair
gro
authors
Thought
pri
detailed
contains
134
clon
##rinc
170
crack
CARDI
SPINE
##60
ball
##omnia
##iations
##ificant
pig
PERRL
nonc
selection
consultation
4.8
belongings
Ket
Emot
Essential
sud
sepsis
Foley
reactions
Delivery
reflexes
department
##ucas
OX
hemodyn
calling
##racheal
METAB
Ct
easy
Control
Swelling
NON
PMHx
flexion
OSA
origin
Tric
Pediatrics
useful
NUMBER
##lin
NEEDED
dehyd
2004
ju
##alb
systemic
phosphory
##rench
##ACH
Endo
peri
stri
injur
live
difficulties
##osal
Minutes
designed
prepared
5.5
Leuk
##hat
Hz
occlusion
War
cortical
Whe
Administered
Anal
##unk
##rosurg
##ocytosis
PUL
FA
##oming
1200
##ENDING
activated
stem
##ropium
requesting
emergencies
unlikely
cryst
Communication
Based
sett
##chlor
modified
filled
##pers
##olve
Const
buff
Pulses
bis
renew
METABOLIC
VIEWS
Ann
Base
recurrence
acids
##azine
elevation
ADHD
accuracy
ureter
Assess
guidance
participated
sleeping
COMPLET
rubs
June
radiology
husband
##ORMAL
update
##TION
generalized
resistant
##orter
##QUE
efficacy
Joh
lost
esophagus
auto
Rfl
##HES
Growth
subsequently
ILL
Otherwise
36.5
##adin
background
fair
sut
##irrhosis
seg
##ream
According
##VASC
ge
Pulm
##CP
DIFFT
DIFFTYPE
glycol
threshold
March
woman
31.0
consequ
tons
enzymes
##herent
aged
##inn
web
software
Cigarettes
##gorith
Behavior
alternatives
37.1
##aving
sudden
##lectomy
smaller
jud
Vomiting
disp
Get
divertic
##codone
ILLNESS
interpreter
##ogeneous
mutation
##light
##uck
##izer
NECK
##letion
excluded
subt
smart
WT
##RST
interstitial
PSA
##AND
DEL
resting
cup
##UMIN
interpretation
plus
August
molecules
apoptosis
IgG
levothyroxine
prote
tubes
law
##ridor
##ds
yrs
myal
##rates
CNTRST
satisfaction
117
percentage
##UTION
EOMI
rot
Pathology
Catheter
LIPITOR
Recommendation
CRP
exactly
dilatation
mach
land
April
July
##OSEC
##ARE
INSTRUCTION
Sus
hypertrophy
behavioral
structural
Placed
CB
myel
synthesis
Activation
gave
Neph
clot
works
##LOW
128
##ologies
##cember
Quantity
##ogenous
9.6
Complete
TTE
nic
IVF
Meter
Sitting
eld
carry
Similar
orthop
##erase
ground
##asks
##rupt
coordination
Bec
##encephal
EMERG
evolution
##amide
elements
##onazole
COVID
SHANDS
##ceptible
INSTRUCTIONS
##strument
agents
CPAP
chain
##ONARY
Oper
gluc
GT
COR
observ
stability
LAD
intended
##olin
healed
BASE
7.0
##99
oil
rule
122
Additionally
error
World
##Ds
##affeine
Fat
##etics
##roponin
ion
tab
##adine
nutritional
December
##lim
got
periods
identification
remove
##ser
NEURONTIN
##aryng
##enter
##erted
Insulin
opacities
NR
PET
8.5
114
##LODIPine
seem
mediastinal
embry
algorith
113
monitored
cytok
vary
Atrial
##amics
commands
etiology
##OPS
NORVASC
opening
MP
antico
cereb
##cort
differential
Nebulization
##peritoneal
atrium
Benign
Answer
pool
##economic
PELVIS
97.7
coverage
lib
##omed
issue
fields
processing
##PRE
bran
policy
##nar
regulated
agreed
College
TYPE
##obic
capt
SA
paran
pump
relax
Minimal
##RN
##OME
fellow
MOC
narrative
##madin
mentioned
desc
optim
transverse
##umes
summar
traumatic
Es
##vem
126
##gg
pseud
Lifestyle
nerves
countries
##aze
bleed
##INES
atten
matrix
slight
##iO
Unknown
Tylenol
##ioeconomic
ZO
Measure
ANEST
##iding
running
connections
##ycl
190
##obacter
wire
omeprazole
French
fax
DTaP
statistical
degrad
angle
Granul
EGD
measurement
reading
##ellent
##avicular
fiber
Feb
Three
seven
##ulating
fed
fit
limit
computer
predom
died
uncontrolled
presentation
vag
atrophy
##agen
Unc
##ucasian
132
##hex
travel
replaced
##olone
Penic
interview
labeled
los
Pen
majority
defects
Financial
Orth
attrib
##uity
SIGN
119
Class
Workup
Internet
##epime
iliac
moving
pounds
##erred
ring
conjunctiv
enlarg
##DN
stridor
allowed
##uing
##ju
##AMINE
##SD
biliary
mus
Vacc
SEEK
##ithiasis
fol
abund
gallops
religious
##vernment
5.9
receptors
October
FE
##KEL
organizations
September
halluc
variable
drive
corrections
incubated
paras
successful
produce
visible
express
0006
messages
40.0
COLON
SOCIAL
Anterior
accompanied
uterus
annual
##ementia
Bar
exchange
##hers
Pert
errors
Develop
infectious
obese
fent
Exercise
UXR
Attestation
warfarin
##ocl
Aw
Free
##olecystectomy
##GS
sweats
##RNAs
##FRAN
TRA
##ulature
##ipine
fixed
statistically
possibility
tell
Tender
Cough
genital
meetings
sclera
Aerosol
trad
##ada
##68
MOT
##iment
inpatient
overlying
myalgias
##verexp
##90
numer
Affect
onc
etc
##ename
Limited
appreciated
##UMM
Impro
candidate
burn
ensure
partially
Alkaline
##ITE
Saf
gm
notification
version
incident
##aria
dd
##the
Transplant
thrombosis
phosphate
carbon
##etine
repro
ZOFRAN
specifically
tim
##down
##amous
5.4
ok
superf
injuries
HPV
cardiopulmonary
Hepatic
##rating
myocardial
RESP
Profile
##itated
vac
Hgb
painful
duoden
##OLIN
stools
extent
withdraw
##weight
SYN
anxious
##guinal
students
plasm
##oxetine
##001
sch
interf
paral
##oin
adjusted
Tim
##rex
##rans
TV
Colonoscopy
skills
Supplementary
orb
##ille
linked
fav
furosemide
reached
Bladder
Et
##rity
conscious
DIFFER
Nov
vide
padding
wet
##oul
decomp
Lip
ORAL
leave
ulcers
interes
females
##istended
##ENTIAL
pallor
##MIT
La
Sal
suggestive
independently
suspicious
2019
brief
proportion
fasc
MB
Significant
foreign
introduced
Mel
true
##ochemical
##oxy
##ATH
mobile
##phrine
invasive
coming
##REEN
comorbid
prolonged
Unable
##yel
bodies
scalp
Technique
##eries
Increased
0107
sections
Panc
driving
kne
metabolism
Feeding
restricted
ALLERGIES
2003
Acet
Position
##vity
PAC
##inence
wounds
professional
Granulocytes
Caucasian
##ULOS
encouraged
6.2
##itrite
FOLLOW
LO
Jap
toe
Shoulder
smartphone
##ORTABLE
contribute
hesitate
fish
amLODIPine
elderly
tendon
##ura
##uncture
##ibular
##ARD
ket
occasional
shot
becomes
tree
Immunologic
electron
tricuspid
confusion
POST
minute
mostly
allergy
extended
Judgment
Sup
instead
leak
jaundice
##urning
copy
##ecurity
##ISS
Stage
household
epile
endoc
Flex
144
##ulus
Gender
##ofen
Mc
dominant
scar
PN
glands
Extra
ANESTHES
##opic
Member
##ULOSKEL
4.7
Rhythm
dest
insight
Have
bid
Appointment
##oe
GR
##ethylene
MMOL
Because
Mit
strongly
Personal
DEP
Resolved
##000
##elch
##ULOSKELETAL
aspart
digital
excessive
##Will
Barriers
##ica
124
PORTABLE
Japan
Elev
CF
Dil
LAT
INT
Women
##2057
PHOS
Hematology
ECH
limb
##anyl
10.2
MUSCULOSKELETAL
##strual
shunt
peptide
bpm
##ezing
##apping
lock
Anesthes
Reports
Comprehensive
complicated
soc
passed
osteoarthritis
##inalysis
##2.
DIRECT
##maker
##YT
##AK
##ector
##azepam
1602057
describe
BED
97.5
mineral
TOTAL
##vember
##irect
BIOPS
stones
insecurity
##inity
Inv
clubs
##resh
spati
tasks
Fellow
##upp
emergent
kinase
watch
##plasia
cath
notify
TECHNI
Ven
opportunity
book
coli
calcification
Amb
Thurs
gtt
##itrate
beginning
Fail
November
##rontal
TOP
empt
pet
##ragm
TECHNIQUE
##lete
sul
concept
##ansion
mask
sooner
cohort
Osmol
SINGLE
Then
##inum
former
##HAL
categor
delayed
drap
##ewhat
Morph
PGY
PULM
Ocodone
FAMILY
John
pill
str
Immature
calib
##ometric
ULTR
##aim
strategy
acted
lapar
divided
mode
makes
overl
gast
clearance
##lam
##ICU
Mark
##ady
bat
##space
relieved
Response
cran
DIFFERENTIAL
MULT
##vix
bars
healthcare
SB
laceration
endors
##optysis
143
perfusion
accessible
ip
Side
quantitative
Prox
LLC
Finally
si
Western
fragment
macroph
##ORE
diaphoresis
0600
xx
LAS
##ours
insertion
##inger
ovarian
##ilical
friction
fluorescence
##nex
7.2
intolerance
TRANS
strand
2001
signing
formula
dietary
131
denied
RESPIR
famil
MAP
##lusive
reass
GC
2002
nondistended
instrument
123
parenchymal
Tues
separate
##ocardiogram
AG
##igo
rd
dl
stabil
tooth
Equ
commonly
lys
developmental
covered
experiencing
wants
VITAL
16.0
win
direction
JX
Many
multi
##VILLE
webs
Hematologic
vasc
##acemaker
##iter
##using
Support
preparation
Pri
potentially
revers
colum
BIOPSY
##othel
UCT
##rotein
ascites
##ATA
hemoglobin
enlargement
contra
RESPIRATORY
##ades
Highest
Iss
nitro
anything
trace
behaviors
127
##ums
##otine
##LEX
fig
Contrast
suction
##wards
vas
##imic
things
##ensities
Prep
##ATERAL
##upt
168
##ermal
materials
verified
Pertinent
##agon
Reasons
Taken
DE
sutures
unclear
amounts
Zip
121
ACC
gent
substant
Pelvis
widely
excellent
settings
selective
##ci
ATT
carefully
closure
resources
Great
##orial
rob
focused
TC
##OPERATIVE
inhibitors
males
SCREEN
Inability
##IDS
Phosphatase
##lude
coupl
##elchair
Bleeding
opacity
cleared
Squ
13.0
injections
Syn
Id
fistula
cmH
restrict
##oxid
Mac
tunn
failed
retract
##79
Sk
##INESVILLE
expect
void
##iastinum
750
Men
##ALL
Authorizing
conver
##FS
##YLEN
generation
vaccination
glut
Chew
##UP
examine
##icated
Circ
GAINESVILLE
##cribe
distention
##ster
PREV
##IPTION
Central
Trac
skull
Lumbar
##ecutive
melan
Ventric
##ira
ligament
ot
echo
tolerating
purpose
##rosurgery
sept
variety
##ratropium
consists
##anging
Services
Austral
multivitamin
##ollen
DIRECTED
##otyp
##arring
Early
approaches
depressed
polyethylene
##DM
cues
assemb
##ASCULAR
Physically
xxx
Hip
subcl
feature
IJ
scattered
endomet
signals
responsible
marker
Heparin
draw
hallucinations
350
directions
MIS
shock
##ANCE
BG
neurological
TROP
trache
blot
packs
toxic
tear
OSH
primarily
Carb
EVAL
##eal
China
Long
##uscular
coughing
consumption
##uting
coeff
##ococcus
Micro
##atically
dextrose
##ithromycin
##FORMIN
##ellaneous
Remember
##rusting
strict
migraine
inguinal
pick
##ispl
cortex
Bet
probe
SNP
##lab
sx
##72
representing
##term
##INAL
##naire
Ophthalm
pedal
antigen
Program
extending
highlight
##ifact
##icks
##HS
indication
##ringe
quick
knees
Link
Prob
LEVO
played
speak
##obia
manner
efficiency
##Care
##.001
Headache
explain
coord
rig
sequencing
##oplasty
benz
thoughts
bond
MOD
Pa
fingers
relationships
pharmacist
Brain
##ostasis
din
senna
Da
COLONOSCOPY
Pharmacy
6.3
browser
##ASS
Mean
##vin
NEURO
national
##etric
##yy
RS
Where
concl
##esity
harm
Unit
exhibited
Fund
Br
stages
princ
NET
Relationships
limitations
27.0
INF
spoke
persons
femur
RH
hemoptysis
##ufact
Socioeconomic
confidence
entrusting
MICU
largest
steroid
##icate
##metric
noticed
##raint
brown
suture
##Do
Miscellaneous
##umps
CELL
##YSIS
Thursday
PERC
ce
curve
returns
Ve
Quit
Critical
##rane
dog
Decide
##ventional
symmetrical
146
Supple
Coordination
hypog
HOME
##GT
APRN
intern
Caps
city
Subject
ExitCare
WHO
##AY
operation
##point
##sh
oropharyngeal
CMV
SLP
falling
hern
planned
##OXIC
##owder
FINAL
##yd
somewhat
comes
maxillary
embol
Gyn
LUN
Dim
symptom
targets
Specific
SIGNS
fibrosis
##HA
chamber
Gets
FLU
accumulation
login
##.81
drip
remote
Within
##UG
recip
Osmolality
##ependence
recomb
##osin
Prost
##The
nut
##ocar
##auc
superficial
formal
concerned
performing
gau
##vertebral
##KA
dict
0800
##orks
bad
nervous
KNE
predominant
##nesday
##era
ECHO
yy
NSA
Cyt
Submit
Are
Ankle
##otracheal
arthral
HLD
##roscopy
yyyy
Tuesday
microscopy
ipratropium
Hives
foram
##amycin
fine
meal
##rich
transmission
securely
QID
##oking
clearly
xxxx
##oxide
Las
##aid
Password
Reset
dependence
Obesity
exacerbation
36.3
PBS
Infectious
##ruary
xxxxx
##65
expiration
urgency
conjug
##stream
LC
Oxy
fixation
But
##olescent
##estic
##ilin
##1.
##ifier
datas
##UQ
secretions
steroids
achieve
Fear
recall
##osite
filling
Was
IVP
Unspecified
reson
catal
estimation
letter
MEDIC
##ifying
Mig
hydr
PI
existing
URINE
ABG
encephal
tolerate
moved
Four
February
##ulum
typically
typical
incorp
native
afe
##rocardi
ALBUMIN
##ague
##ypical
##ogenicity
LL
5.3
excision
36.0
##illins
DEV
ACET
##rows
composition
VI
OBJECTIVE
##burn
splint
##ACEMENT
renewals
spaces
thrombus
##east
CAB
CONTRA
##inates
##anus
Basos
Orthopaedics
cancers
haz
stimuli
Ketones
##rophic
specificity
##IAN
inserted
Urob
Called
##otide
AX
facet
segments
DIFF
forearm
Fact
AKI
branch
tightness
##ius
Nitrite
NF
Wednesday
hybrid
##hep
##ITAL
Vaccines
##OK
drops
epithelial
BE
objective
Ask
pit
afebrile
refused
poorly
Bronch
##estational
##ugular
endothel
Expires
Capillary
inside
##opram
##iferol
suspected
retention
missed
tracheal
##alciferol
clar
Son
##con
albumin
valid
utilized
Ot
MAM
Views
promote
discontinued
submitted
Pelvic
Forced
20.0
followup
VENTOLIN
prepped
sources
equipment
##aph
Iron
##vant
prednisone
BASIC
hyperlipidemia
9.0
##ilol
##orosis
##lofen
##cil
cultured
Bone
ductal
END
threat
USE
Extremity
giving
inj
KNEE
Elevated
Encou
CLINICAL
estimate
Worry
Partners
##eed
mitochondrial
##orced
##HL
Psychiatry
##YLENOL
##oscope
10.6
TYLENOL
helps
verte
440
sublux
speed
agent
incomp
##vedilol
##psy
soil
Among
equival
describes
advant
##rease
##char
Emotionally
ideation
groin
NORCO
spectrum
##LEASE
##ossible
insp
CRE
##ONASE
tradition
Talks
##illa
Sedation
younger
Laboratory
##acement
Failure
SYNTHROID
FLONASE
ADVIL
100.0
practices
9.1
##elled
##1.9
umb
##esare
##zen
VAL
website
channel
##ropl
UNITS
coup
MOTRIN
vector
comfortable
Black
##osen
Rating
Intimate
##ropriate
Conclusions
aggreg
cystic
consciousness
RL
Univ
chief
cart
represented
shape
Institute
drawn
migration
pay
##ivated
tail
##ARS
mastoid
ker
##OWN
Details
allows
mand
##errous
malignancy
25.0
Obs
article
THER
metal
airspace
initiated
diphen
##OPHAGE
growing
pressures
compare
##ensus
Less
cirrhosis
32.0
Issues
West
Poor
impairment
promoter
##uling
##odyl
assays
CABG
##ney
##esarean
##ault
City
notice
Inhalation
video
malignant
Urology
Gall
##ograms
SO
HER
Added
Patent
##omyopathy
reducing
donor
persist
##otox
Saturation
Pub
##duces
SURGICAL
septal
Spoke
Compared
exertion
##xia
Seizures
song
arthralgias
Sun
Posterior
##rav
aggressive
estimates
whose
##nl
##pr
respect
arg
##acodyl
##cephalus
##adequ
buffer
surfaces
HPF
nyst
game
##activity
Orthopedic
##max
Topical
withdrawal
##ipple
270
9.4
depth
LASIX
##asms
Performed
Unchanged
straight
cysts
extracted
Orig
BD
11.5
SBP
Local
ran
Consent
TNF
devices
neutral
choice
filter
##YC
##85
##illance
mixt
elim
##PA
fragments
##ovir
##oxia
residues
Cere
##ENAL
employed
parts
yourself
Relative
##ingu
Dates
extraction
extrac
##rence
reasons
##imus
sets
8.1
won
divers
KUB
Face
Troponin
SPECIM
ESRD
spatial
influenza
substrate
counts
seed
##04
option
pref
##itect
capsules
fear
##89
representative
plot
gender
swollen
##.89
attempts
asymmetry
##MA
pulm
MOB
cuff
Self
phenotype
gray
expressing
##BI
knock
##unch
bruits
##bb
9.2
Cases
advance
dos
protect
##iative
##rete
induce
bile
Several
objects
##osupp
37.2
Extraocular
cram
Rot
##EDIATE
million
inhibited
manufact
##gt
percentiles
##ested
complexes
phosphorylation
##ULIN
neuropathy
##adol
sheet
physiological
Hct
EXTRE
DOS
canc
York
IMMEDIATE
named
lowest
cycles
##health
##MPT
mening
inn
##ipital
successfully
ICA
##OCET
brad
Expiration
##giene
esophageal
displaced
##BM
##noon
tax
stren
##earch
Upd
dimin
slowly
##raft
transient
##leb
##isons
##ondyl
##specific
##stomy
tremors
basic
##ivered
plays
##asilar
Loss
arrest
##SCs
hor
10.4
MAIN
hypothesis
##inse
ww
limiting
##ohyd
stained
documentation
stap
Bal
reporting
conventional
##oxicillin
toxicity
2105
##66
##robial
Mode
Floor
functioning
CNS
##USION
##ulose
INHAL
##igmoid
##ucle
suicide
##fusion
RET
Prophylaxis
URI
programs
glomer
##angement
Attention
##TD
CE
attend
Lines
##certain
Prec
##atosis
Acct
Hematological
territ
BRE
Urinalysis
Move
##be
##urgor
Cer
Recon
fresh
kit
8.9
##tains
asymptomatic
Topic
Appears
caffeine
##OUN
Interested
wanted
Admitting
spot
dysphagia
PERCOCET
##juana
##OPHEN
##omon
RAY
algorithm
SUBJECTIVE
##hepatic
why
##know
Fla
##ori
##ENTIL
##ato
wear
intervals
depending
##ounced
specified
Pager
GFP
Gram
8.8
trim
undergo
Mil
START
kind
##genic
CONTRAST
PROVENTIL
country
ocular
9.3
bind
ophthalm
emotional
##PM
Rob
rays
##thral
Char
label
Penicillins
wk
Reported
crackles
suspension
ointment
operating
preferred
bisacodyl
camp
##arijuana
worked
220
##ilization
transp
ACETAMIN
Week
zone
agitation
MRSA
##ONS
Acetaminophen
GO
Ordered
probability
##ocarcinoma
##ATIONS
Lact
hypotension
TROPON
restart
##gory
ND
##oven
metastasis
www
Wall
Despite
##feeding
sheath
ever
fer
Mamm
ROOM
Falls
wash
words
##arrier
Rheum
##rary
##urch
ven
##ruits
##othiazide
Aspir
gradually
##iae
atherosclerotic
##hesized
UE
Mo
##ATIN
prominence
gang
trach
quiet
Bra
Annual
TL
intermed
ready
##ognition
##izophren
##ux
8.2
0.70
Var
minimum
Tele
addressed
LLE
quite
vill
Drugs
LFT
fourth
UV
Hel
##osy
worsen
loops
delivered
##ushed
##IEF
Again
##CHER
##bre
married
compress
mesent
disk
fx
98.8
trying
dynamic
Bic
challenge
7.7
glasses
Suite
aspects
##avian
##oves
attempted
189
sound
bac
PROTON
toile
morphology
electrolyte
regularly
subluxation
pra
##hydr
illust
##oud
##isation
numerous
##anar
families
##organic
ACETAMINOPHEN
PROTONIX
Tb
couple
Tons
35.0
glob
Diabetic
underst
##KN
##AZINE
rich
##lined
MAR
##ruction
##TIME
##kinson
##ads
Vit
Baby
2020
spi
##ATIC
##aucoma
Confirmed
guided
Preventive
nost
##lies
town
##hexidine
search
correction
overexp
##right
##rz
DB
##oL
labor
speaking
object
supervision
Facial
Stopped
##works
12.8
##roplasty
Standard
bottle
##ignment
##inephrine
share
##orated
SEM
Glob
reveal
afternoon
##RIM
IFN
degradation
variants
GLUCOPHAGE
##alian
RLE
EMERGENT
carvedilol
##ariate
micron
Integument
element
volumes
##Chart
##itable
contained
congestive
##vate
##inally
##arietal
NEUROLOG
##itte
assigned
Smear
transplantation
isolates
narc
PULMONARY
trunk
MyChart
##.90
apical
##rins
lik
Stre
offered
lifestyle
##formin
ovary
septum
##ooth
physicians
liquids
##ophobia
intracellular
grams
##IVIT
RPT
##ultaneous
##ibasilar
expansion
##part
Ste
mag
government
FLEX
##key
Vancomycin
actin
##iSONE
##ussion
##ycline
turgor
##ilinogen
domains
unus
FiO
##uccess
pair
Oriented
strip
Denied
Testing
##chial
15.0
PAP
ROAD
##omot
PLATE
149
managed
##OVASCULAR
reconstruction
Decision
nicotine
endoscopy
lymphoma
BEDTIME
##ontrast
classification
PSY
helpful
toes
laser
Doctor
loop
fell
poll
##REE
jugular
pict
##ologically
prognosis
##osynt
TUB
##oche
magnetic
cour
##agul
Lymphadenopathy
Below
##raines
##oked
expand
pills
emesis
building
Inflamm
moderately
bell
QAM
0.04
##ontinue
rise
perman
rank
modification
##PRA
incubation
SOLUTION
Urobilinogen
TREAT
ROXIC
iso
IVPB
##OGRAM
##RAIN
description
draped
##ecal
Aunt
medically
sampling
served
##bra
regulatory
definite
Event
##chlorothiazide
7.9
Du
Reflex
applications
ATP
variability
786
oxide
##ilevel
PhD
accurately
##RON
tow
evident
##ientific
Writ
Addressed
PHYSIC
##ris
##USP
##imicrobial
##ocet
thorac
pancreatitis
155
chol
##iteal
##omit
Itching
6.1
complaining
bearing
ARCHER
Cream
Peds
gir
verbalizes
7.1
##REN
Ang
Consider
USP
##RI
construct
juice
declined
answer
basename
##arbonate
supported
ADD
radiographic
Ke
cannula
147
invasion
Anesthesiology
Advance
else
##mic
BIL
replic
bio
scarring
##rey
dementia
telephone
DU
corne
chew
CARDIOVASCULAR
Sports
screw
company
commerc
Nor
148
Reaction
acknow
vegetables
claim
ARE
Limits
37.0
Images
ferrous
IVCON
ambulatory
Living
HGBA
Action
##ighb
5.7
##natal
Anesthetic
##NID
na
##eness
biops
Abnormality
equivalent
hormone
classified
##RAY
##anger
POB
##iplanar
##izophrenia
gastrointestinal
Nephrology
effectiveness
##rinology
##sim
LOP
TREATMENT
urination
pale
preserved
Motion
adip
##innitus
satur
##mentation
PLATELET
rhinorrhea
##iers
normalized
egg
Fract
understood
amplitude
turned
##nat
wnl
##ctors
##astom
Represent
##herence
FRONT
ROXICODONE
##ovirus
##oric
Frontal
compound
specialist
Ib
Hypothyroidism
decided
DESCR
Platelets
##urt
oxidative
ANESTHESIA
bud
1100
Development
Basket
LABS
yeast
7.6
LEVOTHROID
##pping
tempor
himself
##iction
ONLY
Germany
##ani
congenital
genomic
##sk
chromosome
rectum
endothelial
80.0
Yellow
perfused
Cro
##87
intestinal
intubation
Mucous
loose
roles
##aqu
humans
Constipation
Insp
##amically
profiles
FRONTAL
ATTENDING
##cale
adolescent
##illing
rhinitis
DATA
agrees
Verbal
polymorph
volunt
FROM
NAS
Consults
rotation
targeted
##olving
##ervative
7.8
Vision
pron
780
predniSONE
OUT
compr
Grade
Lot
Iv
Ortho
##ANG
PCA
##hind
Dental
remember
Pal
##yond
pacemaker
Altered
vertical
built
##anks
Hysterectomy
volt
Therap
##SP
Kit
refills
sufficient
por
cister
architect
LI
##inol
##lated
anticoagulation
##att
indust
##physema
Cyst
map
pan
VIS
##iri
integrity
Trace
career
Vaginal
mucosal
organs
accepted
dinner
NM
Lymphatic
European
Sep
Upon
column
Lumen
positions
##cher
Standing
LUC
##OMAX
##ograft
localized
pret
##gy
colitis
##iprof
pupils
Research
Aspirin
suprac
Actual
ect
Trig
NSAID
dynamics
complains
friends
Size
Grad
PPI
##ATIO
quickly
##oprim
chemo
Sensory
UPPER
CONTIN
Susceptible
organisms
##roly
hardware
grandmother
Open
Discussion
waiting
rapidly
injured
6.8
272
ONCE
noise
nas
NSR
##ara
STH
lying
##ethoprim
hypo
##69
International
##orphone
##ATRIC
##osyn
Pharynx
changing
DN
5.6
Cath
supply
pin
Advised
PROAIR
Oxygen
##ometer
associations
clusters
ZAN
78.0
playing
AXIS
artifact
Systolic
0.20
nostril
sustained
##iprofloxacin
Er
ventilation
##aresis
something
BACT
meeting
diversity
##group
##atios
POBOX
##orexia
Term
##oxazole
Fore
music
neurop
Mur
investigation
##lands
decisions
tremor
album
##hydrAMINE
observations
Possible
grown
##OMS
macrophages
##62
##hn
resched
ways
pole
wa
Warm
##lod
uterine
Mitral
assisted
FD
phyl
tag
##acial
nonspecific
sensor
para
smear
##MAD
sigmoid
Clarity
##iny
##aN
##ework
##etus
##cks
EYES
##ishes
PCO
##otrop
##utter
##ymp
olig
##ceptibility
##ipsia
simultaneous
SLE
##where
basilar
Sn
moves
Bacter
Aorta
##OBULIN
Know
Dizziness
Ventricle
##umor
##ivan
tibia
Pren
opioid
Packs
wrap
##acchar
infants
##albumin
GS
folic
WE
subun
##azolam
UK
necrosis
Pneumococcal
cefepime
platelets
helped
Adequate
##rolimus
pairs
##omyel
symptomatic
Lev
particles
brid
recognition
37.5
SPECIMEN
recheck
restriction
Hold
offering
ablation
##06
10.1
disability
hit
Po
stimulated
##irt
EB
##essation
##empl
Tenderness
shap
HI
##remia
SYMPT
PSYCH
Dispo
Dx
CALL
nipple
##issions
Christ
vaccines
tylenol
dex
therapist
INJECT
wt
comprehensive
genotype
Orientation
1999
##LAINT
Informed
regards
Art
##ROSCOPY
filt
electrolytes
##roblast
Ident
losartan
therapies
##omediastinal
Sen
holding
graph
connect
##void
##avage
##amethasone
behind
Parents
##cn
plat
bloody
chron
NL
hypod
##RES
anesthetic
whom
PEG
rheum
##ontal
engine
6.7
diphenhydrAMINE
##onide
##OVA
##italopram
extremely
##ittee
Prenatal
##ilities
dilation
offers
Life
anc
reverse
PriL
PriLOSEC
##itin
additions
friend
initiation
dual
##leg
##odialysis
Ce
##ogenetic
burning
SYMPTOMS
completion
prompt
dx
##MADol
##amethoxazole
##udden
##In
smoker
##ISION
0.09
##OLOGY
sess
##ford
princip
thumb
Key
complexity
subclavian
##inous
##rocytes
##osterone
UNKN
Organ
HCV
##anth
##MO
Excess
emph
localization
UNKNOWN
Deep
##aparin
2100
Percent
Lasix
irrig
COMPLAINT
##icteric
Tachy
decline
VS
supplements
secretion
networks
TPN
##parent
Perform
cert
OH
##CER
Cos
Cou
spasms
neighb
##agit
9.7
##ovenox
normocephalic
surveillance
SOD
counseled
YES
barrier
##ham
hygiene
manage
ETOH
CENT
lens
tx
RUQ
##ephal
diffusion
OV
Another
##oliosis
echogenicity
permanent
##alse
histor
grain
preoperative
##2012
Community
##labored
##rieved
contacts
##omonas
##iling
fif
Neurosurgery
##REL
collapse
MULTIVIT
comment
leth
ADM
polyps
habits
mutants
nebulization
hypothyroidism
LUCPCT
##4.0
NK
Immunizations
COMPLETED
carri
cx
dehydration
legal
polit
Hol
kept
cardiomyopathy
weighted
smooth
##RESSOR
soap
gram
bias
DESCRIPTION
5.8
vasculature
##cribing
##inese
##hazine
simvastatin
1.676
century
subjective
0.50
CHIEF
##VE
INTERPRE
175
recipient
classes
##iro
debrid
statin
##angi
osteophy
metFORMIN
heterogeneous
relation
6.6
##isition
##MENTS
shower
REFER
consisted
##otes
##enzap
##uccessful
RATIO
##FEN
##lobenzap
auditory
occasionally
##OU
##lobenzaprine
beyond
##stituted
proxy
Diffuse
##adequate
affecting
calcified
Insurance
PHYSICIAN
undergoing
district
FM
photophobia
##uated
itself
Length
##eremia
acting
Pay
PAR
mixture
butt
Goals
##raints
abx
Lear
tools
ejection
wheelchair
MULTIVITAMIN
Society
temper
NH
traditional
WELL
9.8
Cord
mediastinum
responsive
efficient
##67
plane
compliant
questionnaire
CANC
Flag
nine
variant
PLACEMENT
##agittal
antagon
6.9
##ROX
regist
Old
walker
inner
targeting
##occ
raised
CORE
LOPRESSOR
keeping
##igastric
occipital
Cataract
Analysis
Lives
##rown
##ofran
##ilic
##RENT
Cef
ASSIST
clav
Seen
cool
Wors
encourage
EYE
Prostate
doesn
##09
depend
differ
WOMEN
Slight
north
##chart
##ificial
##illectomy
11.9
descending
URIN
yr
##inder
interc
36.2
RX
ves
LOW
##lavicular
##simile
unusual
Chinese
Wellness
fruits
fasting
transfected
habit
anastom
Precautions
1400
Inorganic
matched
1.626
0400
Echo
##RBC
Functional
subc
rs
##Ps
behaviour
PROCEDURES
##urses
##lycerides
Addend
participation
mesenteric
FEV
##yal
endorses
Effective
offer
nodular
Facsimile
card
Memory
uncertain
biomark
parameter
##ban
##ritish
protective
GLOBULIN
largely
##itudinal
82.0
iv
PSH
Gastroenter
1990
##AZOLE
neurologic
edge
##hetamine
LS
infiltrate
duodenum
1–
Congenital
##ERIL
norm
collagen
aimed
##ulsion
pip
calf
##arse
surgeries
PU
##tingly
##ournal
admit
paranasal
##olate
outer
goes
polyd
##atoid
##arone
British
vagina
##ubic
requirements
radiographs
dop
Intra
track
maintaining
scheduling
headedness
##ectable
Diarrhea
##ios
conclusion
purch
bact
Atrium
orthopnea
##oxaparin
advise
SIN
HEART
TTP
Drainage
LM
cruc
plaque
##ippoc
##rocardiogram
nebul
##but
Couns
upreg
Major
##ancies
saturation
##iaph
solub
MVC
properly
oxycodone
Append
##ALYSIS
Tab
##orectal
Pack
costs
##olysis
stating
hydrocephalus
facilitate
manip
wait
updates
radical
sq
ABO
##ampions
##oic
Lisinopril
diagnoses
##illus
##atible
Tone
##WB
GBS
##forms
##omyelitis
prediction
Geor
popl
Ure
enhancing
##atories
purified
eryth
PNA
ADLs
job
dox
groom
EDT
##ippocamp
700
##oub
Diastolic
Edema
ascending
hypoxia
Ordering
childhood
calm
vul
autom
##orce
say
##ties
##ora
er
Rehabilitation
##OUND
lasix
filtration
neuronal
sedated
Representative
ANOVA
DELTA
inhibitory
ULTRAM
burden
##atadine
##ovax
101.0
CUR
que
sclerosis
1998
##nel
cigarettes
13.5
America
##ians
squamous
Ara
flap
foley
##ycardia
SURE
##artrate
fungal
0.51
##IAC
perforation
carbohyd
traMADol
CVS
spectral
Endocrinology
dic
##oving
randomized
decreasing
##ples
Razepam
voiced
technology
##aNYL
worsened
##isis
##urgical
esc
98.3
##generation
##ensions
cellulitis
##romised
Epic
endotracheal
##unc
Changes
spontaneously
bands
discrim
Brief
Lo
melena
Always
manifest
##ken
ratios
latter
umbilical
Did
##gement
##ny
gentle
menstrual
phenomen
purposes
print
seek
Associate
ast
demonstrating
dosing
Infection
Vel
##AF
foss
CAT
0.12
financial
luc
##oney
separated
Suic
AAO
Ple
LUE
##CY
401.9
Able
nap
apex
tunnel
untreated
Aud
blind
##IDENT
Toler
curves
Schedule
##pro
Medicare
hospitalized
ETT
##imester
##esthet
fentaNYL
Difficult
big
Pseud
cocaine
explore
VEN
JP
MAGN
surgeon
nearly
Evalu
Green
##ivities
Serum
glomerular
1.702
ASPI
##nutrition
sense
##rozen
NORMAL
oropharynx
Xray
variance
##CD
BAL
researc
insomnia
Conn
##cripts
##uclear
Questions
sprays
Tet
Prom
##aise
deferred
hydration
##63
San
ASPIRIN
cod
DOP
##iologic
azithromycin
Surgeon
acknowled
granul
Exc
coding
##ozyg
leaves
rupt
MAKE
urinating
##ilage
Pregn
lighthead
microc
DOSE
viruses
##oxin
diminished
##ells
Human
##rank
markedly
extracellular
tour
Angi
##edite
locations
assum
##glycemia
lymphatic
Diss
##iodarone
##aptic
paralle
premature
manufacture
##amma
positioned
##actone
Electroly
complement
##flow
machine
washed
Fluids
ulnar
bipolar
Bay
38.0
Park
herself
loading
fre
steady
##lodipine
##ii
remainder
email
Pract
##88
Interestingly
distributions
figure
10.5
##ITIN
Labor
##ocomp
##raline
pi
INTERPRETATION
1300
RUE
PCI
159
mis
##zia
Dermatology
accel
Meas
Distal
limitation
firm
East
FO
chance
actually
Appro
URINALYSIS
plastic
DELTASONE
ambulation
molecule
##mon
152
Occurrence
supraclavicular
##iating
south
hol
nanop
severely
dimensional
##ZIDE
##stetric
prospective
##standing
ranging
aug
tired
##hern
acetyl
OTC
parietal
Facility
subsc
germ
epidural
comparable
Coumadin
219
Wrist
97.3
##roxen
retractions
CKMB
acetate
Fluor
##indamycin
##illar
##liminary
popliteal
comfortably
affects
LPS
##antus
0.46
Perc
ventral
fruit
rounds
Fent
##ohist
1.25
SUP
sperm
perc
eventually
##osomal
arrived
electronic
anticip
toilet
conserved
branc
Cp
voltage
King
jaw
lamin
monthly
##oblast
mucus
intermediate
sports
subd
hop
packet
fores
Fracture
##ologous
OA
category
##rinsic
##ofol
BLE
spectra
peptides
breasts
cardiology
creat
ACE
9.9
ACID
##iph
##rometry
Pneumovax
barriers
153
Radial
retin
adenocarcinoma
sats
attacks
##icul
resume
##icillin
theory
ho
##STF
##ega
##OUL
##TAC
Sick
ideas
nucleus
fluct
##icone
cytoplasm
##ressor
motif
wat
wks
##zema
instability
Integumentary
##effective
TIME
hippocamp
Light
Ec
COREG
lor
##gar
ii
palate
retrospective
exhibit
##imer
attenuation
depends
##ergic
0.95
collections
Dom
##OCYT
BEN
lifting
tabs
predominantly
##onatal
spit
Poly
capillary
percentile
neoplasm
##oplastic
##IPS
Particip
charge
abundance
Masses
##opy
Interpretation
UOP
hydrogen
sores
hope
comparing
##ALTH
Earli
empty
epilepsy
##oprotein
cytokines
newly
irrad
ambulate
##otidine
Cu
arthroplasty
Conjunctiva
develops
##enty
contacted
consecutive
##audid
##rotic
clots
convers
Rare
potent
Axillary
tracheostomy
pyl
cervix
bibasilar
sugars
##ardian
Proximal
Parkinson
organic
interactive
depressive
treating
Monitoring
Mus
CHD
fire
##CTR
mychart
Circum
##ogens
##onat
calculate
Nerve
##osomes
recs
cust
perine
compens
anatomic
MAGNES
##achment
##OTH
POD
##imp
##.29
entered
commercial
##ej
stimulus
football
##itic
Association
##acrolimus
SN
Ophthalmology
RELEASE
##Os
Fetal
MONITOR
ligation
opened
##liance
Lt
bit
accessory
mont
##lan
occup
tuberc
pure
##gthen
Mellitus
##–1
EXTREMIT
165
cessation
isolation
##orous
occurring
USPSTF
1.651
Originally
supportive
inoc
Thoracic
interpreted
FLEXERIL
##inks
subset
sessions
10.8
Weak
##olytic
154
aid
lumen
enoxaparin
Expedite
##opia
window
deriv
Phen
chromat
methylation
Gastroenterology
Si
nl
occurrence
immob
eros
cardiomediastinal
162
288
adequ
##Is
Peric
indications
mos
chick
arise
Secondary
Month
Statist
config
HYDROC
texture
##oqu
OXY
Antibiotics
EXTREMITIES
Morphine
FT
##orthern
RESIDENT
fifth
SERUM
PK
##artments
constit
##uminal
##ioc
allele
polydipsia
involves
reinf
##olol
positioning
Learning
Drains
##attern
##upus
##orough
##ki
1997
GYN
spondyl
Dimension
greatest
transcriptional
Mildly
conflic
151
hous
##mp
shared
##she
##elihood
bulk
student
gestation
SVC
distingu
##uresis
passive
11.2
Application
replication
favor
Ery
cataract
Syndrome
QTC
anorexia
subm
##aut
##olecalciferol
promet
##epsis
##outher
categories
Willi
maximal
rabb
ANT
##oret
Fill
locked
AUT
characteristic
missing
Section
Walk
id
##atter
Obtain
##sequently
##ruption
income
##OMM
connected
dosage
##ROP
Safety
cans
##rote
coefficient
LUNGS
psychological
caliber
hypoglycemia
match
Gel
##hylactic
156
##uit
16.1
analysed
scen
Press
Omorphone
hydrocort
LN
randomly
reliable
##gmental
ASSISTANT
Wash
HCO
sizes
1980
Consultation
computed
Very
Risks
corrected
SURGE
robust
reconstructions
##rectomy
##AVE
EFF
orientation
compartment
GAB
##resthes
attributed
chlorhexidine
topical
unlabored
analog
channels
obsc
1.70
SHOUL
nystatin
BB
ps
western
Ventricular
availability
Supine
sing
carp
notable
Global
blunt
layers
STR
efforts
AH
interested
INFL
Rinse
Varic
susceptibility
Bact
##ordance
VT
##gent
ABN
CAPS
##aphylaxis
##outhern
##Avoid
##ERT
acquisition
suitable
NEGATIVE
schem
Oxycodone
Radiation
##avirus
amput
polyuria
considering
##alities
97.8
37.3
Hospitalist
jo
##agic
tinnitus
Measurements
longitudinal
##arges
##lamyd
##arcoma
melanoma
480
##Pattern
##fortun
chosen
VII
generate
Mammogram
economic
cyclobenzaprine
absorption
CUMM
##REX
NamePattern
hysterectomy
promethazine
mineralization
plates
supplementation
Eas
##FF
##ycle
160205710
PROG
affinity
hydrochlorothiazide
##ifocal
##avix
Bld
producing
Methods
Cross
hp
contour
##nic
CULT
##ochezia
RECOMM
DOC
##inus
##86
radius
clinics
projections
Appropriate
Gynec
LVEF
hydrocortisone
mer
succ
Planning
Exper
Ibuprofen
cartilage
Liqu
##abies
yearly
distributed
MSK
RECOMMEND
Content
##omicidal
continuing
##eterm
##iates
##LAST
MAGNESIUM
YOUR
annot
##77
square
RIS
kcal
Seizure
TRIG
##ALS
balloon
scans
Anes
summarize
##ITIS
bright
##iatic
Gr
transfers
inability
consequences
SURGEON
constructed
Renew
Collected
##adone
BREAST
Mi
Meth
suppression
dense
microg
Palpation
##uin
immunosupp
rehabilitation
THOU
comparisons
artificial
hemodynamically
##orage
optical
Mechan
Unst
German
manus
River
##.11
##UTEROL
##APH
##ito
alterations
##ZOD
##ISH
Az
conjunctivae
dress
pus
73.0
Absent
##mt
##ogeneity
##ausal
Ha
beneficial
##ejun
##GG
##argine
radio
decreases
LATERAL
antioxid
likelihood
##MT
10.3
illicit
obli
retained
bilat
##ographics
meaning
gold
##iece
learn
##imeter
peritoneal
ligand
Rout
Initials
Tricuspid
##ZAAR
##erus
Closed
board
##rick
Fatigue
CONTINUE
Bipolar
##berg
##ophy
hilar
really
restrictions
##otoxic
MW
herniation
leaving
vocal
MCA
plantar
extubated
flag
heartburn
title
clips
##ocytopenia
Mer
##vas
##imming
international
##itoneum
##ductive
rice
##08
adnex
##uconazole
##abilities
0.45
polar
##anted
Likely
sob
CLAR
mol
Awake
angina
158
##urally
aver
1996
BAC
ALBUTEROL
Exposure
cholecystectomy
CULTURE
nebulizer
Artery
##ventricular
0900
##ERS
harv
nanopart
recording
explan
##obl
odor
processed
serve
##ville
##embrane
Ber
actual
TGF
1800
Discharged
##ded
productive
trained
##07
##immune
nitrogen
##ardic
composed
parallel
cycl
..
horiz
##obalamin
HEALTH
##ofacial
rac
##64
originally
frequencies
implementation
##ago
##lings
FUN
##erves
placebo
Cd
##mark
##opausal
1.72
ma
CLE
prenatal
encoding
teaching
empir
##iplinary
##surgical
##9.4
##IRA
effectively
Crohn
##ILD
##men
abras
Interpreting
Gallbladder
##osynthesis
understands
revision
Interactive
weights
##okin
Unremarkable
obtaining
Placement
Bio
PIV
Even
bif
thickened
fo
ranges
Severity
alarm
breastfeeding
##URIL
##oms
consistently
##etalol
adherence
##ZODone
Anti
##Keep
##VI
puls
Finger
##ISSION
ethanol
##ione
##radiol
##ampionship
workers
nothing
Lond
portable
##heres
##OSP
##ptic
##rif
157
blocker
##osyl
discol
##ENTION
meta
1.030
users
Filt
overload
atypical
REMOV
##veolar
##ainting
Prol
##gers
##OCOR
##osine
ones
sized
orbital
solutions
outlined
endogenous
games
biopsies
arrhythm
MEQ
predictive
##eluk
substantial
Events
League
LIPID
coping
Written
Factors
##ivent
polymer
NICU
intest
##ulent
##AMP
false
##elukast
Ped
Down
##SI
Regarding
##ming
septic
contribution
collar
experiences
sert
India
zero
private
0.67
recognized
##che
##itz
##otics
Round
RCA
branches
inclusion
frame
Knowledge
Uncle
warr
36.1
catheterization
Recently
##ODI
CARDIAC
sib
resonance
##osocial
Asc
DISP
Transparent
retinal
##fortunately
tact
##scripts
guide
exclusive
actions
Best
DME
dram
##anish
FB
debridement
feedback
gestational
ADMISSION
demand
Mrs
Glom
Insomnia
blurred
adjustment
Meals
##ODY
consideration
pravastatin
0.0001
Late
OU
modifications
##lock
PCV
Nothing
sertraline
emphysema
NEUROLOGIC
##ilateral
INS
MU
##61
Bul
secured
asleep
##igible
ODT
checks
BNP
##lyc
##82
Codeine
looks
CURRENT
Teaching
impression
##oline
blocks
Started
##idog
UDN
awareness
cDNA
af
##ETH
exams
##ureus
ADV
flight
infiltration
##ieves
labored
ruled
amoxicillin
valu
relaxation
perceived
Russ
##ocytic
TROPONIN
ureteral
##UEN
syringe
Increase
deformities
LDH
1995
hydroxy
##umab
##ILITY
pathological
skeletal
polys
hypertensive
##ocobalamin
glargine
DX
famotidine
separation
identical
flav
sagittal
VISIT
##trans
amyl
##ODIURIL
HYDRODIURIL
ages
##73
hips
##tte
carcin
heel
##idem
##uate
ZOL
INFLUEN
reads
0.75
##asic
ANY
##aur
comput
##isplaced
##ENCY
Fer
Sepsis
mount
echocardiogram
##EMI
16.5
ventricles
adaptive
bt
sides
frozen
regulate
INFLUENZA
gives
manual
lobes
Evaluate
FAC
characterize
Esophageal
powder
Hernia
dataset
##roscopic
Mill
##GI
##OCYTES
Don
indirect
LIM
proport
validated
Ent
Wal
AMS
##acillin
##pm
##rolithiasis
##lamydia
Pulmonic
Ach
recombinant
appendix
lose
ophthalmic
HLA
##rically
foci
deletion
##oken
systematic
##efore
London
trigger
PED
PLT
##TOR
standards
FDA
##ENSION
##ULAIR
SINGULAIR
simulation
integrated
musculoskeletal
gap
ABNORMAL
Breathing
subjected
##airy
##ppra
promising
traZODone
Zn
communities
wearing
manuscript
happy
##ario
Inflammation
Africa
lasting
##.09
triam
Sit
##RY
sexually
Thromb
Previously
reaching
vacu
Eat
##isper
anatomy
##EPH
PERFORM
LAP
##dermal
fert
##eces
##adian
SNPs
Trem
adhesion
##ritic
Indian
race
1.727
purs
ORDERED
##rup
House
iod
metformin
trop
5000
Osseous
resc
viability
ram
##ISA
trimethoprim
cloth
influenced
Cholecystectomy
MMP
##pg
##rush
10.7
official
##oons
##arditis
Records
nucleotide
Degenerative
Fentanyl
Chemistry
##ethicone
SCREENING
##inator
##atheter
Timing
serial
##cinolone
osteomyelitis
Mat
##opathic
Give
aureus
lactate
Transfer
Genital
ZOCOR
laparoscopic
##ERV
RESULT
beer
##fish
fr
Ov
##acenta
Abuse
contractions
##irizine
Lactic
##osc
village
splenic
##74
Flexion
sinusitis
RPR
##eliac
articular
oblique
Border
##var
diag
Earliest
tracings
finished
conversion
Cuff
analges
Hall
Sulfa
##wide
incomplete
assembly
Without
Trachea
##PLER
multip
embolism
elic
##ERATION
##adryl
##RING
RF
##ysmal
Allscripts
Payor
feas
pitting
Tiss
Extensive
##Under
Vari
##iaphragm
Still
##izzy
hematocrit
Prevention
##5.9
##oned
Common
consisting
dysplasia
##71
Ak
driven
oun
##ama
550
98.5
pil
copied
paresthes
1985
expert
implemented
ank
724
lift
dyst
dupl
follic
mature
contents
leukemia
Scler
CHLOR
Lib
##aden
cass
teams
Talk
educational
miRNAs
fossa
INSUL
stored
minimally
weaned
negatives
UC
Sore
FH
NOS
recruit
##uli
rarely
Australia
##.10
contributing
DEN
##ritin
crystall
elected
DOPPLER
repet
gangl
Medicaid
respirations
##ouncil
NSAIDs
dogs
Background
Mont
##acia
##chron
prefer
nRBC
##.02
1.575
looking
epigastric
coumadin
semi
extends
circulation
Cosigned
##PAM
multilevel
displacement
rx
SUSP
margins
ton
##Understand
montelukast
Kl
mind
vertigo
##rupted
##amps
Tonsillectomy
##3.
##vey
hemisp
MOR
##.52
##ofil
tumour
displays
stairs
##lant
diverse
Updated
##RAZ
simp
pathologic
##levision
crucial
thermal
neurology
INSULIN
##SCR
traits
heights
correlations
##.82
Lidocaine
shaped
varied
##amil
VP
park
subgroup
REVIEWED
temperatures
gut
Tc
teasp
Healthy
taper
##antly
agon
switch
immunizations
teac
##onge
framework
WHITE
Globuin
##GR
Altern
gamma
##yalgia
conservative
genitalia
##DNIS
plasmid
VSS
##audication
lymphocytes
reschedule
##oxysmal
Similarly
fibroblast
sectional
##ien
##idogrel
lump
clock
##opidogrel
facilities
##opur
Tape
quantified
##riched
##MC
opacification
##RACT
infiltrates
persp
##PCR
REPAIR
TI
CHOLEST
Wheezing
Blue
##asses
partners
urban
Sigma
##roch
##ALAZINE
SINUS
sacral
Concent
substances
protr
feelings
PRAV
bulb
##oxyl
aerated
Prev
Stay
1.753
##isher
Lac
abst
##iap
equally
discrete
CODE
PHEN
##OCIN
Addendum
##lycemic
cardiomegaly
OXYCODONE
transcripts
definitive
14.3
Before
storage
popular
##sheet
Weekly
microscope
Target
remission
determination
Ten
VOL
PEEP
compatible
odds
Alex
225
Phot
hematochezia
##iatal
##gestion
DBILI
SEC
asking
##YST
TIA
ty
FOOT
petech
##opsy
##acral
Portable
Real
angiography
arous
extremes
GE
##obstructive
Canada
Mobility
##opa
Import
##He
##RAZOLE
deficient
##ano
LFTs
discussing
Amp
controlling
97.2
Cesarean
##oidal
##ilator
Hydroc
acad
variations
recovered
digest
sequential
skilled
sne
alumin
Divorced
RENAL
##rained
Dialysis
Fri
##.01
becoming
km
SCDs
diverticulitis
construction
ads
719.4
##pecific
trimester
##ramadol
COMPL
##urry
Correl
apparently
mapping
PTH
TOPROL
##initis
PTSD
nM
Environment
Movement
##partum
Hal
Sickle
##itness
ASD
advantage
##COM
metastases
split
QRSD
##roparesis
inches
BA
##RED
spots
encephalopathy
Mich
noct
DICT
COZAAR
MAX
bradycardia
acknowledged
PERFORMED
tel
densities
Baseline
Supervision
cerebellar
##rod
recommendation
##rative
amputation
enrolled
positively
subs
##STER
##ka
stents
adolescents
Osteop
320
##CIN
Borderline
##ocket
anastomosis
Soln
cam
manufacturer
LATL
##yps
extracts
##irty
Such
insert
Antibody
confused
offic
Its
Newborn
CHOLESTEROL
intram
Needle
WILL
Pneumonia
strengthen
primers
contusion
precip
##uplex
sap
boy
DEC
##leted
passing
MAC
vit
Few
anicteric
simethicone
993
rod
varying
amiodarone
Gas
electrical
supporting
discoloration
Gal
Maintain
##98
##atonin
Committee
##onds
AGE
##erated
package
choking
Obstetric
That
##welling
##epine
pup
humerus
CHOLEC
intraperitoneal
##ulosin
##ipped
Electrocardiogram
##cele
##95
malaise
##IDER
proton
Diver
##reatment
Watch
Cand
recover
enriched
conven
tan
penet
##ILE
adherent
CTAB
##amsulosin
Six
forming
differentiated
Bru
##ARM
market
overexpression
##rink
intensive
##field
Tumor
gun
cleaning
195
opin
##kins
btps
##osome
bicarbonate
lam
canscale
##ronchial
nurses
188
##atars
Gluc
bruit
##imately
tetanus
Phos
DIL
overweight
possess
Gene
Sing
7.00
##OFT
##coming
accessed
##ocin
##IOUS
##rifug
##OINT
Transdermal
##ado
##iva
##EXA
thi
##ander
Adj
coronal
District
retroperitoneal
Thanks
SQ
pathogenesis
##RIST
3.20
HAVE
MMR
RM
1900
wake
##bol
COMPLETE
forces
##uitary
explored
##acillus
tap
antig
fairly
##OGRAPH
hydroxide
Mall
desired
Wet
ZANTAC
4.20
Generic
grey
crystal
##segmental
1988
Anticip
lips
situations
tension
Hist
Cx
##ographer
schizophrenia
story
NST
dispers
Encourage
Incision
##ifiers
dizzy
##–2
tachypnea
##.31
Progression
swimming
stain
tartrate
ment
extend
ACS
technical
##iforn
GAST
Drink
miRNA
##ochrom
MDQ
trap
bathroom
##pes
DCTR
##entive
England
272.4
transformation
rating
BASOPHILS
gon
0.083
Bu
script
Period
Cerebral
precurs
entirely
absorb
virt
##vular
CX
thereby
167
foraminal
MICRO
##olactone
quitting
AMP
contraind
serving
Reflexes
Liquid
##romyalgia
MDRD
Legal
##elves
siRNA
validation
rough
smoked
EOSIN
transportation
##VC
Generalized
synthesized
leaflets
Notable
Peri
meat
97.6
fluctu
##cet
metabolites
designated
unf
NIT
SG
Immunology
spin
deliver
##ERM
##atics
residue
##axial
Pathologist
fibers
LANT
Ambul
hemodynamic
loratadine
fluorescent
1994
Tib
oxidation
France
finish
LANTUS
4.50
HX
Pet
prognostic
##undred
md
utilizing
Violence
##ADIN
MH
Ni
HYSTER
adop
scanning
MAL
brace
OOB
Gastric
scored
NMR
anesthet
Ald
unst
breakdown
wine
regen
ranged
SF
farm
EOSINOPHILS
##itudes
picture
Tachycardia
separately
staples
PND
POSTOPERATIVE
reduces
##etirizine
Predn
perme
teen
DF
attended
SYSTEM
muscular
##asticity
coupled
##NING
Lipase
Occas
##phen
Stain
Dermat
draining
HOSP
Femoral
dexamethasone
adding
contributed
attract
Divertic
SUMM
161
consistency
observe
PRIL
faxed
##iotomy
Symmetric
##iled
##osity
turning
magnitude
0500
Unstained
summer
##ducer
Anaphylaxis
Tor
Step
challenges
##raph
##sthoracic
Osteoporosis
inspection
169
Role
##ICES
ELISA
##OUT
##fied
borderline
nail
microbial
rt
platform
erect
Stap
##optimal
Cam
trends
irritation
QD
Nons
Moder
Water
templ
0.15
pathogens
modern
##OCA
SODIUM
examinations
##erals
##ifies
percutaneous
PREOPERATIVE
0.80
Independence
##dehyd
BO
Inspection
##iventricular
##apine
##gal
18.0
##coh
Rap
##ffee
capable
candid
##athyroid
recru
calls
0.40
About
ALPRA
stretch
Rt
smokeless
NAA
Spray
Vic
Prem
itch
12.2
##yline
##reens
PROM
depos
TLR
clopidogrel
brachial
HAND
##LYCER
autophag
rural
Gold
wrote
OK
diffus
##flex
##nc
absolute
TG
ZOLOFT
reportedly
##ilib
##vie
##teen
Pancreas
##ortic
1.17
beam
theoret
zol
##angements
Echocardiogram
embryos
##cardic
researchers
##ABLE
similarity
fractions
labetalol
##omics
##EPT
##ester
38.9
Recommended
waves
##cast
##han
Weakness
##WS
Fast
President
##ela
ecchym
Student
okay
Osteoarthritis
Californ
##ophys
EVALU
division
Tissue
Persistent
LRP
##iciently
##romuscular
PRILOSEC
activate
cytokine
Route
ub
tonsillar
SDS
##theless
##ironolactone
interface
patchy
1.778
##itidine
extreme
Ham
Bottle
bund
Acad
scales
flexible
Leukocytes
foul
Expected
CARB
inact
translation
endometrial
ana
Satur
estradiol
##keleton
dictation
PHOSPH
tears
##igarette
Found
tomography
Spontaneous
nanoparticles
Expression
ROB
##olel
##actam
hydroph
synthetic
##plained
cytos
Times
##coholic
safely
DESY
une
gauze
engaged
clim
##isciplinary
DESYREL
Continued
intestine
Rub
CLARITIN
##otypic
psychotic
##inyl
##ommod
stranding
Brad
ANA
##isters
driver
##itle
qualified
MONITORING
Safe
##LECT
10.9
##aspase
##orate
Effect
retraction
Grossly
resolve
Ma
horizontal
##NS
clo
26.0
downstream
Pregnancy
Scan
adju
erythematous
##zepam
HSV
Codes
probable
continuously
Roman
##orescence
intrahepatic
##face
aggrav
##ulence
sulfamethoxazole
PACU
degeneration
SHOULDER
Grav
##OGL
0.90
Neur
##iable
aluminum
Pig
supplemented
Five
FRE
petechiae
##osus
##itives
triamcinolone
QSE
Dissolve
amlodipine
thems
1602057001
##aste
appreciate
##omotor
QSEASON
emphas
copies
soluble
RADIOLOGIST
##rexate
Bur
##rio
Mixed
metall
blocked
Migraine
pains
##andibular
Wid
towel
runs
breat
manager
000000
zinc
interesting
HIP
hemorrhoids
cytometry
putative
##olelithiasis
##ospor
Sputum
themselves
Gynecology
##oust
HOSPITAL
optic
Uter
hundred
lipids
COUM
##oo
CHANG
##ocyst
lytic
##la
autoimmune
##enn
##noid
California
req
minimize
##osteal
jpg
COUMADIN
marginal
##contrast
##otrexate
Their
NAP
fascia
haem
Marked
11.7
Chewable
185
nuclei
##accharide
##lofenac
gal
refract
fight
163
MRA
tuberculosis
regarded
tracing
Arch
differently
analyze
array
ft
exception
nit
Transf
genus
parenchyma
14.4
##ENSIVE
Resist
##vince
##cill
Tongue
endocrine
user
arrow
edges
##rite
Jun
1978
essentially
simulations
Miss
##ormoactive
infra
item
hemid
considerable
DUR
Dex
##illofacial
hospitals
configuration
Sant
Recurrent
malaria
Eating
##ITHR
FEM
bov
independence
road
Insight
schools
propofol
profession
BT
Dig
writing
##zac
Morbid
HbA
##mar
believed
adhesive
shorter
##oside
Detectable
pedis
250.00
37.4
##bc
qd
Albuterol
plots
articles
participant
faster
upright
Axial
##otting
centrifug
2–
##haps
pseudo
Lou
Sa
Quad
characterization
amplification
lightheadedness
Participants
tamsulosin
Fort
##isol
SOLN
supernat
accommod
gauge
##ieving
Balance
antioxidant
1993
faint
##loy
disturbances
Marijuana
incisions
collab
ROC
##ofib
approx
Ster
##after
diaphragm
VEG
hypoxic
##olemia
RECOMMENDATIONS
heterogeneity
Appendectomy
identifying
bacteremia
Approxim
Mart
traff
278
choices
Sund
tacrolimus
##ona
ions
Lantus
acidosis
##owed
letharg
##LYCERIN
LACT
Conclusion
##urc
##oted
Specialties
##SO
fluconazole
compan
tympanic
deaths
cholecyst
rigidity
sold
DBS
unp
stat
bandage
1992
sternal
SUMMARY
forehead
Gast
upset
moment
ORIF
##enses
expanded
Mor
##ilized
Vers
##uts
circumference
careful
induces
Tremor
##St
antimicrobial
Velocity
discovered
##odynamic
sciatic
improves
simultaneously
##oded
##ometimes
##OMA
##versely
lic
crying
weekend
dimensions
foramen
Lovenox
cisterns
##break
SSI
ubiqu
Pancreat
formulated
vict
166
Plant
530
cas
downreg
dentition
biochemical
qualitative
challenging
loci
Hypert
##||
##Sudden
prone
Ointment
seasonal
mothers
intrinsic
##luc
Psychological
hydrALAZINE
girl
digits
unsure
##mus
LIS
Mag
correlate
phenomenon
##kes
Stra
greatly
##ola
drift
Ineffective
organized
cure
pull
van
subunit
Bost
992
integration
Average
caud
13.2
Unfortunately
responded
particle
NEUTROPHILS
##ectin
NB
##esia
thinks
hydrated
dried
##otoxicity
HYSTERECTOMY
purchased
##UMET
##arth
subsegmental
ciprofloxacin
##.12
sliding
MISC
verb
##wear
eluc
DHT
HOB
Concerns
proxim
midazolam
TS
diaper
pediatrician
genotypes
exert
FUNCTION
##ANE
99.1
##oxicam
corp
##abled
cramping
AO
1.829
television
prophylactic
nondisplaced
Greater
##ASTATIN
98.7
strips
doub
timing
intermittently
##osphate
issued
switched
##start
TDAP
Year
ambulated
##oclonal
Difficulty
Numb
##TT
IMAG
colonic
Swallow
locus
epidem
CVL
hpf
164
##ij
Suction
##osystem
Would
chicken
danger
valign
lunch
Let
assumed
##iologist
##IVAN
Aden
Camp
Prescribing
reassess
LEG
##arter
##ycycline
neonatal
signature
representation
BRAIN
GEL
MISYS
Improved
voiding
digit
Area
starts
##ophrenic
gained
hil
Epithel
##vo
##100
awaiting
solvent
PB
##ECTED
##riptyline
Basal
##ington
cephal
clamp
immunohist
##ayer
naproxen
NovoL
emission
##mesis
Palpitations
otitis
colorectal
preced
Tom
journal
row
uf
dend
##ochemistry
contamin
ASC
EPIC
##KLE
tea
biomarkers
viewing
uniform
fa
mammography
Carotid
Hot
0.10
##ensis
RP
##ozygous
COLACE
COMMENTS
##dehyde
##ACY
Pcn
##inery
##aments
Zoster
BPH
##EA
Bilaterally
aging
polymerase
stock
adjuvant
##abric
proof
Try
Boston
##ilation
sum
Japanese
sad
intraoperative
fentanyl
actively
PRBC
VOLTA
upload
nom
39.0
TUBE
approval
intervertebral
inadequate
VC
##ancer
succinate
LPG
280
##zed
electrode
thal
tape
Cup
kill
rupture
clindamycin
pronounced
fewer
14.5
##well
adequately
scientific
instance
implications
Cast
Saturday
##icon
DOI
patches
ounces
atherosclerosis
interfer
LABOR
RISK
usage
paternal
##TASS
vib
batter
distances
IGF
##hr
evaluating
readily
gli
##pidem
cassette
college
Afe
conduction
insect
Glaucoma
MF
subscore
transgenic
6.25
##ympan
spasm
sole
strep
finally
MIR
Specifically
reduct
HUM
11.1
deal
elsewhere
custom
microscopic
##lingual
differentially
1991
##.79
172
epinephrine
##ACHOL
shoot
##ively
hapl
PRAVACHOL
viewed
loaded
DEVICES
##rehension
screened
Bactrim
##UV
epic
edits
Sensitivity
##icitis
wood
##retion
Indeed
##ostatic
PHOSPHOR
recruitment
DIAGNOSES
helping
##OCAINE
MAG
##ofloxacin
Attempt
Triglycerides
gone
##ulatory
BONE
adopt
EMG
projects
chromatography
##ospice
Braz
raw
##IU
##OSYN
##oflu
Forearm
##edicated
applying
talking
synth
174
1.803
lax
Intermitt
##integ
coffee
osteophyte
##ublic
thorough
apoptotic
##alan
CYP
osteoporosis
Vo
##REH
Sometimes
political
Pan
dermatitis
Obstetrics
##AID
Thin
##INOP
rabbit
angiogram
personnel
##rants
POTASS
interim
stick
##yx
Demonstr
consensus
##unicip
STD
opposite
Urethral
PHOSPHORUS
##notomy
relapse
Hill
recre
305
QUEST
REQU
Melan
##zing
Street
returning
overd
wed
myc
Activities
Summ
TK
lupus
simulated
nal
tiny
substrates
##iversal
febrile
cortic
Rand
Minist
COMPREH
##MITT
Healthcare
radiotherapy
Spleen
##CHLOR
perception
LVOT
RB
stere
GH
authorization
east
eyel
##wood
##oriasis
Chlor
LB
Image
##board
dropped
dye
ankles
peaks
##ampati
PERRLA
ufhealth
boot
IPV
##ipro
##CHLORO
phases
##URSE
CAUS
correctly
sternotomy
Nodes
Remo
##yclovir
##ardium
Cho
ambulates
Afebrile
dermat
##oft
enrich
beat
##ya
Administration
capture
pgend
ribs
stronger
##igation
collateral
increasingly
##rene
ARTH
POTASSIUM
progressively
supervised
carbohydrate
##vironments
pituitary
scope
##ania
FISH
bird
Bes
##alin
Mallampati
Nerves
multifocal
##ematous
parental
concluded
pgstart
participating
##uz
accordance
##irable
Medicines
##uterine
coated
##inuted
fibula
##orad
chond
implantation
shoulders
deter
##des
##raf
##idone
47.0
##hs
13.3
recruited
Nonspecific
PFT
metatars
Partial
diclofenac
GAD
##ita
fluoroscopic
Admin
##erson
migraines
179
ended
TEE
vomit
throw
##Osm
Lap
pac
reliability
Appetite
##erobic
##opurinol
hospitalizations
military
Bacteria
electroph
rev
admits
Statement
##NC
##ository
hyperplasia
Tran
mOsm
NOV
enj
outbreak
NGTD
Figures
Telephone
##upiro
##aturity
negatively
##ERGAN
bite
##upirocin
PHENERGAN
Varicella
XRAY
spouse
definition
machinery
DEPART
15.5
Fre
wires
converted
territory
##ORAL
Postoperative
supports
##idae
Mex
catch
##hemoglobin
##okines
requirement
13.6
CENTER
reposition
Sil
Rich
Who
Cultures
##iguous
anth
grap
wishes
##thiazide
Kore
##ilis
Tubal
Priority
OL
pulmonic
Corp
##osens
##outs
COMPREHENSIVE
##omical
##iatrist
adopted
Director
trait
##ube
Los
MEDICAID
reflects
11.3
Briefly
roots
cong
physically
FIB
22.0
alt
transported
shad
exudates
relieve
idea
willing
Process
Remains
Cocaine
##tail
cyanocobalamin
aerobic
AIDS
Robert
##emy
demographic
genomes
progressed
hemorrhagic
##thlet
plain
##da
WITHOUT
susceptible
maxim
threatening
##ROST
Sequ
Immunization
lactulose
VEGF
player
##UGH
##iazem
##ADR
reviewing
PHART
PEN
DIP
nause
##inatal
Spanish
Operative
Ker
cad
transform
##axone
CATH
##orted
beats
DET
##eptide
suck
spironolactone
interviewed
LOWER
Concentration
PENDING
protocols
fecal
Sonographer
cytotoxic
west
Counseling
PROVIDER
RW
Core
##84
opinion
HEL
ni
Caregi
sha
regulating
Electrolytes
173
gums
##PROP
12.9
hyperactivity
Extension
agitated
##On
##DH
##ude
Burn
11.4
tracking
##arach
diffusely
##ogastric
judgment
pylori
##CHLOROthiazide
deposition
hydroCHLOROthiazide
Metoprolol
##uce
Cognitive
EU
define
lean
Ta
##orie
Prednisone
phenotypes
detectable
remarkable
property
electric
METH
radiologist
SIM
##002
##heimer
MVA
conjunctiva
worst
didn
testosterone
Statistical
wheat
belly
reform
logistic
##een
ros
walls
Lead
Therm
Keppra
Gy
##pin
##isting
alveolar
##stitutions
12.6
##ropine
extensively
Brazil
crib
Spl
LOV
PIP
230
rejection
subdural
##OSITION
Roy
1700
PART
groomed
##otropic
REMOVAL
##ushing
competition
Australian
choose
explanation
bovine
LF
##ELED
dc
tonight
conjugated
##azePAM
Zofran
1970
Strip
APPLY
suppress
piece
colle
Scattered
desat
thinking
lived
pulled
transmitted
##ractable
12.7
METER
##494
##ynamic
Board
##RH
hur
LABORATORY
##Take
##utrophil
TABLETS
Lactate
WAS
PAD
canals
##ricult
##YTH
##omatic
Motrin
bilirubin
Cefepime
1602057102
washing
Connections
Skilled
retinopathy
NIGHT
exclusion
##As
ANKLE
Powder
11.6
costophrenic
bronchitis
ahead
ESOPH
tightened
composite
preference
SCC
flush
preliminary
adaptation
leukocytosis
breathe
estrogen
Vitamins
##96
synaptic
covering
principal
##mented
##OBIN
assessments
##onatremia
inlet
##ocated
POL
0000
##elve
primer
##ocon
poison
calories
seated
TN
##EIN
##ulative
##itol
environments
Successful
##ether
NEX
suppressed
##irium
inh
cultural
##itch
sustain
##ictal
ti
Tur
##OGLOBIN
Mad
##quis
irritable
electroc
aches
Ram
corneal
Creat
STitle
Nevertheless
midnight
fibroid
Pur
METS
Tx
sensit
homicidal
XAN
radiating
##ALB
##roxy
ultimately
BW
immunization
Teeth
allevi
dead
differentiate
AUTO
##oating
crisis
neutrophils
Media
##atum
176
scoliosis
INTERV
COMPLICATIONS
indent
maps
monoclonal
##81
##eftri
church
LYMPHATIC
distinguish
DVP
Performance
CG
##gered
##abdom
rail
Block
opioids
locally
academic
Domestic
caregivers
Syringe
happen
##ker
irritability
Directive
12.4
Alignment
VOLTAREN
Canal
lith
PREVIOUS
varices
advantages
David
Council
Recovery
##enia
satisfactory
Zolam
Operating
simply
13.7
Chlamydia
oscill
volunte
Being
33.0
##affold
##physis
##amicin
Ray
library
cetirizine
FIM
SAT
grew
dilator
Continues
sneezing
scars
conclude
##uscitation
statistics
Find
ADULT
GLUMET
immunity
INHALE
Third
joined
##irit
format
ortho
Follows
morphological
noncomp
strati
Just
caspase
meningitis
exclude
##RAYS
##icients
jejun
Deferred
Republic
standardized
##eftriaxone
Plt
discovery
Bolus
Band
Hu
metro
##isthesis
##bur
RATE
award
Demographics
PDA
AI
Nic
lie
DVPRS
claudication
fabric
Hard
suspect
James
pacing
chains
PERLA
stream
Midline
GG
reasonable
conflict
agar
AER
##burg
exit
INC
irradiation
PLAV
##fri
PLAVIX
##NIDAZOLE
colored
##roll
datasets
ORTH
Directives
##iences
13.1
stretching
modulation
ESOPHAG
remod
propose
HEMOGLOBIN
##INOPRIL
determining
##IVA
Laboratories
phylogenetic
sea
##inet
retired
handed
codes
##NIDine
##ferior
##ETIRA
Retrieved
Visits
quantification
cava
reproductive
##atemesis
##ullary
Dri
Fed
0.005
##amate
Requesting
thym
XANAX
deterior
##respons
Biopsy
bridge
fainting
penic
LISINOPRIL
pathogen
##aign
##OLAX
13.4
177
theoretical
PEDI
Adrenal
punct
100.4
Protocol
abundant
Nas
LAPAR
proven
CHLORIDE
##alling
segmental
Dob
##olaryng
Improve
blank
responding
##urnal
adenoma
Confirmation
##orphic
Oly
CYST
KO
##acaine
stricture
pocket
Multiplanar
implants
Enl
FDG
carrying
Station
##iculopathy
LHC
progen
##RAF
vena
##oprost
Percocet
skid
deploy
293
conform
##phin
Tech
knockdown
perspective
##illes
Encouraged
##atile
##ULL
mupirocin
##oed
perhaps
triage
11.8
##ountered
Fu
##oks
##rops
Apple
12.3
stabilization
larv
valvular
##oneal
William
cholecystitis
dairy
transformed
encountered
Night
YE
##–19
hyperglycemia
dressings
ambulating
WFL
Model
climate
##USS
Zyr
##arseness
AML
penile
footwear
cott
nitroG
##uses
Hence
##VEN
##TM
nitroGLYCERIN
heal
multiplanar
improvements
introduction
##esonide
DAP
posture
depletion
hon
trees
MN
##iopathic
hemodialysis
diuresis
##icion
vial
Visualization
FF
##iram
##RINE
hydroly
indicators
multid
Near
gyn
orange
Dors
Evid
##Rs
warmth
sand
glaucoma
182
GV
gallst
Bank
##OID
addiction
AFT
marijuana
toxin
MAMM
babies
PVD
formalin
occupational
curv
Ativan
##roma
calculation
Nex
##SAT
PREP
Esc
GAS
##oes
##acet
Patch
indices
https
Limit
Ulcer
rock
tachycardic
CAUSES
301
Hydrocodone
##ecl
industry
nares
worldwide
asymmetric
withdrawn
Championship
##opol
mitochondria
progressing
##anes
##arachnoid
promoting
Collect
cutaneous
Attains
##Only
Mix
aligned
undergone
examples
1957
Olymp
Context
Coll
##mental
coefficients
mesh
Constant
mammograms
##rostomy
Sunday
##axia
angioplasty
modeling
##luding
ideal
Fraction
scaffold
palpated
pc
command
scanned
restraints
##rian
Pac
##UAL
narcotic
##ky
Viral
##arco
disruption
##gyback
dull
election
acts
##itating
damaged
raise
##lit
classical
Mary
FC
reviews
211
static
announced
##onium
##losed
spells
regardless
##anz
Migraines
summarized
Reflux
##eracillin
ATIVAN
##henous
Measures
lt
plenty
enrichment
witness
VANC
##Fs
Church
instruction
operated
microar
Card
##onym
Gravity
##rieval
validity
angles
Swed
restarted
CHOLECYST
##olester
Caregiver
evidenced
acetab
multivariate
everything
Zol
##itors
PW
hex
1.20
equilib
Portions
panic
AFB
assessing
##NIA
Plavix
0.06
clarify
FLOMAX
##ELOP
enteric
##ibilities
embed
13.8
DOE
seemed
1989
ADVAIR
EA
preventing
alleles
disapp
hives
edited
PNE
##structing
##ITHROMAX
EBV
ZITHROMAX
hoc
Fisher
CERV
FRACT
completing
cit
ecchymosis
Nap
Twent
pubic
##oemb
HH
Advanced
Klon
aph
metroNIDAZOLE
Pharmac
789
silver
IgM
snoring
limbs
ger
phy
Interventional
##yph
ct
FRACTURE
Tu
Plasma
##aught
100494
Tolerating
centers
##STOR
##iltration
Person
Ci
MICROSCOPY
temporary
flutter
DAYS
windows
Rapid
##ulsive
Changed
Intermittent
preparations
EtOH
Specialists
combinations
coherent
hence
coarse
antid
checking
extens
##yric
##vial
##ido
DJ
##BUT
Staphyl
##arriage
rated
psychosis
BACK
AFTER
Nutritional
##thra
ethyl
conv
xray
##LASTY
Alz
Norm
triple
thighs
axilla
neither
carrier
overlap
kb
rules
HCG
grandfather
##for
PTA
citrate
Arth
Baker
##arded
Coagulation
Notice
biofil
Visualized
radiates
clonazePAM
49.0
##rapubic
decay
13.9
PROF
bathing
Comb
intense
endoscopic
##mm
delusions
mammalian
##IGH
HSM
##appa
clustering
fibro
cloNIDine
unstable
##bec
##oneph
puncture
##OSCOPIC
subac
overt
##ENCE
Rheumatology
Instructed
eczema
colonies
evolutionary
parad
TONS
171
##UMA
##101
reporter
Repl
ham
sought
Squamous
prolapse
exclusively
Focal
Worsening
Louis
##GL
wheeze
viable
fitness
Notify
ventilator
Mucosa
arrows
Equipment
illnesses
EMERGENCY
quantity
pmh
Cour
Provide
37°
##ICAN
paired
Psychology
##quin
AAA
Gout
players
requests
MIP
KL
5.40
places
##oxif
seeking
##olf
##aban
MMM
Ol
##gin
##UCATION
WEEK
NY
lacking
##ORAC
Occasional
dilt
ABC
##olaryngology
Ev
phosphorus
menisc
3–
Que
VENOUS
NOD
LH
##opsis
##catheter
esophagitis
aunt
Intram
SCHED
cov
178
Colace
Controlled
12.1
tors
##uction
concurrent
malnutrition
##wh
implicated
turb
Orthopedics
##OTIC
SMA
registered
catalytic
orally
DEVELOP
Iod
corneas
meloxicam
hiatal
discontin
##ivil
##articular
##ogether
##icting
Spinal
palsy
police
Moderately
Twenty
initiate
ERK
Pseudomonas
LIMIT
Evidence
liters
##centimeter
comorbidities
##ubitus
massage
gentleman
cords
promoted
recreational
ACUTE
Page
THREE
circulating
##SIBLE
percept
INJECTION
Menstrual
PNEUM
Har
publication
##YTHM
broken
MEL
investigations
Zero
intention
maturation
##meterol
012
simpl
Lips
##odiaz
normoactive
RSV
PREVENTION
diluted
embolization
Admitted
Gir
erg
eggs
reag
REF
DISPOSITION
##ashed
fluoride
Impair
CONST
CGA
cp
Hom
postpartum
undert
spectroscopy
carbonate
NEB
Kar
hs
ranitidine
CANCELED
Ps
Asian
##AMAX
##XA
DMS
Gestational
antigens
Outside
KENAL
consequence
Vess
qPCR
namely
Log
TONSIL
ow
##azob
KENALOG
RLQ
14.1
conjugate
##.50
supposed
zolpidem
Serial
nutrient
CHOLECYSTECTOMY
Gi
96.8
dad
##integrating
critically
##omalacia
##stances
adapted
arrive
amplified
extraocular
##hene
suffered
answers
existence
needing
##ROB
PPS
hemostasis
Practice
fibroblasts
##rosine
Understand
anterol
photo
##imetry
interrog
epithelium
##osorb
carina
exon
triggered
##arant
architecture
operations
balanced
##ACC
HYD
gastritis
Interventions
Science
dentist
##ositis
##IDA
##rophys
party
bundle
##93
embolus
##onephritis
setup
Phil
Immed
SCHEDUL
Gabapentin
CIP
##IZATION
probes
prov
narcotics
##ipuncture
##orne
##oderm
PON
##.25
##ylate
##ellum
##ivacaine
PEDIATRIC
##ael
Wil
##ocardiography
exists
##mb
SPECT
documents
##related
Hi
Piggyback
Melanoma
Cervix
##ialis
shaking
GAP
THERAP
Describe
plaqu
neo
##obacillus
sickle
Inferior
Endomet
Ter
epit
anomal
##reasing
OFF
Chamber
##anter
coupling
##azobactam
monon
TEL
##omers
cigarette
##urring
EPS
melatonin
Star
Address
blurry
SUL
arteri
##ga
PAT
##cision
predictors
arthropathy
Vicryl
apart
practition
viol
ANTI
##oat
##stein
BILATERAL
cleavage
Deform
PAH
science
##omatous
Staphylococcus
Otolaryngology
Malign
ADDEND
##OF
conve
AW
##acerations
distant
##vert
99.3
budesonide
fiss
AIC
##friend
Doing
##phy
cane
captured
##niotic
domestic
preg
##TAIN
ing
pads
Van
cleaned
SEPT
antagonist
purulent
seeds
MOS
homogeneous
##uced
##omens
Material
conservation
surgically
emptying
DH
till
ULTRAS
contributes
avoiding
IUD
collecting
organism
Slightly
##ipt
FU
Making
##reek
thrombocytopenia
OCT
##hoff
Potential
mins
professionals
Later
##par
chemicals
186
OPERATION
shell
Vict
Arri
##atively
doctors
elong
chromatin
citalopram
Thick
##sure
##raining
briefly
autophagy
##cholester
Biceps
Scientific
diure
##ircular
inch
celiac
HERNIA
1.50
##apl
postsurgical
Associations
judgement
Bill
percussion
president
Subsequently
##antin
STATE
Septum
Protection
duodenal
debris
pneumoniae
PHD
atm
patency
pieces
##OXY
##abine
math
Tmax
##orbic
FAIL
names
appendicitis
CES
null
upregulated
##hi
happens
antis
cardiologist
KLOR
##gine
interference
WM
parasite
##thy
##ailable
allopurinol
admissions
Fetus
##Ls
transfection
immunod
nt
OUTP
Trache
##CG
leakage
Coord
Therapeutic
##agues
Vas
comprom
Respiration
##verted
LIV
##teral
infusions
##cox
14.6
nails
Consistent
Repair
respondents
TRAUMA
cholecalciferol
Dilaudid
mV
peer
exceed
symmetrically
engage
##pread
Shown
smokers
electrodes
##ulates
interviews
ileum
##ership
PROFILE
fetus
ARTER
Ken
rheumatoid
proved
ds
##ASONE
FER
##idase
Tex
piv
Bat
Middle
MOBIC
##ala
##IDINE
Obstructive
replicates
derivatives
##opathology
INTRA
George
prevented
Omn
ends
blocking
##94
##glycer
contamination
HBV
Therapist
remind
##romal
hemidiaphragm
matches
MAN
Estab
Paul
palliative
##ients
rails
##obronchial
DENIES
##umulative
Gent
corresponds
##olipid
ESR
pharmacological
Infusion
##queous
##alcifications
##97
panels
##idespread
HEMAT
LIST
Injection
supplies
Ho
centre
##mann
##.05
waveform
BF
##oure
Print
Island
restless
modalities
Maximum
vesicles
##plate
alcoholic
conversation
screws
##eterminate
saphenous
salmeterol
mem
##emed
Smith
##useum
spike
DEPARTMENT
distortion
2102
##onitis
ligands
parasp
0.27
assistive
meter
scap
flare
MAMMOGRAM
vertebra
dedicated
##LECTOMY
Demonstrates
forest
LID
##otin
IMMUN
##min
tun
inhibits
Calm
##amental
Regional
##lices
##echoic
wax
shif
Jos
##orses
noseble
bill
##ystic
slowing
LINE
dimer
testicular
##haus
##Bl
BCBS
##rail
pod
BACTRIM
lands
glen
cramps
Membrane
sle
cytoplasmic
NGT
##enolol
##cedural
##bi
viscer
flux
Antimicrobial
##apsed
##OPRIM
imaged
202
Army
phosphatase
synchron
##oxication
money
##OSIS
Hydro
historian
AUC
##arpal
rescue
ECT
Tetanus
Resistant
##ANGE
histological
Brown
Afib
Law
##aked
SPOK
##mes
Transthoracic
blast
Hemorrh
Power
##ND
larvae
transfusions
TONSILLECTOMY
EXC
baclofen
EDUCATION
Nat
Feed
SECTION
##cephin
Assistance
clones
verbally
##heses
Inhaler
pathogenic
SUSPENSION
specify
##TIC
##.21
97.4
##afil
breaks
##balance
discontinue
Rol
Strep
alternating
similarly
##inea
substantially
##OSS
Hen
181
Excessive
APPE
connection
ATR
shaft
mandibular
LVH
Field
FP
ADDENDUM
vitamins
##etically
##cholesterolemia
INHALER
##OND
##andem
Observation
Syncope
DEVELOPMENT
donors
##ensation
RI
loos
emp
Sulfate
Union
Esterase
girls
avoidance
INFORM
secre
optimized
##ostics
MUST
Lit
##ytoin
PLA
Ovarian
hazard
orthopedic
glycer
scoring
##omeprazole
Anesth
Whole
Proton
colony
FVC
Discontinue
dipl
unco
tourn
oncology
Alzheimer
Ide
preterm
Random
historical
Having
##ALTA
projection
adnexal
immunocomp
pCO
People
bup
14.2
CYMB
star
CYMBALTA
books
VALVE
trip
ventricul
Providers
##ensed
dopamine
grains
##We
Nuclear
##iapine
FAILURE
paperwork
municip
NIH
Initially
hoarseness
Mes
rid
Overnight
pent
harvested
##itriptyline
calorie
staying
varies
##cine
54.0
##PREDNIS
##opo
##oglobulin
##ipaque
deviations
sulci
believes
##ROFEN
trust
BEF
Vir
Relieved
##7.9
Swish
##arms
clavicle
Text
Haz
enjoy
propag
TBI
roll
##opharynx
campaign
##rochanter
NSG
gi
decades
Consid
aqueous
LOT
Je
ovaries
ALD
##.41
HEPAT
IQ
##arest
supra
##amines
Chronicity
cesarean
pooled
knows
##ytical
##rance
diverticulosis
Filter
biosynthesis
store
LVED
attenuated
IUP
##isplatin
##ADDER
tent
Trach
hypothesized
RADS
malle
Company
Cop
##epress
tran
ULT
territorial
Bac
confirmation
##itian
nephrolithiasis
references
Sublingual
clothing
Dysfunction
eut
protected
forced
scene
##plo
##TS
collision
Lam
MDA
##OXYzine
Schem
SUPP
ns
mastectomy
pO
##rp
heme
waking
##ORD
Dementia
Chi
prostatic
ERCP
Ok
##uge
kinetics
##amed
##UCH
tells
##IBILITY
methotrexate
##osacral
promotes
guardian
##aryngitis
Ventilator
Indirect
Row
Documentation
##oling
INDICATIONS
##BER
311
weigh
refractory
##ORDER
Mn
##kinesia
IBUP
##ichia
suddenly
##RL
183
paralysis
IBUPROFEN
template
hole
vom
stopping
##uteal
PSYCHI
##rugg
##ampsia
ree
founded
Threat
Len
exec
##ests
244
5–
##rombin
doxycycline
neutrop
incons
Strept
##ORS
SOFT
ULTRASOUND
RHYTHM
##iosteal
1950
32.5
exploration
projecting
practical
coast
GN
IBD
aqu
BEFORE
Pall
pyel
FK
vig
protease
Canadian
##cetam
##abalin
##ETIRAcetam
##istaxis
NIC
killed
Removal
##verages
reproduc
##eptic
##MITTED
Guid
perm
sten
##name
yog
Erythem
Lids
Survey
0.65
OPERATIVE
caries
##cap
subarachnoid
northern
sulcal
buttocks
triggers
urology
Educated
widespread
##laf
drains
Intramuscular
Fair
POSSIBLE
Cognition
99.0
federal
Ti
##ENTAL
Club
1960
upcoming
Double
gradual
databases
37.6
turns
##liquis
##icl
##aration
begins
hematemesis
apices
##CARE
enable
patella
sprain
deemed
##velength
lasted
Individual
##ARG
attachment
##ba
metatarsal
Au
intent
##gus
saturations
DISE
Venipuncture
NSC
brand
prosthesis
intercourse
##utely
NRBC
850
##ionic
Government
MEDS
algorithms
260
presum
fuss
Transfusion
comminuted
PONV
##zol
highlighted
Loc
##ugin
Daughter
appointed
contraction
rif
Progn
companies
##PROPion
influences
homeostasis
Akt
murine
automatically
Ranges
1987
southern
chewable
TAB
Vanc
Flagyl
##axine
utilization
Beta
neurode
Dd
##imposed
AROM
splen
729
VL
275
2200
##.20
NONE
tot
##ophilic
Ju
adhesions
##water
paroxysmal
Epis
DIAL
microcalcifications
Numbness
##urable
##adron
burst
##eks
reinforce
tou
acuity
embryonic
##inge
vectors
fibrin
Circumference
LUMB
eligible
##oustic
holds
##EW
##riceps
Cann
gout
Cong
NJ
hind
valuable
bum
Emesis
scheme
Maintains
Gaze
##utory
histology
teaspoons
penis
vest
trending
Mgmt
fullness
IMAGING
Elbow
ganglia
GLYC
##ranolol
vanc
peripher
blade
Mount
levETIRAcetam
IRON
bronchoscopy
Fatty
##icc
##IGN
##92
##foot
32.7
hybridization
##lafaxine
continuity
COURSE
inapp
1986
Portal
DELAY
POLY
PEP
compressibility
siblings
cognition
Rubella
##eficiency
incorporated
DNR
reflected
##belt
Scribe
##ECTION
biology
DRAIN
##ructure
urinate
coc
nation
Morphology
##riptan
Cirrhosis
posteriorly
ANGI
Clar
afford
##urations
stressors
fatig
##ustered
GTT
##ocellular
abrasion
PPSV
managing
Lake
flexibility
AZ
##opes
ancest
##healthy
Systemic
Infusing
scatter
##ini
ethm
##jug
##abdominal
produces
metac
Rig
forceps
chronological
##lexion
Resting
adipose
Easy
##emoral
excit
Virus
BRCA
Deficit
strept
Sha
##etin
##gence
dev
##amer
Basename
##hypert
BIR
bother
##rous
strengthening
pharynx
radiculopathy
Cav
##ANCY
arrange
insufficient
##uv
dens
snacks
DICTATED
distally
sphen
##.33
##3.9
physiologic
skeleton
##bital
retrieved
Values
##.42
##305
anch
TWO
##4.
grip
interpret
chi
colostomy
stern
Improvement
##ierarch
operate
##NAL
Zosyn
4–
defense
contro
##fa
fen
184
QTc
##roy
delta
arranged
regulates
cranioc
vacuum
14.7
Rev
##ungal
Royal
cheese
receipt
ups
foam
Dia
harb
earliest
32.2
##UTIC
belief
Sam
adjusting
SULF
resolving
ze
Effusion
laparotomy
304
Obtained
assign
irrigated
itchy
gently
compos
CRC
Death
surviv
GRA
Latex
##toid
Saline
##list
unrespons
Cry
hippocampus
##VH
shortly
anteriorly
calculations
wish
push
##yme
Myc
##inical
##rogenase
TLC
##cm
90000
centered
##otides
biomass
wavelength
Hemodialysis
anticoagul
aggregation
##ameters
motility
laws
##.69
##GAR
UFP
##ecum
claims
conjunction
aberr
pow
fle
mandible
LPN
##elly
UB
Attack
dilution
TEM
##orary
INFORMATION
##oidectomy
##rason
hypodensity
0.30
Cyc
guai
##icile
Chair
electrophoresis
referen
Why
##liant
Vt
searc
transm
dissected
##iferase
bifurc
overdose
##plastic
losing
candidates
##ographs
neighbor
##PREDNISolone
##ROSYN
dot
readings
##URN
##oir
oct
Stomach
ht
antic
Laceration
##ENTIN
##licated
60.0
traject
HCL
AE
##ROXY
HELP
FLOR
##etime
##ua
205
1.02
##ticaria
beverages
LUNG
declines
VB
GD
##icking
Charged
pulling
tur
runny
Smoke
questionable
doppler
interrupted
Authorized
##ivariate
closer
EAG
fort
##phenidate
##.23
##OMINAL
warranted
noncontrast
neuron
coop
Fox
CERVICAL
Py
indicative
BPD
rights
lytes
PMI
##acid
##ADS
connectivity
NAPROSYN
Provided
PLUS
inducing
institution
SEN
BV
##ographical
##iramate
placing
##There
cotton
removing
continuation
SIL
##okinesis
Bab
98.9
ging
ataxia
tort
HYDROCODONE
RADI
biceps
##itely
720
##iralax
frust
##copal
methodology
SIR
Emotional
phenyl
Caffeine
##iciencies
dysph
planes
cred
predictor
AMBI
convenience
irrigation
##rst
nonobstructive
peroneal
##ocr
Play
paresthesias
agonist
paranoid
dissoc
clustered
wing
Supplements
##PAP
##OLD
microarray
##agmus
30.0
gravity
Lanc
security
Worsened
##iliar
Turn
FOC
ARTERY
methadone
##soas
radiop
spondylosis
FW
##FE
sciatica
AMBIEN
anesthetized
Malignant
ACTIV
thiamine
palm
##ENING
Benadryl
Radiographic
TOUCH
manipulation
Hypog
focusing
watery
disposition
Road
suspicion
##.83
imped
Sampl
capital
Preoperative
##atis
##ardation
Youn
chromosomes
dates
tyrosine
presumed
Specialty
Put
##ARIN
EXP
vulner
Auditory
##HAB
##umbosacral
Bang
##opressor
alteration
cerebro
statement
##ewire
papules
Lex
##prising
clicks
polymorphism
reversal
0.99
Mut
Cellulitis
jump
island
vaccinated
##oda
##Ns
##ocele
pts
##rotal
anatomical
Loxetine
##Use
Hadlock
##BUTRIN
sampled
WELLBUTRIN
##ofluorescence
confound
hypotensive
HCTZ
Season
Prevnar
Selected
##okinetic
##IFY
lipase
Thomas
DMSO
signalling
prur
embedded
LES
Responds
##onucle
precise
daytime
##omies
Squam
Mechanical
##RATE
camera
Arr
SNF
cardio
econ
LIN
##irms
##eated
##amphetamine
##obacteria
dictated
covers
exacerbated
##IOLOGIST
mediat
##inction
precursor
##no
VAS
##utical
worth
Washington
VERY
##ptin
brach
reversed
quantify
##EPRAZOLE
011
14.9
strugg
weather
PUF
##ett
VENTRIC
Ejection
##urate
NCAT
oval
SPCOM
escort
##do
calves
ADDITION
##avir
arising
nearest
Update
yielded
feedings
Dent
methylPREDNISolone
lesser
HDS
folate
##like
suffering
structured
button
Bath
Draw
complained
192
somatic
33.3
Vag
rain
TISS
Wheelchair
231
courses
aching
youth
write
Benz
EACH
##rograde
SCD
spectrometry
EVALUATION
##ologists
tal
encoded
##ceeding
neurof
VAC
Distress
24.0
ending
##RAX
decide
PSV
##stem
triang
Amoxicillin
Experim
##ACTONE
esomeprazole
Town
telemetry
##OVE
##STIN
6.30
Escher
circumstances
dangerous
reactivity
##ophore
atoms
emerging
##itrac
Ciprofloxacin
Preterm
spoken
agricult
diltiazem
Cnt
Movements
##okal
Bon
Integrity
mammary
bending
##IO
brisk
indicator
##VASTATIN
cutting
Tracheostomy
humeral
##utch
715
IgA
##uric
thrush
nephrectomy
Party
subcentimeter
Different
printed
##alanx
##ICORT
FLAG
opportunities
prematurity
aims
magnification
Lipitor
worker
Carp
inher
##ribution
arrhythmia
hydrOXYzine
slides
troponin
##orrect
fundamental
insights
Endoscopy
HEPATIC
##ITUTION
concentrated
intrap
ppm
##URAL
guideline
bruise
Abscess
disrupt
PRESCR
PSYCHIATRIC
strenuous
Italy
retina
Reconstituted
apt
subtle
rotator
communic
Voice
utility
OG
##ami
##ulous
athlet
##ergan
histone
perip
Jew
passage
tert
fitting
Escherichia
lineage
SPECIAL
##.30
monocytes
HMO
Franc
##rapeutic
Protonix
Arg
Italian
##ROV
INJ
Cans
1.05
periodic
synd
writer
##ota
elimination
##uginosa
amin
UUS
horn
375
gastroparesis
CCA
diam
##.51
hear
technologies
Approximately
discrimination
##bic
##Ms
Wean
##oterol
##emonstr
spring
optimization
UTD
##ICK
reconstructed
CONSTITUTION
##quito
Passive
##kalemia
nonp
steat
glycosyl
anus
PUFFS
MDD
##iture
References
##operiosteal
##ylation
##AREAN
6–
CESAREAN
##enin
NPH
##TEC
monitors
IG
burns
CCU
Overexp
upstream
mold
##cid
microgl
dressed
HIGH
##iviral
lysis
papers
IMPORTA
Biops
ATA
Series
DISEASE
allograft
##mentin
##hrs
belt
NASAL
APPEAR
desire
flowsheet
##ferase
court
alk
##rint
401.1
##nis
losses
##itracin
buPROPion
##uty
Actin
thorax
awak
dB
vertex
##illi
##recip
##eu
gov
door
##athic
phenotypic
antip
acne
differed
hormones
stores
labeling
fluent
##SATART
Sclera
sentences
remodeling
##ship
links
sensing
50000
lid
0.08
aeruginosa
idiopathic
ss
crep
Reactive
stab
SAH
amyloid
craniotomy
hemisphere
##ORACIC
ARM
saturated
Impairment
basket
referenced
mobilization
Linear
##.75
ADDITIONAL
##leu
glycop
Root
Conc
adsorption
Uoxetine
mono
CARBON
Mening
serv
herpes
symmetry
Medium
Academy
denotes
twin
##grade
phalanx
Esophag
Correlation
Vasc
toll
extubation
TIPS
revealing
attempting
##ALE
xen
##thrombin
1.005
##.22
averaged
##za
heav
relevance
Intubated
##aza
Prognosis
mdq
omega
Hop
CAM
cement
Flushed
##rients
convex
##vula
synov
Cereb
bx
Mucus
##screen
Detection
15.8
hung
proportional
##rations
recombination
suppository
THAT
circles
ingestion
superimposed
govern
director
Frequent
Ki
ARDS
##herry
songs
##APRO
TEN
Music
MSCs
##esin
pillow
FAST
thereafter
NEBUL
CCT
nosebleeds
##ROW
Cort
Chic
Intercatheter
lies
Pit
hazards
##ypsin
computational
JOINT
mycop
##ATAL
Cntrst
excretion
Diverticulosis
urethra
barium
nons
##erk
precision
carpal
virtual
persists
Psy
MORNING
##monia
##amax
##orient
DEXA
##AA
OIL
##ensin
unilateral
pric
street
Requested
protrusion
drooling
Biot
187
Web
bank
plaques
DELAYED
assault
WRIST
Sounds
Rheumatoid
##sey
serves
creation
Haw
rounded
river
Clon
walks
##opress
recommends
Contra
exogenous
predictions
smell
penicillin
##PC
rele
##Gy
demyel
burs
fitted
##ocities
##STATIN
emerged
sensors
analytical
##Vs
lumps
guarant
##hilar
birds
##idazole
resonant
##carb
##rogram
##USE
AU
##inflamm
refers
formulation
binds
policies
erosion
##ipping
communicate
intrauterine
##oxidase
NUTR
mini
##untary
blow
##olac
##mg
subunits
Texas
Slow
destruction
IBW
LIG
happened
875
zofran
circle
CAN
REHAB
blotting
239
cumulative
Whom
##usted
condom
##ocalciferol
Bronchitis
chin
anter
VE
radiopaque
Atlant
##ellite
310
##wan
##ceptive
Pericardial
##Al
feasible
debut
020
polymorphisms
AFR
##erged
atmosp
##ceased
APPEND
hyperd
evolving
Court
##ousand
pilot
manifestations
curvature
concomit
##iritual
##Health
##uct
Ambulatory
drow
weaning
industrial
32.9
##ressions
GET
battery
##aneurysm
latency
SAL
100000
REPL
alternate
##odily
colleagues
parasites
DPM
Pleural
eosin
##oria
ll
##albital
##arcoid
CIN
mys
Awaiting
##enger
Estimate
BET
subtypes
dorsalis
##ophila
##ror
lacerations
KIT
abduction
gallstones
Preg
architectural
Pad
1984
tubular
1979
metric
traffic
university
ostomy
14.8
heating
ke
Ect
CORONARY
inhibiting
escitalopram
questioned
antidepress
EBL
hippocampal
TROPONINT
Clearance
Clotting
102°
Scott
##iella
resuscitation
Angel
Polys
Barb
Nod
##olumbar
responsiveness
338
Kle
contraindications
sonographic
Acuity
Oil
Widowed
Schizophrenia
KD
BK
symp
aids
ester
TMs
PLEASE
afib
nebs
immunodeficiency
TX
##bidopsis
Treatments
Charles
contral
Graph
immunocompromised
porcine
ASK
ACL
trough
##oxone
Followup
osteopenia
compromise
packed
macrophage
aeration
eg
boys
microt
pathophys
tid
##upation
copper
Christian
subacute
mucoperiosteal
Cele
##ulator
Intro
mIU
##ruent
Incontinence
psychiatrist
LUMBAR
Select
powerful
peers
unsuccessful
comprehension
examining
Michael
Pak
winter
##otopic
sequenced
Multi
depri
draft
##heric
irregularity
FX
meant
BEL
lipoprotein
isolate
TELEPH
suprapubic
comparative
transplanted
##MET
Understands
Void
recess
Suicide
TELEPHONE
patellar
consented
circuit
Microalbumin
##henolate
NUTRITION
nystagmus
lin
LEX
emplo
Psychosocial
##through
accomplished
##91
Mann
##ionate
weekends
Factor
engineering
FULL
flushed
SLEEP
expressions
perior
reward
taste
##grad
THERE
IMPORTANT
##emble
soreness
overlapping
##gic
99.5
##ALAX
MAPK
abilities
31.5
tripl
translocation
lasts
prescribe
Santa
##uth
REFERRAL
cab
myeloma
antihypert
194
habitus
interacting
cecum
qhs
EDD
Absence
plotted
##IENT
reflecting
NPs
Ba
overcome
Ra
MIRALAX
Developmental
HYDROXY
Bring
PROB
Kidneys
regeneration
Guardian
lag
35.9
Fibromyalgia
Cox
##riosis
##ramine
explains
Arabidopsis
instruments
decubitus
crow
orbits
twelve
noncompliance
ANESTHESIOLOGIST
##nasal
Triceps
fundus
impacted
postoperatively
##incter
phon
STUDIES
CORRECT
##okalemia
SCO
easier
Medial
pupil
##oprecip
Rhin
nocturnal
SEL
plug
##OGRAPHY
pictures
catheters
##owing
boundary
Character
inducible
XYL
##ESV
glutamate
excitation
##vasc
gastroenter
psychiatry
rRNA
necrotic
##.19
indeed
encourag
sediment
scru
pollen
KEP
census
epigen
Princ
Northern
##EE
constructs
##VER
unevent
myself
Para
drained
15.4
revised
CARDIOM
subtype
Protime
Rolling
##apro
sport
Paper
Irrit
Hib
38.9°
##syn
mosquito
Asia
0.76
gum
enzymatic
HO
woke
SPIR
##uvastatin
regulator
206
0.07
VIII
VSD
Pop
##atric
assume
KEPPRA
intractable
Lu
bonds
trade
Ischem
FREE
paraspinal
anticipated
equilibrium
rigid
Luc
##.32
discrep
##ELLOW
extravas
Ferritin
comprised
bulge
##arry
county
3000
Asp
descript
##openem
##ANEOUS
letters
##beat
sort
##oconazole
##.72
31.9
##ellig
endocarditis
Glu
prepare
lids
##8.9
quarter
rend
interfere
MYCO
inappropriate
193
##while
studying
recognize
laterally
##anax
stressed
prevalent
##ildren
circular
MYCOSTATIN
##amus
administer
complain
##inter
thromboemb
tendency
Tris
CVD
##factory
##–0
32.6
##cals
236
##bed
plateau
##ralazine
defib
DISCUSS
varic
STOP
##ailed
mTOR
tonsils
formoterol
Throughout
pigs
PROGRESS
Isol
Attached
1.549
MEALS
pressors
ulceration
PROTEIN
##ATING
restrictive
gag
##osures
RESULTS
HPLC
urticaria
conditioning
##akers
##otrans
Restrict
cisplatin
##RAM
Hepatology
Perinatal
050
##ylase
covari
Questionnaire
##ramycin
Account
##hemat
translational
ABDOMINAL
##ZAN
520
##eta
humid
##olateral
sph
##onatology
PRESCRIPTION
efficiently
Anth
APTT
0.38
crani
LLQ
conformation
supernatant
##vaginal
37.7
compromised
expectations
splic
occluded
DIST
APPENDECTOMY
illustrated
##hered
stretcher
PHARM
cleft
##2011
XYLOCAINE
##bar
cortisol
0.74
constantly
sharing
MCP
Lapar
REFERRING
Invitrogen
Cas
CCM
alkaline
Technical
17.5
cheek
Mini
##neic
Zoloft
Ao
augmentation
##leukin
Plantar
DUL
tips
32.4
contralateral
Hematuria
##lix
stature
folds
CIPRO
##ulty
Boys
Manager
DRU
##april
metallic
STEMI
##enchym
Eight
EHL
Nitro
##idol
PPD
ANC
##iota
Ophthalmic
dilaudid
##spring
immunore
215
GROSS
##urant
##ME
##opharyngeal
ampicillin
SCAN
undertaken
Enlarged
Increasing
##rab
cytotoxicity
cancel
##naires
recordings
profound
immunosuppression
ACCU
BMD
parotid
##orters
ectopic
Der
detecting
scenario
figures
terminates
personality
Public
##OPIN
Trim
yields
buc
191
chewing
psoriasis
420
tor
##opause
mist
Hypotension
inoculation
Antico
##ylephrine
respiration
impacts
##oedema
Wnt
endorsed
CONTINU
placenta
flagyl
propranolol
##ROSTAT
FLORIDA
dissolved
deh
Neuropathy
CBD
Lesion
distract
brom
Dysphagia
204
saying
cleans
periventricular
swab
Vessels
hierarch
##oped
parking
15.1
ille
switching
##Us
##ushes
SET
certified
Straight
calcane
Zone
Ensure
san
elicited
cuts
PEDS
annotated
##ols
Inhib
.001
volunteers
##hist
Young
##cemia
15.3
corn
lifetime
modes
##arby
##geons
clothes
labelled
DJD
unexplained
retardation
3047
homolog
##levant
decompression
dating
sham
Versed
##ardians
sleepiness
##.59
Products
predicting
Sudden
Surgeries
herein
##aceutical
Il
##.000000
SED
##imod
inactive
Bicarbonate
Hod
Iran
##liament
breeding
SEEN
PAGE
Rock
prison
##ferential
Hours
evac
0200
bloating
mt
KID
Samples
##BR
Occupation
Swe
1983
PREGN
##oquel
rods
29.9
Seb
ativan
una
Ion
Bell
Metformin
##heic
##akote
cornea
worry
pix
NITROSTAT
1.88
##ENDED
WC
##NIT
##oto
hurt
##aci
SEE
Eryth
cards
Southern
sacrum
correlates
Palliative
##LINE
Improving
Chicago
medicated
Alt
##OGEN
Timed
##ima
Moves
##OTOMY
##orin
dust
merc
UMR
##arct
JN
Treg
evoked
acyclovir
Hcl
Opi
polyc
LPF
Murm
15.9
housing
noon
##hydration
##mill
angiographic
dehydrogenase
##umines
soy
trib
gy
galact
mapped
CATAP
##icing
consumed
laying
Anesthesiologist
preservation
##esterone
Pericardium
CHILD
bottles
Tell
##izumab
lovenox
epistaxis
sclerotic
MCF
##ussis
verteb
##eflex
##..
##amn
CATAPRES
clone
Aldrich
paracent
##itates
##inance
synthase
Award
Glands
loud
favorable
##.84
Microb
HAS
facing
furn
##lers
paced
files
CHEK
exponent
Omnipaque
##ADRYL
Urgent
ZyrTEC
supplementary
reversible
BENADRYL
sphenoid
##ioned
AFF
expiratory
fluoroscopy
##An
##inely
##IASTIN
programme
partly
marine
Dyslipidemia
Secret
luciferase
##vida
teacher
implanted
Kingdom
DAS
AAOx
DTR
##ostal
Cate
Minerals
530.81
Intrac
##amol
##chol
leuc
spp
Penn
metabolite
amitriptyline
ESTIM
15.6
0.025
MTX
Uterus
Bus
topiramate
0.86
Etiapine
cares
markings
##.77
1.18
Mu
Multilevel
risper
phosphorylated
Omega
Inadequate
Agg
##bility
Tramadol
##heast
cerebellum
cyclic
intral
airways
synerg
##theria
##ochrome
establishment
naturally
1930
Between
permission
abol
competitive
31.6
cul
obser
Toile
##link
SENS
inversion
hypokinesis
Glasses
##IFIC
IBS
Microscopy
Quantitative
secreted
Pod
Frank
HIF
Graft
ethnic
Invas
households
zones
standpoint
IOP
contributions
Ran
##erion
ZY
NovoLOG
duplex
creating
1982
Genetic
CONSTITUTIONAL
Glycemic
roughly
Candida
##ofemoral
cataly
MWF
Endotracheal
TUM
Incident
UT
logical
0300
ICH
AMA
##emet
extravasation
Cy
diagram
##azone
DHA
##acters
##irtaz
CEL
Gastroesophageal
##IASTINUM
coach
piperacillin
##idated
##throid
LIVER
SUM
matching
##To
##osorbide
##ously
servings
##ivid
Constitution
RESPONS
Ros
Phase
compartments
Murphy
uncomp
potentials
Malnutrition
Live
Tan
Leva
NSTEMI
Iodine
Noncontrast
unresponsive
AHI
EMB
##rone
##OXIDE
Neonatology
##ifer
fungus
##lebitis
BODY
##otyping
femurs
macular
WHAT
retic
soften
Anat
hypere
responsibility
equals
##bil
##orrheic
##craft
##west
##action
bili
0.71
Russian
##cised
sleepy
##USIONS
reserv
suboptimal
Vehicle
Levaquin
Devices
##iance
##obarb
handling
neurosurgery
Obese
OPEN
characters
15.2
Specimens
thank
entering
nephropathy
bin
PRESCRIPTIONS
##elen
##rocyte
REST
4°
Notified
ECMO
Pancreatic
MHC
sees
counted
postt
venlafaxine
0.60
holid
Pase
chor
rectally
Arteries
bleeds
Placenta
Penicillin
AREA
##inosis
microbiota
motifs
engagement
relations
totally
calvar
Animal
looked
##iliary
##.16
203
mirr
Otitis
biofilm
Expl
GRAFT
ULTRA
sling
Mexico
solids
atom
pregabalin
symbol
substitution
witnessed
Tre
ATC
caring
guardians
exhaus
Nare
NSCLC
coagulation
ultrason
Zeal
eats
##atid
CRESTOR
repaired
embryo
##ocations
widening
retrograde
considerably
Commission
ppx
routinely
assuming
##iflexion
adenosine
##etan
utilize
osteo
receives
Error
##3.90
carriers
amphetamine
vibration
##agers
bear
Perioperative
wanting
constitu
VM
activating
LEXAPRO
glip
hospice
##azepine
DEG
##oplast
APPEARANCE
AICD
luminal
790
##cy
Irregular
rit
HEPATITIS
##alog
rosuvastatin
Rail
THERAPY
ante
GUID
RVR
CHANGED
##ortab
##othal
Atraumatic
penetration
##olor
Film
KIDNE
ileostomy
anomalies
LVID
offspring
IVIG
phag
ign
##valent
CEA
##OLINE
##bsiella
VAP
latest
slope
##aryngoscopy
Gro
##igan
assembled
Eczema
virulence
33.5
wears
eyelid
Virgin
gar
32.3
##mal
tubing
Thermo
FACS
##ORTAB
##ophyl
##304
thinning
tandem
LORTAB
Kap
agreeable
##unched
butter
##venile
##ags
lastname
motivation
##onella
Anticipated
Hyperglycemia
elastic
socially
conference
deterioration
##ROBAN
##junctival
##anine
##otensive
##itri
##IPLE
Histor
##2.9
0.93
kappa
nephrostomy
ALDACTONE
##ULA
ICP
indeterminate
BACTROBAN
##odic
labels
Lys
Whit
Cut
##urren
Mem
boundaries
##olip
##dol
Stiff
beads
confirming
MEDICINE
nav
excised
malformation
grooming
coh
Gon
WOB
tazobactam
##.60
sucrose
##ALC
Exchange
Dox
bull
hilum
Environmental
sphincter
AVA
linkage
BMT
299
DEVICE
##tics
##GC
habitat
stabilized
##irtazapine
ergocalciferol
explo
Optimal
perturb
SICU
hydrophobic
sunscreen
TEMP
##Gs
handle
permeability
thoracolumbar
nephrology
##riz
##AFLEX
senior
intoxication
RESPONSIBILITY
##ruz
FLUTIC
##osarcoma
FLUTICASONE
belonging
psychosocial
ZANAFLEX
AMLODIP
##acental
AMLODIPINE
TRANSPL
teenager
UNDER
laterality
energ
##ainer
gate
##estival
HYPER
30.9
Decrease
automated
cos
Midazolam
PICU
defer
241
Plastic
droop
##ukary
bronchi
sclerae
Palpations
Sulfamethoxazole
0.77
Pacemaker
Cholecalciferol
Presentation
##ATOR
##book
triglycerides
gloves
refusing
413
stimulate
SPRAY
DW
##oa
shifts
##edicine
atenolol
blastic
Girls
clarification
HHC
Spain
shoes
Erythema
grouped
teachers
imag
COMM
##apses
PLAS
endplate
##YROID
##EPAM
difficile
incorporation
MENTAL
ascorbic
Plus
CVP
corticoster
Osteopenia
knockout
##anate
Cs
maxillofacial
escorted
jointly
##istan
isoforms
gluteal
##oP
ease
Immune
conceptual
uncertainty
outflow
angiogenesis
pore
mycophenolate
Importantly
guard
##CID
shel
ATARAX
preop
misc
##arios
slices
##uel
dysp
1.524
##ivary
sweating
##OPROL
##ocarb
##ondition
1981
enclosed
cue
32.8
discl
Consequently
##cr
uneventful
208
aggravated
cholelithiasis
infused
Pacific
##vation
quadrants
Diseases
exercising
##thal
##Pain
multic
##umeral
calculi
33.2
1.80
##oarth
CVVH
FALL
Trial
FACT
##add
arb
Dyspnea
ling
Opp
015
##TE
massive
clinicians
##ev
module
Jaundice
EPA
##osystems
##.65
##zyme
quantum
effector
stump
PREGNANCY
terminus
Salm
obst
Tax
Dysuria
Hemodynamic
Isra
SYMB
RNAs
##itches
##ERALL
CANCER
216
biomarker
inspiratory
URE
32.1
COLOR
info
butalbital
supplemental
Run
##OPROLOL
mesenchym
nearby
diets
polyphagia
nutrients
##VA
Ile
GABAP
FBS
XRAYS
##ographically
DKA
##uber
GABAPENTIN
Infiltration
Marg
ride
tick
buttock
214
##andular
questionnaires
Besides
society
##HGB
##anda
##rett
pouch
principles
##urated
SYMBICORT
pedic
colonization
SAB
bread
epileptic
Zealand
OC
destruct
coordinate
relating
blister
grafts
ARTERIAL
LIGATION
casc
vap
anyone
innate
Pink
smokes
##ofl
explicit
arom
33.9
craniocaud
##.71
##.39
rins
lengths
##utches
##IK
##onase
##REAS
hemith
Warfarin
corner
conflu
AXR
TUBAL
MEN
fissure
iii
##pi
confront
Formula
ANION
waters
1.003
upregulation
380
cutoff
endurance
xyl
molar
Certain
##Bs
baths
Organization
##.61
TOPAMAX
##olves
DOCTOR
leaflet
BELOW
eastern
##actin
237
ultra
##RONIC
Achilles
##OCARD
TIBC
additionally
Seat
TUMOR
METOPROLOL
Tour
##ften
pharyngeal
##VR
##ramidal
Hazy
dryness
unrelated
010101
Ischemic
achieving
Zh
Fluoro
catenin
acoustic
fungi
annulus
chromosomal
complementary
closing
Proxy
0.85
##elles
modulate
dendritic
sponge
lect
innov
FOLLOWING
##NG
##bearing
ketoconazole
##orolac
Novolog
PEPCID
vegetation
visualize
bes
ost
##isl
Raw
dich
##ridge
quart
##RIT
Mast
aggregate
OMEPRAZOLE
##letely
WOUND
advances
diazepam
##WA
Vert
charged
coron
heartbeat
207
Pra
##cemic
testes
##entric
##station
steatosis
intron
LABC
mailed
EXTRA
INJUR
retrieval
acrom
##ISE
grasp
confirms
emphasis
##urrences
##KING
critic
Surface
##.67
dashed
purple
Lew
##OMYCIN
OUTPUT
INTERVAL
##vian
flaring
##abis
Cipro
276
sweet
executive
counting
305.1
##inants
ileus
##iscence
evolved
##reous
##rogate
crypt
##cean
##NOS
Sar
decade
tunneled
splenomegaly
Ut
##uster
Jer
Feeling
FLACC
##ZANidine
BH
qRT
Milk
##menopausal
Francis
lnc
Dros
inters
eliminate
APPL
distancing
Rib
REL
##INS
die
##ciled
GST
LIMITED
Sciences
thing
MAMMO
concomitant
##fold
ecological
unhealthy
breakthrough
colectomy
serous
33.1
hosts
menses
blockers
Rotation
atrophic
victim
Cold
supplied
reductions
micros
Prothrombin
1945
Wear
Ga
##artum
filtered
Ltd
perfect
##viation
combining
FLOW
##ATER
##anal
thresholds
lent
##.70
##house
phos
0.78
##marks
Ze
certainly
VO
Effects
seq
visc
Prim
##IZER
##glandular
##real
referrals
##athione
##ysms
addressing
VAR
##entesis
##imet
##omfortable
##onology
veh
surveys
##ERONE
annular
microp
##rotum
Irel
REQUEST
Atheroscler
sacro
TISSUE
preventive
principle
##LO
##aks
stimulating
##Ac
##poned
##.03
gynec
Jacks
##eptal
##union
Atypical
thirst
Reading
God
##inski
iodine
love
##5.
33.4
passes
seatbelt
empirical
snack
##electric
##ADE
tramadol
0.87
lactic
macro
homologous
GF
0.35
chose
ISS
DEB
##ottic
syrup
NIGHTLY
criterion
proteinuria
Lee
featured
carbohydrates
Conference
uncle
oss
##azosin
724.2
##opathological
aphasia
##ATT
SMALL
depicted
##CSF
tumours
Rab
Pros
##RICA
escape
##ellect
catalyst
##udd
reper
BPM
APS
273
##ilden
212
##mentioned
promotion
##acterial
Fish
league
37.8
##cortical
slice
290
syncopal
cock
##irmed
reservoir
Epile
Figs
SEPTRA
CYCL
Gau
Cephal
##ti
##ican
dir
gaze
tagged
malleolus
27.5
##ORP
UFHealth
##ixaban
cis
##IRM
##aemia
##ohumeral
##yzed
modality
fertility
retain
30470000
##324
Vmax
destroy
exploratory
voluntary
methanol
31.8
TRANSPLANT
Electronic
31.4
##SAL
inoculated
CONS
EXTREM
rear
##arcoidosis
Cur
##PD
##IAX
cohorts
0.23
##OKING
tactile
Task
diapers
##NPs
accordingly
LYRICA
ordering
##TAN
wasting
##BOW
kinetic
prescribing
Together
##alis
rotated
CW
BLADDER
pretreatment
Little
MEDICARE
0.73
rising
Gly
supervis
shots
Saint
PBM
##ianal
Same
##LES
LOSS
slower
inflam
ez
Pi
Epid
##rometer
Calib
296
stimulator
OCD
Agree
hepatocellular
Foreign
30.5
autism
pacer
##advant
##oyl
sarcoma
lord
tetra
exposures
Toe
##EAR
##herin
31.7
trapez
##ambers
SUBMITTED
subgroups
APGAR
##ading
diagnose
Cystic
##lines
Capacity
Basophil
visited
fats
erectile
kil
##FC
31.3
Hodg
##butrin
##opin
impairments
sque
##OSOL
16.3
dissem
##aco
##obacterium
Metabol
##po
##.13
Wears
##YCIN
immunobl
accounted
##thyroid
hypers
bites
##rinone
wedge
bub
OSM
residence
epidermal
##jugate
Sug
attributes
provision
mim
Preliminary
##gene
209
hematology
firing
cytology
aneurysmal
Sr
vic
regime
begun
plasmids
bifurcation
Tubes
rearr
Risper
describing
meniscus
Tbec
##ocrine
ferritin
Prescription
1975
NEBULIZER
##epcid
cloned
casual
miles
coil
neuromuscular
taxa
##entary
##bean
seasons
##lec
##omast
SCORE
Observe
##ifice
laryngeal
4000
punctate
##thalm
transduction
physiology
NEW
Molecular
ABI
DIC
deline
dramatically
Median
staging
resumed
##amina
Rigidity
regimens
Gener
UDS
cyclo
##ETER
apple
Incomp
suggestion
##onf
lysates
##never
##urysms
LOR
interleukin
CARDIOMED
pursue
Bike
##rov
evaluations
settle
Land
STS
PREN
crest
specialized
Asym
RAP
eukary
Vertebral
Journal
News
Scars
illegal
GB
##berry
bent
##antic
bare
SVT
Wood
PATH
experimentally
feasibility
Methadone
inactivation
Sem
Dad
Cost
generating
Breastfeeding
homogen
presumably
Ireland
OND
1.854
0.98
LAWB
Bcl
calculus
grafting
infarcts
##TOTAL
buildings
414
Rece
inhalation
postnasal
##athyroidism
88305
oils
Rupt
endpoint
covid
notably
uncomfortable
opens
calibration
assumption
##iotropium
arc
inflated
hemip
Pears
prednis
ORTHO
desk
##izers
freed
resides
Book
disch
clonidine
IE
Pb
Often
fals
##esp
osm
sparing
RLL
EPINE
##itabine
Ger
cancelled
MULTIPLE
22.5
Carol
opposed
silencing
Museum
stuff
elective
heads
Electrolyte
##.91
340
15.7
Beds
colour
AUG
##ludes
0.63
prevents
Inflammatory
CARDIOMEDIASTINUM
neurot
##go
1.10
spreading
perox
##iana
##athetic
Oh
desirable
spik
Pattern
Synthroid
COX
lethargic
proliferative
coagul
Bayes
##Jax
##lip
restoration
destructive
TAM
attitudes
confocal
chemistry
Depressive
discussions
ecc
atropine
0.72
##ECK
familiar
neopl
survivors
##bridge
wrong
employe
packing
Ton
individ
...
Paris
AGA
Required
##syl
dif
analgesia
##dr
aspirated
AFFECTED
ug
isot
maneu
inspiration
Lor
##ocate
watching
loosening
##repinephrine
bip
1250
Disorders
UFHealthJax
##HR
ethmoid
##Inf
##pop
Jo
geographic
Project
RRT
SDH
##rillator
occult
lowering
##ETRON
Eastern
abrasions
Umb
##ava
Resources
Murmur
shin
AMOX
clip
mammographic
endometrium
restored
highlights
disadvant
interventional
Compliant
hat
visitors
dob
contaminated
##cing
##oclavicular
potato
thoroughly
235
217
progesterone
DCF
##glycerin
##ANSETRON
Seq
##orse
##ludge
ONDANSETRON
10–
funding
congruent
obl
##inflammatory
Aspiration
0.62
##ELLA
modulated
bs
Province
interests
##iley
##70.0
##ationale
BIRTH
Drosophila
CHRONIC
Brit
##ownt
DIALYSIS
registration
##opressin
0.81
##sky
Palate
Pu
##atre
##utamine
Developed
dysm
PDMP
digoxin
IAD
necessarily
enteral
MAE
serot
##ursery
stromal
heavily
Trend
Followed
33.6
emergence
introduce
Nether
epigenetic
fused
cavern
interd
sheets
isosorbide
##.96
ship
Tit
AMOXIL
plasticity
hemangi
subcortical
redu
##orating
##.04
##aven
##oblastoma
DMD
fibroglandular
Attempted
radiate
Stiffness
##emporal
Vein
##onn
bacitracin
CRNA
##IVAL
maintains
alkal
vals
EXTREMITY
Assessement
##.18
##sequent
##omeric
shave
Spring
workstation
TKA
Veins
35.8
1940
##Id
302
Those
##ronate
Pf
OMFS
unint
Foundation
tracks
tau
1030
wip
owned
anger
##TAKE
paid
Working
DIOXIDE
Streptococcus
##ensated
AMB
##ista
publications
institutions
gluconate
Considering
cattle
Microbiology
##ophosph
##arenchymal
FIL
Pearson
##infected
AEROSOL
##OGAST
Neurovascular
Tai
Womens
IMC
MYC
news
cholest
enf
##ODU
predisp
investigating
EXTENDED
adjustments
lights
keratin
visiting
Force
FEF
Monos
twenty
Lik
gingival
YEARS
7.35
stands
30.8
AIR
sera
FUR
Sac
PACK
##methyl
Jackson
coinc
0.79
0.66
chemok
lumbosacral
Subsequent
Azithromycin
echogenic
##itant
##ometh
urethral
preferential
transporter
Symptom
Measurement
erythromycin
pulsed
automatic
pneumococcal
circumferential
CONTINUOUS
Gard
BMS
repetitive
interferon
gotten
##abin
waist
##ighter
97.1
sig
ELA
Thirty
REPLACEMENT
##OTHER
365
envelop
ubiquit
Spi
##aya
Rhinitis
PROST
IgE
PRENATAL
relates
##idym
##OSTOMY
dentures
inherent
##ca
modest
BUT
awarded
Bedside
Complication
considerations
imper
acidic
kyph
##MIC
conclusions
##ALBUMIN
##metrical
WD
Tg
monol
refuses
##III
33.7
individually
endoscope
inferiorly
##ectasis
##ophed
IOL
##nam
chronically
Swallowing
scrotal
COS
COMPLEX
Duplex
0.68
256
##ICIP
Dul
comprising
bold
427
pued
##EXOR
ABS
##onymous
EFFEXOR
bulging
7.45
##rapped
ltr
pillows
pyrid
mRNAs
##orative
learned
##ilton
cooperation
31.2
Modifiers
periorbital
Grading
##aved
titration
0.84
##operidol
TRAN
stations
cAMP
Omeprazole
PROBL
XI
0.82
Notably
Presenting
##icans
discs
peds
Stat
needles
LVP
sector
infect
gastrostomy
##ARC
ligamentous
proportions
CONCL
##Swelling
intensities
Moving
Carpal
TUN
consults
occlusive
injector
PROBLEM
SPSS
LAM
##ilst
Overexposure
Princip
detox
Ausc
WAR
Cond
Probable
repeatedly
##ylon
Invasive
MASS
Conscious
velocities
##ymbal
Hepat
lymphocyte
1117
CCL
Sinusitis
advis
lane
Network
mirtazapine
inconsistent
##una
##ulanate
Feels
Rocephin
Mort
NEXIUM
harvest
99.7
chips
RCT
ANTIB
30.4
crepitus
##OMET
concentric
Around
##HLOR
IX
cities
##umina
##BET
Supportive
##iolateral
concrete
imbalance
Epilepsy
subf
Sea
##gr
0.83
redund
lacks
##rowsiness
selectively
##yo
flora
ligaments
helix
##hire
bicarb
222
hematopo
traveling
FIT
scr
amph
tens
Ru
##arum
Related
Jones
enables
ANTER
controvers
##uran
218
dihyd
riding
keratosis
Bathing
REG
spiritual
KEF
##arate
repeats
hyperint
resemb
Technology
emotions
Intensive
abscesses
vascularity
silk
##erman
CORT
meaningful
ont
Localized
1976
diph
LESION
SMOKING
Trop
0.88
##rathe
##roamphetamine
Schematic
##odopa
mesenchymal
pT
optimize
preferences
anten
zosyn
Neuromuscular
##orer
scenarios
ACCESS
##ingement
antiviral
Redness
assistant
##itt
Starting
Deformities
Netherlands
##ismus
RC
Charges
##rand
killing
CHO
AUTH
PFTs
VALIUM
##GRA
##opian
AAM
EMR
parap
Activated
blockade
leader
valuables
tiZANidine
nights
##eve
ZYL
trunc
##emazepam
Myel
Catholic
##ymbalta
antif
intraocular
##kg
##rochanteric
immunoprecip
avoided
diuretics
prosthetic
Erythromycin
orbit
PAX
pleur
##ometasone
immunohistochemistry
Levofloxacin
##ulary
0.89
##itar
copious
Augmentin
ESOPHAGOGAST
hydrolysis
mirror
##3.1
##phric
ZYLOPRIM
basketball
install
grass
gad
splicing
##arthria
Retro
neutrophil
CREAM
Od
ache
##oram
demands
0.69
dehiscence
4.00
##olk
mutated
##cont
hi
##ariatric
KN
excluding
##MAN
nasogastric
Reminder
delirium
##oured
##ellectual
transitions
29.5
FLUID
Technologies
##oni
glycoprotein
digestion
restrained
hypoechoic
LLL
##ietic
faces
##TROL
metacarpal
warning
LABCORP
sid
81.6
slurred
glutathione
##300
laminectomy
hemithorax
##ECs
##umeric
##ellation
Charge
kinases
Restrictions
hyperp
gentamicin
Peter
1920
rolling
##erty
##eping
causal
Kn
787
950
ceph
MAY
##unar
trich
bronchial
CKTOTAL
vehicles
EDTA
jet
Materials
Partially
cisternal
Martin
LACTIC
lethargy
interrogation
Remain
competing
arrhythmias
zebra
##irection
perit
perihilar
0.61
##oPIN
GW
##alpro
accommodation
MUC
##ilson
KlonoPIN
carot
##otensin
##–10
NIF
deceased
afore
##Drink
Tree
Patellar
ARF
sludge
slide
hypothal
waste
35.7
Canc
##ADOL
guidewire
##RP
BiPAP
##readmill
LUQ
##Ex
Vasculature
##LIN
HXR
mediate
##izo
libr
##PASS
LIPASE
Dutch
30.6
Dos
##eze
33.8
enhances
solving
Hoff
Transplantation
##abling
SMEAR
Tunn
cous
##ubital
Dat
Trimethoprim
EDC
##rimazole
Korea
GASTRO
Centre
##ovent
##OOL
TRE
##MRI
Unt
emboli
benadryl
1130
biopsied
##eper
manually
Gh
Suicidal
numerical
38.1
hg
Ampl
PFS
downregulated
adren
Gol
##uxim
BIP
equations
##racycline
##rokes
OCP
RED
kcals
constraints
Instead
aircraft
circumcision
acutely
##py
##awa
phyt
Shands
programming
##ynin
resected
Walker
selectivity
colors
##2.0
interp
Secure
Wave
EMT
##iZIDE
##oblastic
kinds
##ingles
575
beans
Finalized
consolid
37.9
seeded
Advair
001
spermat
cephalic
DISCUSSION
ADDERALL
pros
Bacterial
Break
ESOPHAGOGASTROSCOPY
Richard
vigorous
RNAi
MICR
Vill
29.0
immunoglobulin
##PO
suctioned
Diameter
unw
0.11
classic
falsely
##.49
Klebsiella
tiotropium
##orest
aforementioned
obscure
abstract
Aqu
Genitals
additives
RETIC
winning
Coordinator
Narc
##IRUS
intraluminal
Tonsils
regulators
Minister
rim
##affin
GRD
everyone
##venue
##ecess
pee
gms
harmful
meets
dism
multidisciplinary
subsets
##AGINAL
submandibular
##oudy
administrative
microorgan
31.1
Crea
raising
initiating
AKT
scaling
vast
##ophilus
213
perinephric
reagent
genetically
reaches
symphysis
deficiencies
Walking
epiderm
broadcast
3.125
inflamed
recipients
endemic
Eliquis
immature
Scoliosis
detachment
##ADINE
##odiazepine
TESTING
nitrate
intravenously
AJ
bend
mism
codon
Like
TRIC
annually
330
ranked
Sand
NAT
##yrica
DIG
tendons
##Es
##adium
crystals
cellulose
Fc
Assessed
determinants
##omax
worried
BUE
postop
raises
##ONIA
celeb
##operitoneum
cystoscopy
229
daycare
indig
stratified
##ceptor
fussy
IMPL
proximity
prev
##personal
0.64
SHORT
VITALS
LXR
fatigued
FLUOR
LANC
rinse
Nares
plavix
LOB
MORE
FIOR
##iorad
##15.82
PVR
CLASS
Big
##osec
inqu
##escence
alg
Show
0.57
##yster
PPAR
0.92
##LUC
homes
committee
##spaper
immunofluorescence
paresthesia
PFO
##ptive
expresses
##uchal
Fasting
Suboptimal
ingred
Grip
Military
overview
784.0
concepts
0100
appendectomy
peroxide
PLE
99.9
Biliary
Conjugate
Invest
##FENesin
microM
seal
28.9
CPR
DCs
Spect
immunost
BREAT
guarantee
THYROID
Flank
defibrillator
straw
pregnancies
1977
MID
##–18
putting
30.3
inverse
dextroamphetamine
##IFF
Dav
Apgar
elucidate
cultiv
edition
nort
binary
1.30
functionally
nocturia
##anut
##worth
1974
##Cough
pyelonephritis
##ildenafil
KEFLEX
topic
SECOND
ELAVIL
##fall
Clicks
##INA
HV
epidemiological
##exp
exchanged
tomato
apixaban
mammals
Ocular
Teg
##ORESAL
LIORESAL
Ast
0.55
sxs
ENDO
civil
##ulas
Higher
Und
Chrom
occasions
CONSULT
##inqu
constitutive
papill
emphasized
prompting
matt
scattering
##utation
HEK
DUONE
coordinated
BYPASS
flies
Prin
capac
##OCK
0.96
Universal
WO
##axel
aster
neuropsych
precipitation
##VED
YELLOW
Hodgkin
TMJ
1972
27.2
Strict
##ODUCT
Immunosupp
##rosurgical
Chlorhexidine
enabled
##raspin
aneurysms
crutches
Adjust
Redemonstr
oc
urea
Bodily
percentages
##idium
.05
##perg
myeloid
Strong
observational
032
buffered
ducts
sevent
Heat
tropical
gp
DUONEB
thermometer
##flated
##emporary
flexor
tightly
ancillary
Kerat
ENCOUNT
lady
reperfusion
meters
universal
pivot
Cholelithiasis
NWB
Scot
ceftriaxone
ENCOUNTER
18.5
##ifty
osteophytes
AVH
Teich
counterpart
Walg
arrives
##IAZ
IVcon
CHEM
Regist
0.94
CIR
pigtail
##ordered
Sd
30.7
moisture
ideations
226
sheep
versed
##xin
string
suspended
Ball
micrograms
throughput
columns
intras
plex
acceptance
coma
##TRIAX
IA
245
Henry
Though
contracture
##TRIAXone
irre
centrifugation
##.40
deposited
fulf
1050
##isted
##.63
menu
accounts
##otext
descended
unre
Sinuses
##ewise
persistence
BREATH
amen
whenever
Virginia
purification
SYRING
grid
Apnea
Takes
shear
DRUG
Sites
Salmonella
menopausal
cefTRIAXone
XRT
Carboxy
flash
Info
##ETS
Columb
applies
Tower
RUL
salivary
NOSE
##otactic
centrifuged
tracheobronchial
cytochrome
Kim
grades
pigment
TUR
Psyche
mixing
testis
cysteine
STRESS
DIFLUC
stuck
Affairs
marriage
tables
DIFLUCAN
mattress
spons
##etermined
Rule
boxes
tubal
228
SHE
redox
toys
223
0.91
##ocarbamol
fibular
Works
##2015
incis
nauseous
##apamil
Brachial
contraception
saliva
##olarization
Dictator
AVF
TIB
0.97
Stim
tags
challenged
horse
SPIRIVA
glue
booster
Beg
##dal
##raspinatus
Experiment
tertiary
afterwards
capability
##ropometric
lumpectomy
##glass
28.5
##butynin
PVC
255
Leuko
microm
##ovenous
Carbon
##parathyroidism
collaboration
equipped
##coxib
PRODUCT
antihypertensive
dislocations
Classification
Examin
master
validate
microvascular
bonding
UTA
##cape
condu
Contract
##eril
##yles
##robbing
Umbilical
##iabetes
##avor
##otexture
encomp
Training
microglia
30.2
LBP
uncomplicated
Hydrochlorothiazide
##omial
worsens
Folate
Leukocytosis
Minimum
germs
OPH
suit
lists
##asome
microtub
Thrombocytopenia
appreciable
proximally
Georgia
Emphysema
commit
tympan
anywhere
HSP
##choline
Ont
PUD
##oxygen
SVD
1.28
resultant
##OBAL
advancing
pertussis
pets
involuntary
Accu
preceding
Football
DIABET
guaiFENesin
clerk
relatives
##len
microf
employment
##anned
##hemical
Examples
pollution
##umedrol
homology
echotexture
operatively
34.5
ban
Marc
aggregates
##ioma
Gastroparesis
levofloxacin
ethnicity
0.125
Chen
##.43
NIZ
MEWS
meats
##6.0
##ORB
fluctuations
##ZE
urinalysis
talked
##mer
959
Avg
MCT
Compar
refilled
##ITIAL
intellig
##uximab
levodopa
##thyroidism
cats
dots
Gradual
cd
escal
induration
trivial
Securing
Cert
argument
FNA
##elle
responds
1973
segreg
Clindamycin
##aceae
##ICET
currents
amel
acceler
shop
gym
hormonal
##arts
##ishop
##GAP
##otub
DAPI
Alk
desires
MAT
broth
astrocytes
uric
##onical
methylphenidate
sweat
repetition
hernias
##11.9
serine
NIZORAL
CONF
Vocal
drowsy
Foster
Ionized
nitric
Methemoglobin
anticoagulant
##ji
##zolid
certify
wakes
Noct
cation
FIORICET
0830
##IQU
cooking
##oblasts
neighborhood
Bili
Thigh
Dilantin
Maxillofacial
##gian
APRES
novo
APRESOLINE
Rupture
238
generic
##employ
worn
##ubicin
Wilson
Chol
Tue
##itter
PQ
Identifier
Cardio
deployed
shed
DOL
ded
##ardiac
approximate
Amer
##ja
nano
##ZAP
Comfort
dimethyl
##glut
MES
Plans
surrogate
##Fe
caudal
corpus
1971
tilt
cycling
##ASIS
incorrect
metals
suffer
221
TRIM
##ineural
neutropenia
rises
##ariable
Slit
Cyan
PTX
homozygous
Energy
Sx
reapp
PRIM
gown
Everyday
fibroids
28.3
goiter
Metast
Panic
laboratories
lineages
hct
##affected
tall
Ash
codeine
Numer
chances
vaginally
Cran
arousal
##ARING
##jected
GAPDH
washout
##lept
boost
##EMA
CLEOCIN
Neuraxial
assignment
establishing
bike
antibacterial
266
shield
fly
precord
concussion
Broad
picked
##rotective
pleased
ethinyl
NIBP
Rotated
EXCISION
##perazine
roof
Capt
Observ
##ulair
Acqu
sauce
tended
274
Anis
Sleeping
VTE
ECOG
motivated
accession
Available
##bp
Hypoglycemia
GABA
##.80
squared
Abduction
Applied
##onfirmed
shifted
Particles
##MSC
Uncontrolled
quot
300.00
jer
##chlorperazine
perianal
analyzing
DG
Kh
milest
##iferative
##GIC
##CTAL
2–3
##ACTIVE
squares
promoters
##olith
##Follow
Chemotherapy
Eq
224
province
tamp
##ampoo
##inished
##OPLASTY
xenograft
##linear
brothers
Multiv
27.9
delays
Lancets
##RUCT
neoplastic
##OTID
blisters
DULC
STENT
Vin
Generally
excurs
PID
##akia
KCl
Hrine
##Idine
EPINEP
AUGMENT
DULCOLAX
Congest
raNIT
Depakote
raNITIdine
ele
arrangements
Pin
Dermatological
##luor
SUPPORT
##ALCIF
##ICS
Lith
Vide
entrance
##.44
Cherry
sequela
syndrom
MUSCLE
Wind
##idality
Endometrial
juvenile
zebrafish
Veg
cerumen
beliefs
Wild
##writ
consuming
##RTEC
glenohumeral
##OCRIT
pacifier
1330
##seal
atlant
query
##orms
PANC
positives
##ronidazole
ZYRTEC
##RIDE
##bach
##osynthetic
PAS
Benef
oximetry
##GAN
themes
ANTICIP
gard
epi
Opioid
ate
MSS
##ni
flashes
drowsiness
derivative
ingest
##ithelial
Naproxen
crossing
searched
##aceous
Gravida
percocet
brainstem
peroxidase
VANCOCIN
slip
Lamp
Amniotic
triplicate
Drinks
##ifiable
heterozygous
titers
immig
SUF
26.8
papillary
normalization
Keflex
hyponatremia
##rologist
RESIDENTS
##oglyc
CATHETER
Prov
surgeons
Junior
##igate
abnormally
Proph
##opos
cadherin
Pip
libraries
##aptist
285
840
90.7
AMER
surprising
ulcerations
##railty
Lin
##eties
honey
suite
##physematous
Tend
0.58
##oam
immunotherapy
INTAKE
Kg
AVR
spacer
##OLOGIC
##ertility
valsartan
nuts
##.002
Dip
##atibility
##ytopenia
eliminated
sacr
##icin
latent
##orphine
graphene
29.3
creams
officer
Gain
lithium
##obarbital
magnet
rescheduled
lenses
Apr
ORT
consulting
NOST
##enzyme
Orange
scient
HYDROCHLOR
definitely
extrahepatic
##IAZIDE
lavage
##bone
ratings
Career
1110
##ostrid
antit
SPL
mets
##oides
2.00
brady
perp
##ARB
##olinium
Prozac
fibromyalgia
default
malignancies
cavernous
affective
##isd
##zo
paradigm
microen
experts
34.9
postural
GIRL
DRAP
##ERON
cyl
Cephalic
##osh
stenting
additive
##Short
FOB
msec
##AMBER
Wife
mimic
Recheck
hero
Hemodyn
##aning
TFs
##OTHIAZIDE
agricultural
Relevant
Voiding
KIDNEY
polysaccharide
exhibiting
claimed
LENS
autologous
coded
NEUROLOGICAL
0.18
##olemic
extern
confident
Johnson
##LT
##tp
Plasm
passages
osteoarticular
ELE
hasn
Aers
styl
Transfers
thri
LVI
##ophilia
Hyponatremia
rom
helmet
##aka
expensive
hypodensities
genetics
##hymic
charges
depleted
veter
Nig
iP
##ributory
29.8
APC
Sweden
arterios
HYDROCHLOROTHIAZIDE
ANTERIOR
##opramide
paracentesis
##embly
institutional
ara
tam
##brevi
spind
Emp
NOSTRIL
detector
FORM
232
traction
humidity
planar
retrospectively
Prominent
29.6
##iolitis
16.7
Meanwhile
Seasonal
EXPI
1968
Tooth
globes
dock
phil
CHANGE
##inite
pcp
324
Ampicillin
ulna
Awards
##ogenes
CpG
translated
JA
outlet
##rioception
##unior
##oclopramide
RETURN
tol
CCC
McC
gels
teaspoon
campus
lactobacillus
counsel
controversial
editor
caut
Done
stops
decompressed
FGF
Arts
Fine
##uminescence
##igs
kerat
titrate
versions
accumulated
spic
hypodense
GSH
QPM
maybe
protecting
WOR
CHANGES
Tok
##wing
1.09
Hydroxy
Holding
##uan
steel
aberrant
540
EXPIRED
##ko
sedentary
magazine
##inel
Carolina
SYRINGE
inhaled
falc
Moist
##SF
##metic
233
0.56
cage
coating
Hemostasis
Ozac
instances
Echocardiography
##OTROL
echocardi
FLAGYL
linking
NOVOLOG
lucency
ALLERGY
skim
bench
##yer
##oult
yogurt
##lyceride
Scalp
##ipline
##usal
APPOINT
0.59
Nond
annotation
permit
transitioned
Ascites
##osangu
headed
##optic
##erge
Dilation
Sovi
##isy
perich
Centers
GLUCOTROL
VAD
Joseph
##tronic
##omotion
MEDROL
Library
Headaches
29.7
WF
wond
##aratus
repositioned
##onged
ECM
Oxford
##ifactorial
dissociation
UD
Correct
Cit
Han
dyskinesia
hazy
##elae
persisted
##ila
priority
sacroiliac
28.0
activator
albicans
Seven
hid
Ostomy
Wat
fontanel
endometriosis
##aware
##arkably
.01
aura
Dan
493.90
billing
ethical
acetabular
transcriptome
Angeles
##aughters
ATOR
answering
inherited
##osan
34.1
##ALCIFEROL
29.2
socio
terminating
##ioclavicular
freely
degraded
##For
MSC
##ethe
Category
king
diary
##iline
foramina
315
##itan
30.1
Prote
voices
fascic
gastroenteritis
PERIC
mometasone
bothers
latex
Ly
sixth
abolished
Cycle
##isure
motrin
socioeconomic
nc
rings
##emat
METFORMIN
Deltoid
##idin
valves
ANTIBODY
227
##AZEPAM
sati
Equal
##otechn
362
MHz
Postponed
suctioning
DEPO
##ENE
Dictation
regulations
##transferase
interacts
Phenergan
##monium
Kin
##role
Lic
glioma
##ofibrate
##ectoral
##ODERM
26.5
##tec
Hay
dysphoric
##achian
prompted
Gib
##ello
emotion
Flush
Methyl
frames
relate
erosions
##box
NPN
SOUR
##rested
htn
hydrog
##acryl
35.6
Principal
##lie
taught
dramatic
everyday
SFA
##endments
##NO
OINT
modules
Fol
extr
container
##antac
##ranch
##auss
##clinical
##mas
xrays
##ald
##cere
Abx
1.01
29.4
##phosphate
newspaper
SBA
fatal
##juvant
postnatal
##cnem
##olet
ESGIC
##apter
Chemical
encephalomalacia
ATORVASTATIN
PERF
drought
##lucan
##asteride
Dietary
structurally
accelerated
norepinephrine
##UBIN
arginine
undet
Fevers
##ACID
trypsin
crude
##etanide
34.2
Flowsheet
34.3
##200
Lortab
##vania
generator
designs
##yxin
Senior
phasic
glycemic
physi
Conversely
vasculitis
Gums
##aline
maximize
##ommon
##rogenic
Accordingly
accounting
Alpha
##hematical
##Have
Summer
Grouping
encaps
425
##gue
downt
coat
APAP
##asy
inhab
Jac
##uating
Paroxysmal
peel
SIT
HEME
##ih
ketones
mediators
perioperative
##chen
commission
Ts
bow
polarization
##ompartment
Coch
GLYCOLAX
ADE
##olecystic
download
ammonia
Polym
glipiZIDE
##ERA
Carl
infusing
1.03
Flat
TRANSFER
endo
##IPT
Inhouse
Ds
liquor
adduct
conjunctival
Dial
##hesize
38.5
Superior
diffraction
follicular
##PIRone
launched
systematically
mann
Dilated
prove
epididym
THA
Ah
granuloma
tends
nonob
shares
##OTE
##ulse
##onom
ambient
##ctic
brush
urge
Lv
##etts
##6.
##body
63.5
conformational
transmit
irradiated
conductivity
serotonin
Homicidal
##Shortness
geometry
caution
##cnemius
1002
READ
1602057101
ruptured
coch
0930
periphery
divergence
emulsion
Compliance
TRANSIENT
##oux
##epl
##amage
##oquine
Xanax
adjunct
##opter
Heter
tailed
clavulanate
NAC
Born
Hypothyroid
CLEAR
Uterine
conduit
epilept
Motility
explaining
##ilicus
oxidized
##ROUGH
##ORTIC
##abond
Ana
wider
0.24
operator
prevertebral
MVI
Struct
stoma
##itzer
stir
racing
##quential
demyelination
##vasive
advancement
##rotizing
unaffected
suppressor
##ocratic
boyfriend
Greek
stays
Globulin
confined
testicle
.00
lymphoid
##bert
##Children
mounted
ENDOSCOPY
handout
profiling
SAM
##arca
##ventory
fits
Quadriceps
Lipids
Concer
##col
performances
origins
illustrate
##NB
enal
hypertrophic
788
throbbing
Uses
verbalize
gyrus
Thousand
reminded
SUIC
Wang
AMERICAN
INJURY
inputs
0.52
Session
##burgh
loosen
##ospasm
Bow
##adal
presently
MK
##iomy
transmembrane
nucleotides
Turb
tro
Impact
1430
marks
dermal
Jr
bronchus
AUGMENTIN
Sir
Design
##oraminal
drivers
##half
stenoses
prefers
bridging
deprivation
Mediastinum
##ALAT
nauseated
ronchi
##uits
Barrett
genera
295
lethal
Williams
AMI
VARIC
Advil
Sut
tarry
##onsequential
categorized
COMB
consequently
MAS
Mice
1.21
inconsequential
##lobulin
Region
NEPH
anion
Tinnitus
SMP
placental
elemental
GOALS
Gar
Moh
Build
##ITONE
##lucent
##ymphed
Security
dural
Usually
##iga
##ova
BILIR
##phosph
ADA
Bibasilar
##1–
##Weight
0.54
musical
##thood
shut
EUS
NEC
neb
Revision
rpm
TY
immobilized
Natural
optimum
BILIRUBIN
syring
Norvasc
16.2
CAROTID
1005
1969
GJ
##angeal
Emb
shooting
##.85
##orations
guan
##aded
##...
NRB
26.6
##oxifen
Wellbutrin
##enil
##ROM
##ELOCYTES
turnover
Levels
striking
cerebrovascular
Map
visceral
##oys
perceptions
CHEW
Ward
demonstration
rectus
Nurses
327
reserve
FRC
##341
##.46
Summaries
##ITIES
##ymphedema
##oprop
##omberg
classroom
##affective
angry
##alignment
NORTH
reciproc
leaking
Desc
LG
WW
TiO
##ocortic
somn
277
0.49
broke
Postsurgical
nick
INTO
nodal
Congestive
Hypokalemia
Ka
infrequ
0.53
0.002
NEEDLE
spinous
258
championship
jejunum
SOURCE
##ophagia
Expansion
Pennsyl
##road
enalapril
Wales
pumping
quietly
progenitor
pharmaceutical
##.36
apparatus
Vac
Neonatal
##RUM
Prolonged
Insuff
vaccinations
paint
AFP
anterolateral
##SON
##arcer
TCR
tracts
proc
vestibular
##549
dependency
##ranean
Lens
298
Diagnostics
IQR
transcribed
swim
oxidase
##ICH
Numeric
##otemporal
transit
LU
phage
RG
Nan
intraventricular
ndash
transfuse
Beck
21.0
voc
rug
##mond
Thu
Differences
encodes
MEDICATION
CBT
Above
MIT
Medrol
yard
Kaplan
immuno
Drop
Means
von
Lupus
phenytoin
Actinic
EVENING
Fiber
0.32
calcific
Ras
Translucent
##ocolate
approximated
ie
distinguished
forget
studio
accompanying
payment
Counseled
##je
nmol
tournament
Trich
28.7
LVIDs
##autery
##AUD
starch
grounds
deposits
Cust
##igl
Ceftriaxone
1965
##HOL
da
Unlike
##irs
dominated
##.15
Surve
Store
positional
leukocyte
Miralax
scrotum
elongation
CYAN
2107
##Se
Illumina
##izoaffective
##ANTS
pathophysiology
##ESTINAL
cardiomy
##onates
Dynamic
##ARACT
Federal
Thickness
PREDNIS
routines
focuses
aromatic
activates
hepatocytes
turbinates
BCC
##upuncture
Tolerated
precursors
35.5
oocytes
##epithelial
pericholecystic
shrug
rhy
Pax
angiotensin
cited
sildenafil
enroll
adrenals
Incomplete
strokes
##izine
786.05
Soviet
absorbance
Packet
##DC
Prealbumin
disintegrating
COUGH
Uric
lantus
##2016
intens
extensor
topics
elevate
practitioners
lightheaded
immunohistochemical
psychology
Walgreens
recovering
union
glycerol
##oris
ADP
##ONG
Tox
##brain
Antigen
Seroquel
inverted
Nonobstructive
microorganisms
anaerobic
##birth
Americans
EAR
alongside
VASCULAR
EARS
HEMATOCRIT
##net
WI
1.06
Tables
abortion
##OBALAMIN
##atern
cooling
##shot
delet
contrary
28.8
Fam
gem
MPS
28.6
Clostrid
transducer
0.22
arthroscopic
477.9
Dexa
immunosuppressive
Ethics
1.04
Taiwan
Stent
##oson
Severely
##yscale
larynx
Viet
Septal
landscape
##icates
ADEN
lining
shands
Mono
##eng
##rophysiology
##utable
IMD
##rices
propagation
tubulin
reality
Arrival
Carboxyhemoglobin
0–
CFU
Navy
##EMIA
Proc
##print
tachyp
retracted
##USH
Cardiomyopathy
dehydrated
Feeds
Afr
ulcerative
Ili
Mt
ALS
Coreg
##chest
phospho
bumetanide
convexity
##hedral
Catheterization
Suc
##ansoprazole
AFRICAN
CESS
gaining
milestones
reassuring
presyn
mas
##FAST
titrated
QHS
Coast
Opens
Radio
ips
communicating
##otoxin
citiz
Nr
blunting
tang
##medicine
Font
faced
segmentation
##OVENT
Delirium
PELVIC
Berlin
Lexapro
lowered
dyslipidemia
##itance
cleansed
##dy
Amlodipine
##ETY
##URS
Auscultation
##win
herbs
obstructing
251
##rogens
unders
DMEM
Minor
mission
FACTORS
replicate
##cha
Equation
ESTIMATED
arrangement
Jewish
vox
atomic
granulation
PROBLE
432
canonical
vulnerable
battle
PROBLEMS
ganglion
##OPRAZOLE
CESSATION
busPIRone
stron
haloperidol
Atlantic
1967
CU
ONC
Mas
Await
poop
goat
Russia
trapezius
ancient
stratif
GBM
Seborrheic
FOS
##aran
##aperone
genitourinary
Cannot
##place
##OCOBALAMIN
microenvironment
Feat
PROGRAF
34.4
Bx
Immediately
17.2
uncommon
temporarily
Hung
1944
26.9
psychotherapy
Container
PKC
attractive
##Th
CYANOCOBALAMIN
##381
BREAK
Ice
##imb
CORD
SULFATE
partition
##ABP
##aki
1530
##450
uninfected
Disintegrating
dietitian
silica
Experimental
Stenosis
SCR
Neutrophil
Pennsylvania
gated
FLOVENT
era
infiltrated
msg
Harr
tearful
CYT
INFECTION
##iD
similarities
GSW
lar
##ustachian
lactation
incompletely
##OA
Help
##OXone
incisional
nalOXone
WAL
##resia
infrared
##usting
behalf
RAS
aux
chambers
243
ly
##alping
ELBOW
Immediate
compressible
##lut
Cryst
##zz
adnexa
24.9
Bayesian
obt
##AXIN
Portug
Mail
##ho
horses
agonists
KR
##pe
adsorb
Brach
minerals
1948
##ensitivity
ward
assayed
##ifferent
Corporation
Nicotine
ionic
methocarbamol
cavities
UNA
warrant
projected
PORT
##ropy
crackers
stitches
ASP
cf
##asi
Drip
Remove
reinforced
carcinomas
arrested
Tam
##agnetic
MedQ
Adverse
friendly
elbows
ammonium
Simvastatin
##oultry
625
DOA
Phlebitis
carries
groundglass
fragmentation
Verification
Nut
428
HFNC
##oureter
cereal
bene
SUICIDE
246
HOW
Gle
##uda
posttraumatic
##IND
##PSH
morbidities
Far
96.6
1955
districts
00062
1010
##.07
Battle
addend
behavioural
##383
shallow
Leu
Rho
1959
titer
atlanto
Hamilton
fid
CENTRAL
HBs
AQ
Important
##DI
##idian
passenger
Irish
staph
investigational
##Put
25.9
stresses
brac
HDAC
Toradol
scrat
##olars
lordosis
##iments
medially
pager
VARICELLA
umbilicus
Din
scant
Lewis
##ynophagia
Nourished
articulation
Valley
reminder
dorsum
paged
temazepam
Quantification
implies
Cytology
visually
Aged
clade
leukocytes
##ERC
modify
replacing
ineffective
Immunohist
edu
rose
Medtronic
connective
282
bump
Ministry
adul
wells
##eclampsia
ANOTHER
FIR
wrists
ecl
GUIDANCE
ZOST
sufficiently
buccal
DEX
Video
1230
crop
##static
TRAM
neuropathic
Secured
solar
THEN
Levothyroxine
##Be
cone
REACTIVE
1045
1966
termed
officials
Dobb
##Ag
Implant
16.9
0.21
##asarca
DIET
zyg
herbal
conditioned
##YTE
Furosemide
VF
1958
975
Diminished
##reon
sleeps
SBO
hypoplastic
##IVF
obscured
Adults
Poland
strengths
Pancreatitis
242
##ogue
coordinates
##odilator
mu
traz
Components
emissions
##iclovir
##arters
JNK
angulation
Hon
anom
preserv
Cluster
Pc
kids
amylase
##omyces
damp
##KB
DILAUD
ubiquitin
##exor
envelope
##tainment
REMERON
##enem
JAX
##rastructure
DILAUDID
oligonucle
hyperactive
Diam
Ring
Dou
duplicate
Arab
##iterranean
anticipatory
PATIENTS
practitioner
Lent
freedom
squat
ald
scaven
##IFICATION
condyle
Sco
##angitis
descend
BKA
##backs
Features
phenylephrine
apo
sympathetic
BPs
0.43
1964
occasion
downregulation
Occlusive
electrocardiogram
creases
DISK
Hopkins
Biopsies
1055
##nesia
##kinetic
Cardiomegaly
EDV
1.07
1060
##ELY
soda
1.08
cascade
defeated
pruritus
Bruising
elevations
daughters
transluc
##KO
##oLONE
Virt
alfa
BUSP
wheel
Korean
analgesic
SVG
enema
BUSPAR
GASTROINT
compressive
##las
##string
##apular
alive
nig
incidental
cant
##uper
Rm
PPX
islands
##EGR
cow
##agre
0.48
##arenteral
dioxide
neurologist
##igibility
##ocyan
Technologist
1150
phenol
DEBRIDE
##lexa
PCOS
SITE
##20.2
1225
CLIA
CHRIST
##rys
##ptions
0.33
##hand
##stone
Respons
Preparation
##din
99215
Fred
##auses
leadership
##ettes
Neb
Pref
Forty
##eron
UTIs
NSAIDS
KC
lysine
##OCH
Hotline
##AI
railway
DEBRIDEMENT
·1
antagonists
1956
purpura
strap
264
hydralazine
SUPINE
occupied
nodularity
FOX
5.00
amelior
##ONST
shRNA
HAL
nonf
graduated
##etas
Blu
Via
DOX
cele
labile
Cambridge
0.13
affil
##vus
7.40
##FLOX
scrub
isoform
mixtures
Transferred
athletes
Tract
holes
antegrade
8.70
CCR
gelatin
mGy
##ilipp
Heartburn
polymers
ba
price
poisoning
Dobbhoff
attentive
nonlinear
cope
doubt
##idad
Lind
mononitrate
Myocardial
AORTIC
chip
objectives
1946
gaps
Minim
cyclin
##.14
##ompartmental
##OKOT
PHARMACY
##PP
19.5
SENOKOT
familial
CNM
Lie
Excision
##operamide
throwing
Irritable
competence
flood
gangrene
ketorolac
possibilities
tuberos
stack
electrocautery
90001
specialists
dystonia
duplication
artist
amongst
drape
celecoxib
Notch
##344
lotion
satellite
Som
Explained
##roni
Criteria
##hysical
Antimicrobials
##van
Modules
Gentamicin
transamin
506
##BAS
##orubicin
vertebrae
GASTROINTESTINAL
Referred
ABUSE
Capped
LCT
SARS
beneath
##ilia
##osum
Anticoagulation
extensors
HG
Dentition
OBTAIN
army
##rosthetic
Baptist
Babinski
0.14
Ivcon
##ogle
Transverse
delivering
Cycl
municipality
surfact
treadmill
Parliament
Tay
##stitutes
21.3
LANCETS
##ENOX
1111
bass
Shan
athe
Tartrate
430
Congress
Ale
hemodynamics
##ecia
Memorial
multifactorial
Hypercholesterolemia
thread
attitude
UPD
antihist
##oplasmic
1015
CMC
Interim
constitute
##atz
expend
substitute
lake
Volt
Propofol
CONFIRM
pointed
accidents
CoA
nephrot
##SCRU
pools
cin
inatt
cystitis
370
noting
rop
Earth
##ophosphate
dome
leptin
decompensated
##immun
##Pl
sleeve
##anguages
hypox
##tice
cups
##ulsions
1.11
Fundus
deeper
facilitated
1440
Swedish
Addenda
intellectual
circadian
rely
overw
Residents
Bol
99.2
Across
endorse
0.17
##ONEX
toileting
##wich
Isolation
parathyroid
257
walked
##ston
234
nov
INITIAL
hypercholesterolemia
Rashes
axonal
Calculation
uvula
allergens
0.34
FHT
STRIP
Apparent
Maker
underest
musculature
##edy
##ALEX
Roche
reproducible
phospholipid
anis
Pd
Master
mitotic
diagonal
##etheless
postcontrast
Numerous
##hent
##renorphine
Intraoperative
1.15
Inst
houses
discrepancy
##OLUS
Opportun
hierarchical
solve
discover
1.19
Hair
Vietnam
Vice
##ZOL
##atidyl
intraparenchymal
PTL
Dermatitis
pear
##azolin
##ride
weaker
problematic
##arel
cytosolic
evacuation
prednisoLONE
##Eat
PNEUMONIA
normotensive
WR
ectopy
commercially
Rod
##ois
superoxide
geographical
scaffolds
##ml
Swan
spirometry
Could
##terolateral
attendance
flows
fibrous
audible
Psychomotor
Genito
oxybutynin
MLO
WBAT
##MAL
##nexin
naloxone
##ellofemoral
superiorly
Hypertensive
16.4
Lord
dispersion
28.4
callus
mathematical
Contraception
sisters
Varicose
##onditioning
Ment
Boy
eti
Hospice
Understanding
GVHD
KB
NKDA
ventilatory
AAF
Mechanism
##ocor
##No
disorient
##ortisone
TRI
##bound
##ALEXin
GRAM
##Inc
248
Computer
nasopharynx
cephALEXin
este
##lette
cocci
Cover
##furant
1.13
##inflated
lamina
strongest
terminated
tre
BBC
stationary
influencing
##oia
HEALTHCARE
biventricular
355
Until
Auth
Triple
earth
reps
SPO
##estion
fur
Surround
rememb
circumflex
##anoprost
Nep
##accharides
##ogy
phenomena
satisfied
OVER
Mach
##efully
BILAT
atresia
periodontal
Mediterranean
##oetin
SPCOMBAS
hypotheses
Bulb
##clusive
hemolysis
EFW
finds
##SPEC
CVC
deleted
Recognition
HYP
PHQ
cocc
restaur
##iret
DSS
declare
##furantoin
ACTIVITY
Angio
DISKUS
tonsil
252
echocardiographic
##CEPT
LVS
leaders
99201
osteoc
Fire
##aturing
sono
##odrine
Topamax
acromioclavicular
hydrocodone
priv
##ratory
##istics
0.36
hematopoietic
249
tibialis
Stated
Spit
Cavity
##omine
Bovie
integrin
1.12
adenoidectomy
##yclonal
CRAN
RECE
neurovascular
EGF
immobilization
##IQUIS
Israel
stories
integral
antrum
supernatants
beers
ELIQUIS
olfactory
timeout
bothersome
##THY
swing
insects
fermentation
Nam
##draw
LVAD
##edullary
sending
pun
Acids
adequacy
matrices
##inquent
##ambda
ptosis
##XT
SUBL
Lyrica
##FEPI
##chond
##FEPIme
unemploy
constitutional
Meet
ceFEPIme
subpop
Neurontin
##eminal
CXCL
sons
Ane
eleg
flatus
unstead
impingement
Govern
MSSA
Cruz
resolves
resin
SELF
294
CHECK
##ARDIA
##days
1942
giant
Tacrolimus
Bonfer
Philipp
Outstanding
Crisis
epidemic
25.5
OSC
gest
aggression
MEG
orthostatic
authorized
disabled
460
1947
anterolisthesis
##astatin
bactrim
Cpdr
empirically
Pepcid
syndromes
charts
Haem
Clinically
Clostridium
FI
imply
pharyngitis
FORE
nad
MTT
Surv
17.1
##fig
17.0
##ocardium
discharges
XRY
Nu
##eclizine
Meningococcal
Engine
hypercap
##SM
observer
Tol
Download
IPR
dysarthria
##alproex
Original
hemi
##adequately
axons
postmenopausal
##iceal
DONE
BCR
Hong
FEVER
pand
oncologist
##ando
SUV
##gypt
cousin
anomaly
##3.3
Corn
depict
Quitline
##cein
covariates
##ASURE
ONS
##DD
effacement
filters
scratch
PPx
Compl
emphysematous
spite
21.8
addendum
PJ
COG
shortening
##ylated
Appendix
Surrounding
Thy
410
exponential
drawing
Palpable
##enh
trajectory
##onomy
Festival
390
hepatop
contraceptive
Bronchoscopy
##pn
cholangi
ChIP
arrays
decomposition
MELD
##REM
follicles
stressful
ars
Prosector
27.3
##ectoris
Septra
CDI
##ARED
##eller
impaction
Intubation
##IVALENT
0.16
Pure
##ecting
unav
Hor
Iris
LAPAROSCOPIC
Months
nest
##play
ace
reductase
1954
##olab
convenient
db
##EMIDE
restore
ILD
Perfusion
lign
contemporary
##ego
seb
Vertigo
landmarks
incarcer
desaturation
boluses
##umbilical
Satis
Identification
Kub
Clinicians
Ace
etoh
triceps
##assay
routes
caught
OINTMENT
Retic
poultry
photon
99310
99304
99337
99341
99350
Gauss
99324
##ortal
survived
metrics
chronicity
aerosol
Superf
Allow
##atinib
##yelocytes
29.1
CRT
PRP
attributable
brains
advent
1941
##othoracic
branching
borders
whilst
jail
34.6
##ragms
autonomic
UTR
substitutions
doi
##–20
719.46
24.5
EVD
thrive
weig
proceeded
clearing
##pen
lots
sternum
27.6
trabec
FOOD
##ANDOM
##ORA
23.5
CATARACT
nighttime
BAB
##rocardiac
diameters
rabbits
Egypt
##eptides
Encephal
odynophagia
neurotrans
##entional
keeps
Pressures
kick
consents
Bonferroni
substituted
frank
dealing
FSH
await
##opecia
Telemetry
fallopian
IDDM
1949
nare
1.14
##tening
bags
DASH
naming
proceeding
empiric
##omod
CAS
RAN
##ectar
ATG
fum
##osamine
reproduction
SIDE
27.8
279
lobectomy
tidal
neurodegenerative
Track
discontinuation
##ophorectomy
reassessment
pace
FHL
edematous
Rit
potency
Bands
situated
Dic
stranded
ppd
compensation
transfused
volar
Ott
Recd
##ducers
Senna
0.47
Counties
17.9
NITR
##leton
0.44
Anisocytosis
Alternatively
2130
##anium
flavon
Various
38.2
Plaza
LOVENOX
##philis
Cymbalta
##Blood
kD
cooked
Percussion
efflux
indirectly
##AMETH
scapula
271
maize
##aderm
FITC
exons
revis
Stan
differs
macules
##atectomy
1943
##uns
28.2
pound
2500
builder
Lack
1939
##iber
Binge
16.6
Bot
FEMUR
Suggest
Whether
##rilosec
incap
0.26
##gs
dysreg
protonix
loculated
BOY
Examined
Ascending
pseudoaneurysm
Amendments
##rometh
neuroforaminal
##ROXINE
villages
bruises
pedicle
##.73
Pets
##ABS
paraffin
##ador
GIV
glutamine
neurogenic
tries
##IOTIC
sibling
MMS
##uron
5.20
AED
hemangioma
0730
Airways
##lishing
aa
avid
##gering
##spinal
##rils
specialty
##heim
laxatives
tRNA
##dico
Albert
3.75
sharply
coal
##cell
fontanelle
rooms
Michigan
CXCR
Neut
Weeks
atmosphere
capabilities
behaviours
synovial
DEF
prohib
SPT
##organized
Lamictal
digested
meningioma
Helic
mA
HSCR
##THAL
vapor
echocardiography
stooling
gains
AVG
transvaginal
SCr
metap
stayed
Hsp
torsion
Switzer
##MV
Silver
PPV
Bones
soils
Guide
1952
Arrangements
##ineral
deletions
##chrom
quantities
20–
nucleic
CELLCEPT
stake
haplotype
##door
QTL
nonin
##olym
38.3
movie
pneumo
##verty
Tokyo
LEVOTHY
limp
employees
avulsion
adulthood
LEVOTHYROXINE
Distribution
##ruvate
##faction
glucagon
Sensitive
1951
splenectomy
0.42
##eut
oxygenation
Syrup
reflection
solely
##ioradialis
Interview
SCHEDULED
associate
purchase
1915
##inement
##Ws
Professional
cannabis
harder
protrud
Forward
flo
##mat
necessity
Fainting
pulp
postp
absorbed
inequ
Metastatic
modulating
Herpes
##okinetics
sutured
drank
unlike
THORACIC
NV
billion
competed
##OGEST
FLUIDS
incub
hemiparesis
1953
##azz
intr
clotrimazole
FUROS
##neas
Withdraw
LIQU
mercury
##ecubital
opposition
FUROSEMIDE
##iones
polymyxin
undetermined
mls
##bilirubin
##ryst
Celiac
##umbago
poverty
summaries
impedance
resusp
EOB
Tip
agency
FAX
motions
##olyzed
carbid
Biom
MDS
pati
##ivir
ic
TOF
Split
larval
TRAMADOL
lacunar
parac
motiv
Columbia
carbidopa
Lopressor
directive
Cornea
##RIX
16.8
Forest
1.40
malalignment
Treated
##eared
Ectopic
beds
Kong
TENORM
##olis
SNA
DEPAK
Planned
hydroureter
Atherosclerotic
TENORMIN
Hind
senescence
Automatic
Dur
UNIL
##umn
##iDONE
backward
Preop
IHC
prochlorperazine
spur
##Access
Genetics
weap
Assembly
BREAKFAST
descriptive
##ometers
Switzerland
##pd
VIB
##ods
Tyr
MDR
Begin
depart
inferred
sli
contribut
##nish
microw
CeleXA
polyclonal
Laparoscopic
Needed
MNT
disrupted
agarose
Jack
##trex
##ascial
Spoken
Supplemental
valgus
Depo
MONOCYTES
productivity
##–15
ligated
##otalol
acetabulum
##feed
RECEIV
##inin
TIBIA
brachio
violent
##astics
shadowing
Ambien
Polyps
artists
Ele
screens
mang
Allen
##bilirubinemia
34.7
##TRI
Cys
soak
Hr
27.4
join
Fle
languages
##ikacin
owing
ARB
Tukey
RPA
Irrig
pairwise
paranoia
AMPK
pneumatosis
minib
UNABLE
QUAL
consume
AUTOD
Heel
##abinoid
##unia
rubber
259
Caller
neglect
Str
.0
RCC
TOL
28381
heated
##ipot
priors
Delta
Instrument
1350
Fa
##onald
080
transporters
1630
Whitney
##unda
NASONEX
##phar
PCN
##fly
BOW
Fried
MEM
isn
VBG
1918
notion
RPE
fMRI
reader
##onatate
Toprol
##ILLIN
Phyl
Archer
##annel
##orrhagia
HFD
##abase
Surveillance
441
contracted
Dosage
NMSC
injectable
Diverticulitis
ROBAXIN
contexts
Depending
##jejun
0.31
Scotland
Kir
cerevis
famous
AUTODIFF
homeless
ABA
hila
##EMIR
Traz
modelling
Viscer
incentive
##affe
TEG
generations
EXTER
Adolescent
##imation
Radiographs
modeled
##ophyll
ADEQU
broader
reevalu
##7.
OBST
touching
##ESIC
Calibri
EQU
##erating
SGPT
0.004
Bart
030
salmon
Diaper
CONCER
acceleration
Puls
loperamide
DUP
281
excited
Epi
suggestions
##race
Tracheal
Antibiotic
MORPH
fenofibrate
spotting
##It
herb
diaphragmatic
NEXT
Dar
gadolinium
Virtual
##ieties
FFP
##.24
##bles
##irrhotic
IMDUR
MONTH
tsp
Adrenals
Residual
defective
##acher
confounding
490
denote
PGE
##acyl
##ipples
anticancer
PROGRAM
medull
Animals
stabbing
immunized
##110
Raman
34.8
Pulmonology
262
SECONDARY
##peritoneum
infiltrating
stance
bicycle
condoms
##irectional
##etasol
revascular
BEX
rendered
2030
Nexium
##ectorate
1963
WN
constants
##wa
bringing
inactivated
cerevisiae
psychologist
##okes
antifungal
diverticula
Gray
hits
##growth
##obetasol
BSO
invited
meg
Shell
aspirate
##ALIN
HSCRP
##onins
Symptomatic
BRB
##iser
LVM
Diego
Choose
Specialist
assumptions
sporad
filament
##odular
1.16
clinician
coreg
518
DDD
##HG
thecal
Stone
Kent
##roz
operational
##ainf
786.09
foster
##rent
exhaust
##away
enabling
##natremia
SRS
##leaf
pandemic
PREDNISONE
divisions
##oTRI
##oTRIgine
##rophot
artifacts
STI
folding
345
##onebs
##ML
##imodal
ENDOC
eccentric
cleaved
Palm
spher
##omide
Register
ABL
overs
tolerates
confrontation
Wd
Memb
Tympan
Accessed
enuresis
hemothorax
Edited
5.90
philos
Administer
zoster
sulfur
save
osteoarth
JAN
compensatory
fighting
platforms
Density
EGFP
breaths
Tel
286
cured
Ku
BEH
survive
##OCOL
##atted
##Rest
ttp
366
mtDNA
tolerable
##ttage
dyes
##erculosis
254
spikes
furniture
Immunosuppression
722
22.3
##occult
Nucle
oto
producer
Jersey
##–12
employing
##omatosis
aband
conducting
##ilify
##IZED
paste
earned
steam
protects
crossed
defining
ANIONGAP
##ATS
CLON
verses
##endronate
endovascular
62.5
NEUT
menopause
Nont
SAR
Neurop
randomised
##ORRH
Trad
vice
##opliteal
pharmacologic
##comp
287
disclosure
##ubstance
parat
synergistic
sarcoidosis
Prolene
photoc
Romberg
##GFP
trafficking
##adjuvant
##yclic
Vincent
sciss
Epidural
trazodone
cv
Restart
shoe
##raphy
Hips
19.9
freezing
graphs
Hoffman
Transfuse
##adel
arbitr
wise
Cz
Bradycardia
Stri
seedlings
100383
drying
flattening
Mortality
Anc
minibag
prime
Edipine
brachiocephalic
1962
Injur
Bilat
granulomas
TCV
Chills
microbi
##ANA
excursion
Colitis
Identifying
latanoprost
originating
ALCO
##afen
fate
circums
TROPONINI
fried
meropenem
perforated
##ationally
hurting
modifying
Addended
Amended
deformation
skill
##icine
habitats
lattice
Conditions
importantly
##ERIA
##IDENCE
dy
signatures
##iquet
statements
offs
EXTERNAL
##alate
Games
sts
risperiDONE
21.9
instrumentation
coiled
cathe
closest
ORF
##odont
Atorvastatin
Olympics
tonic
##oatrial
##HY
Eld
suffers
IMIT
346
##oderma
allergen
milrinone
scaph
Superficial
##YLE
Guidelines
Celeb
neighbour
IMITREX
wrapped
Breakfast
GIVEN
valent
fallen
##cs
EVALUATE
25.8
comorbidity
absor
mediating
termination
arthroscopy
probabilities
ETH
immers
Hart
##iprazole
thr
PANT
smelling
##amnosus
##aturated
OST
ipsilateral
##antom
peaked
dotted
##ilize
fuel
##osides
##RC
Singulair
concentrate
Scr
##Sign
Metam
##arctation
listing
RECORD
##cler
surrounded
coordinator
CAI
gras
Lob
client
clotting
POW
contours
1961
278.00
Intolerance
SaO
Ty
MEASURE
Anicteric
sacc
thalamus
trajectories
eos
PY
residential
concentrating
receiver
##keys
SPED
hypop
hypother
finasteride
tortuous
Swiss
tod
inhalations
##ungin
Dark
##odil
##cyt
##arterectomy
##All
Genome
interfering
thyroidectomy
pneumoperitoneum
semic
programmes
vegetable
microsp
perineum
COUNTY
Biography
780.52
fun
obviously
anne
##JOR
Overview
SIMV
488
##arching
MUL
##retol
tris
Native
##endar
Epigastric
786.2
Suppl
formulations
##PG
elucidated
28.1
rationale
impossible
##reth
Pent
Rounding
verification
phr
EVIDENCE
##BD
helical
unn
Ohio
Agency
editing
declared
diaphysis
centres
Saw
##pergillus
functionality
##ymore
LVESV
##oal
succeed
##ders
##mi
##ETINE
verapamil
35.3
authorities
antipsych
contiguous
Observations
Gradient
Practition
CLL
##war
univariate
##arine
diast
74.8
##ipated
Statin
WS
##UTANEOUS
##hemic
PANTOPRAZOLE
saved
Ideal
Episode
etiologies
510
oh
##lessness
antidepressants
batch
VH
##antib
##heresis
##NER
consolidations
AGH
euthymic
##atinum
39.9
ATCC
Protective
##rable
##CARD
ramus
irritated
indwelling
AOD
COMMENT
Fecal
##OXETINE
##urea
hopeless
comprises
99.8
RPM
##rains
mutual
Opportunity
DIT
Presents
560
Bor
##QD
CDK
dystrophy
shapes
secretory
hitting
destroyed
intrad
multil
##idemia
compact
309
MTP
DSM
archae
necrotizing
##esville
##Get
##zer
Refused
BABY
divalproex
##.26
evolve
##osanguinous
##IONS
27.7
thinners
##enzae
DECAD
aliment
buried
Psoriasis
##fet
victory
DECADRON
laid
Gaussian
eu
729.5
Extract
histologic
Nocturia
layering
Dehydration
26.7
overwhel
Hyperkalemia
Suicidality
hurts
Alf
joining
##ergent
##umination
immunological
##taining
ETC
proprioception
LCS
laxity
Replacement
Raj
Glyc
##arche
Reconstruction
##ansas
quin
incon
extinction
26.3
folder
Disturb
aur
pRBC
frustrated
Gn
argued
INSERT
epidermis
##atosus
Jx
PRESS
radiological
hyperkalemia
Worker
Bob
viscera
coordinating
ALCOHOL
realistic
retire
beb
0.41
grayscale
Driving
##||||
##Make
diures
diphtheria
Disk
##IZEM
##epartum
ureters
CARDIZEM
##rothel
stasis
BOWEL
Hears
NexIUM
Distended
sensations
fasciculations
mountain
Accept
261
##acids
faculty
##ighth
evap
Klonopin
caloric
PLEURAL
sequelae
QUANT
289
rotational
##iel
1115
##iplatelet
cook
mile
Fluticasone
REN
lately
Client
allocation
nml
pretreated
##calcemia
forth
##fulness
prey
##iaphragmatic
illustrates
spend
##matic
019
Annulus
SJ
Drops
jelly
##ensitive
Pharyngeal
peg
lamoTRIgine
##prick
##ilizer
duty
blindness
Lactobacillus
Pts
scanner
pronator
##25.5
1936
BDNF
debate
EPI
##bury
Touch
284
hidden
orifice
##ectives
##UK
ACh
Zhang
##atism
Holter
Fibrosis
parasitic
CER
Leukocyte
247
biotin
##Pro
weighed
RSBI
##uly
MAJOR
0.28
20.5
2101
repositioning
bootst
SUN
residuals
##SW
Syd
##BT
NOTED
DEPAKOTE
DICTATION
##osporin
Autism
haplotypes
Bony
angioedema
conjunctivitis
macroc
tobramycin
##.62
599
##AZA
##borne
foundation
neurosurgical
Thr
scaly
designee
Mand
intert
Yeast
clamped
rational
##iometry
thanks
overexpressed
epitope
Dev
preferentially
eukaryotic
##1.0
##urgery
Neither
heels
inferolateral
38°
DRESS
##ainfluenza
posted
Humu
dysmorphic
##EDING
FLAIR
##ieu
Vals
Hygiene
ribosomal
BEXC
PRIMARY
DON
268
##itional
HumuLIN
holidays
plexus
procedural
Gastrostomy
singer
UPR
##quart
Flonase
proinflammatory
advert
diskus
Lumbago
REPORTS
anymore
Bleed
timely
0.39
Duoden
PVCs
glial
Miller
##velamer
junctions
35.4
Documented
guns
##ENTA
Correction
HOLD
Trimester
acyl
coaching
LACTATE
competent
##ceeds
perineal
detectors
sentence
Carbonate
INH
BORDER
Database
weakly
AWAY
##chicine
Otoscopy
Andrew
HAART
Mah
##chers
technically
electrochemical
NFR
episodic
unaware
rein
elicit
False
retrocardiac
SCI
SON
##outheast
##ysate
Resume
phylogen
ethics
Nav
##stick
##atorade
GSK
TOD
canned
Phosphate
ROP
phleb
Incidental
GDM
truck
assure
##GEST
merged
counterparts
discipline
##epile
releasing
##nting
Brand
professor
Amylase
##ifed
PIN
pixel
engaging
TAVR
elab
ooz
Subjects
amenable
Yet
Acne
perceptual
mating
Oxim
positivity
Fas
WARF
##neath
Helicobacter
contacting
combat
LYMPHOCYTES
incorporating
pectoris
sales
768
kyphosis
spindle
PREM
officers
##jo
guitar
pages
##iler
thrombin
genotyping
##oxan
1938
negl
WARFARIN
Rpt
##anti
GASTRIC
CELEXA
icteric
breaking
translucent
coag
##rena
Dioxide
0.37
Cystoscopy
facilitates
ileal
##ignificant
overexpressing
ESI
Song
vomited
JR
1640
##ailability
##ROUS
tied
##orf
##ensit
diagnostics
millig
bumps
hered
outbreaks
CRIS
fibrotic
estimating
BCG
PQRI
intercostal
##ININ
Dani
PROBIOTIC
interpreting
##olent
Traumatic
308
undetectable
Postpartum
1450
divorced
##imetric
PROTOCOL
vasopressin
72.5
83.9
bariatric
##ALY
Sound
purity
##avier
ZOSTER
identifies
Foc
gradients
##ayers
CORON
##quel
TOW
Morr
Sugar
ESBL
Freq
NICM
##endocrine
Veget
Dependent
##com
Areas
##email
##oting
obstac
exacerbations
##itching
Trouble
CONTROL
mechanistic
##–3
cerv
oophorectomy
1937
socks
##naud
Prime
##omorphic
##ROPLASTY
reasonably
seats
SPECIMENS
Davis
##Le
STDs
thromboembolic
circumscribed
Genitalia
496
Gave
Prevacid
Bios
285.9
stars
THC
climbing
Valium
flares
Pier
##ALON
Fung
##derall
Inspired
Fos
WCC
Sample
riv
phleg
canceled
##AKER
axon
Deviation
##ENTS
telemedicine
doll
##etrical
mutagen
Redemonstration
##ionine
clavicles
##oxyp
minus
CHR
101.5
##PMH
Polyd
TROPININ
##cectomy
alanine
##olinergic
##oxylin
tard
interven
convert
NARC
arteriovenous
##riminal
##rites
ASE
Blurred
##rologic
Static
##hu
STAIN
neuroc
locking
##areunia
OGT
Chek
Cta
##itine
##160
relaxed
struck
deoxy
Championships
arrowhead
##afe
BLAST
##ROPAN
##alexin
##ischemic
BEHAV
263
1120
18.9
Synt
bronchiectasis
##clusion
DITROPAN
APPOINTMENT
reagents
Aneurysm
##lusions
##aris
DUPLEX
Congestion
Ulcerative
blockage
homework
appearances
##OIDECTOMY
Completion
prospectively
##ampin
opiate
Keratoses
Judgement
Oximetry
##EBRAL
voic
##ohex
extrapy
DEVELOPMENTAL
##.47
##sa
##yclomine
endothelium
Erect
gover
nylon
KLON
immunologic
hungry
##orphous
##TC
253
Sedated
##ozo
hydroxyl
##avil
21.5
KLONOPIN
completeness
eligibility
##oca
Digits
Melatonin
reproducibility
Orthotic
Medicated
girlfriend
Dietitian
Induction
##ZAC
graduate
Amiodarone
pir
23.9
chores
MSN
triglyceride
anticipate
RECEIVED
Feet
craniocaudal
Likewise
##IPIME
clonal
Queens
arach
odont
selecting
MAXIPIME
centrally
spiral
benzonatate
BEHAVIOR
Rhonchi
##.74
cipro
robotic
SPECTRAL
Which
1917
DOCUS
accommodate
Anorexia
Femur
##odiazep
##ingly
DOCUSATE
1020
Hospitalization
osteochond
arises
LAST
Plain
compensated
soaked
flexure
##YV
ships
hospitalist
##UES
Susceptibility
BBS
ortholog
##ampion
##hester
SPRAYS
broadly
tack
Hiatal
Passed
engineered
tearing
dirty
Healing
virtually
##graph
somat
Marrow
ove
bot
Nyst
abrupt
retroperitoneum
##aminergic
Way
##kt
Britain
Amt
Trit
Leave
taxonomic
Turk
funds
capful
besides
1.75
vitreous
dermatologist
##oxine
androgen
fabricated
FDR
##alva
##amel
11178
cancellation
Intermed
Bern
olive
##ATURE
##oxicated
minority
Mb
307
soybean
##isely
HepG
PLACE
OSMI
confer
0.19
Oint
##enth
Dorsalis
##ROVENT
WHEN
BORDERLINE
##ellen
FERROUS
ATROVENT
reprogram
partnership
##achus
mononuclear
TOC
##activated
granular
##itonin
UM
##uates
TESS
Compression
preeclampsia
##uten
##ijing
purulence
MRG
Cardiologist
poorer
coronavirus
chim
##nings
Colorectal
Spirometry
##opsoas
##DF
hearts
1.22
Atriptan
methodological
POP
outli
##ofenadine
preclinical
nonobstructing
synapses
neighboring
##bour
scapular
Taylor
CIT
myocardium
38.4
1935
Thorax
semantic
resuspended
bronchiolitis
Hemorrhoids
granted
tricompartmental
Barbit
ORTHOP
cbc
Nails
trypt
EXTRACTION
Zantac
staple
tower
##ERED
anasarca
##DU
amyg
Bad
##balanced
372
brings
##ongevity
FREET
alleviate
##HGBART
responders
carboxyl
BU
Indic
epileptiform
puede
##ummy
ECC
Qia
20.9
##–200
connecting
OMN
Benzodiazepine
SAS
##ezil
falcip
radicals
filtering
spanning
Entered
##aldehyde
##ochromia
##odiazepines
HAR
##verbal
underneath
fractured
immunoreactivity
CHART
##virus
collapsed
Haldol
PAL
17.3
##omastoid
Ross
Limitations
##osidase
GOOD
BMs
Pakistan
TST
##talgia
##epezil
Berg
##ige
##atriptan
Dependence
ketamine
glycosylated
Much
Spot
marital
##cycle
Francisco
Ontario
intramuscular
##ROPIUM
##ositol
negot
deployment
lysed
Podiatry
WILD
NAFL
cows
KT
##elvic
785
##omere
##itage
##ITATIVE
465.9
diplopia
cada
Stability
Multifocal
disordered
shifting
RANDOM
##GEN
##otyped
pollut
capped
chlamydia
Bedtime
Declined
Alexa
fruct
privi
2.25
traces
##TING
Close
##OBEN
fibrinogen
sor
pars
##metria
Gastritis
##ecan
Sad
17.6
1.020
geometric
Ethyl
investigators
conditional
100.2
1919
##respective
eighteen
prefrontal
sadness
longest
finishing
Trazodone
exertional
globally
##ITS
Prograf
VENTRICULAR
Reconstructive
##alcified
##imentation
Spear
##br
##reme
Correlate
##otrophic
epitopes
denoted
glandular
TRACH
Fungal
##IVERT
obstetric
Cyp
##apped
##imeters
Alexander
##STH
##arks
Dress
oscillations
PREVACID
STRO
NovoLIN
Raynaud
0383
0.003
IVH
checklist
##otor
abstinence
hepatopetal
mediolateral
##ELS
harming
neat
abduct
DPI
1.27
EZ
##emir
encompass
inspired
##arelto
WEIGHT
Ligation
univers
Edward
Donor
##unting
##PROGEST
##ghai
##ymet
##ousands
Game
tamoxifen
Lis
35.2
accidental
swell
##iplines
##cinate
caret
Census
ANTICIPATORY
Stopping
283
Bridge
antidepressant
3350
tumorigen
neoadjuvant
midodrine
##rimon
falciparum
pretty
Asymptomatic
originated
Tear
calvarium
dance
decompensation
##ilent
dul
wealth
impuls
Trivial
pointing
0.29
remarkably
##ISONE
##litaxel
##arsh
##ombs
##yly
KED
Civil
##rimp
RIP
1912
##unny
Pil
PEPT
subster
Debrid
vesicle
Taq
Sterile
bug
##entan
RHC
Xrays
peace
bedroom
##anna
acquire
##elfare
Condom
incorporate
Reglan
Ventricles
tech
URETER
Tot
LAC
TAH
glucocortic
##igmentation
nectar
medal
refuse
angio
ekg
smiling
Endorses
Yesterday
spell
Eliz
MALE
nitrite
repression
25.6
Love
##agland
cric
##ups
##pa
attach
receptive
##henyl
Gauge
ophthalmology
##breviations
eV
##ifen
Sevent
nitroglycerin
Building
NTND
##life
LIQUID
##aquin
##ortions
voids
Nik
Amber
entities
TOB
MIX
hgb
flowers
NURS
1.015
Sydney
DYS
cyp
NMDA
oldest
##activation
conductance
Depth
Toilet
refusal
FERR
##.17
##ocort
##WN
VITAMINS
exploring
TESSALON
##arging
Shunt
temple
STATEMENT
Beijing
Hemolyzed
Anton
entity
Benefits
##hop
Deg
digestive
MJ
FIRST
crew
##har
sto
##OXIN
Polit
##omatis
Cataracts
##idic
Democratic
##inoin
arousable
stratification
bupivacaine
definitions
ASCORB
ATRIAL
approximation
1830
Fab
##oples
basilic
calibrated
cars
1040
##orney
Wol
theme
spending
Polish
316
ranking
sacrific
##olisthesis
enrollment
##rocyt
269
antitumor
disadvantages
gallery
3.00
selen
incidentally
straining
##uum
Anthropometric
##ofascial
Dub
audio
##xual
Ban
seventh
commode
quadriceps
Fran
##FAZ
HK
noc
chel
phe
plated
Brazilian
##oriconazole
acknowledge
amplitudes
MIVF
Mol
Opening
Empire
eyelids
Uk
MODIFY
##iento
glenoid
sentinel
sips
Shots
Tak
staged
adoption
1320
RCS
bursitis
INTERVENTION
DISORDER
compresses
thoracotomy
Percutaneous
displaying
##eftaz
Cellcept
malfunction
mesentery
Markers
perinatal
AUS
syringes
troc
pestic
downward
DEGs
Effexor
fails
Ctr
NYHA
NAFLD
meclizine
##retinoin
sulph
Bum
Diagnosed
24.8
elast
Oak
waveforms
17.4
##aundiced
DETA
FING
Staph
BDEF
GIB
##econium
DRESSING
parametric
len
ou
transthoracic
cavoatrial
##vise
vote
pneumonitis
##otherapeutic
WILDCARD
##HPI
ovale
eclampsia
excitatory
CONCLUSIONS
voicemail
1910
Septic
DAT
isotope
TOR
Rotator
weighing
licensed
BENT
##abeth
##76.12
##ITIVE
draws
##omerase
904
syl
##igars
debrided
782
MULTI
99.4
##olism
blots
Meier
960
FERRITIN
##OVAN
thrill
har
Jeff
readiness
Polic
Dop
extrinsic
redundant
Fifty
Mari
indoor
enters
Bos
564
corticosteroids
##my
AVM
DEM
malt
ports
quantitatively
##ILOL
26.4
MHS
altering
##corp
symb
reconciled
races
CARVED
##iano
GRO
existed
isolette
offset
buy
STROKE
CARVEDILOL
VTI
DISPO
scissors
##fr
0530
QUADR
##itants
citizens
gather
Expectorate
SAF
teg
achievement
twisting
Online
Clonidine
chocolate
nipples
Plot
aquatic
Sum
1215
FLUORO
osteotomy
Cerebellar
Groom
soccer
Gil
loads
overhead
revascularization
batteries
##iosis
Shower
BSN
1.23
tank
##IOGRAM
##elli
WA
drainable
Tool
coastal
##oom
LVEDV
contag
##aprep
Cyanocobalamin
HU
lex
truncated
##osaic
plaus
sevelamer
huge
Separ
matters
beha
Victoria
Cochrane
budget
Tun
SLR
yellowish
Norway
representations
peritoneum
LEVEMIR
##arial
##chondral
Square
docking
chloro
Shanghai
ECA
rectang
surfactant
rubella
##VAR
pter
PDB
Vitro
biased
INDERAL
slowed
investment
Islands
##OUNDS
Argent
il
theta
JC
##chloroquine
flexors
BAND
param
relies
crops
##inase
##arium
Husband
timolol
phosphatidyl
belongs
eosinophils
persistently
amniotic
polyphen
Railway
1125
blankets
afferent
dysmetria
cro
##mo
Genes
SVE
PPO
ingredients
Sequence
Malays
unintentional
43.1
##OLONE
Monthly
puts
CYCLOBEN
##ZAPRINE
ASCORBIC
demographics
Qiagen
##otra
nemat
Massachus
execution
CYCLOBENZAPRINE
electrom
polymerization
remn
Hs
Dorsiflexion
##roids
HIT
SERIES
reformatted
ACA
FETAL
KE
MICROSCOPIC
Chin
##eperidine
Pleasant
finite
##oplatin
Abras
##ARTAN
35.1
tie
##aution
salping
Continuation
306
##QUIN
LARGE
founder
##aver
##igma
declining
pseudomonas
##riglycer
908
ARTHR
Mesent
Command
Spearman
10000
##TREX
Erectile
##onto
22.9
##ciences
BENTYL
myelopathy
elegans
computerized
WOUNDS
Existing
Software
##EMAKER
PLASMA
parties
ARIP
Pow
##can
##habdom
Debridement
Gainesville
##iformis
##istically
##GYN
Postural
38.6
toxins
realized
hypersensitivity
performs
pmhx
keppra
Gleason
pine
Opiate
##ogs
Gp
Apt
electrophys
##iy
obstructed
subcutaneously
1.93
voluntarily
LCx
spr
##valid
facilitating
Massachusetts
Express
Vagina
23.0
Humira
1–2
##ipase
##ropol
##–16
Liter
##holders
combine
96.4
Overweight
granulomatous
##OPT
officially
teach
24.3
##odamage
Agilent
##colax
bacterium
##enda
hourly
levophed
PACEMAKER
##bit
internet
##.28
participates
##ovan
##SK
1415
##bies
Pump
##Text
Ultra
##rimonidine
stockings
CQ
ANN
##orphy
##inois
spectrophot
programmed
Retrieval
TIT
##ishman
##342
##erator
STONE
##front
couples
diarr
outdoor
thoracentesis
salv
Deficiency
801
##anas
ZOV
##liptin
1.24
1145
##INARY
scientists
gat
diverticulum
mosquitoes
biologically
occupation
puberty
MDI
scrap
calculating
##obular
##cel
Prilosec
ridge
Distance
Cooperative
impulse
Oquel
argue
likes
FAS
##REASED
##bor
##angers
distilled
Turbinates
##VO
ZnO
##benz
MPA
SHOULD
betamethasone
premises
erad
Abb
1925
Statistics
PTEN
STABLE
energies
##acea
spherical
Indust
thousands
##pos
mock
0430
sparse
DWI
pushing
meantime
blanket
##EDIC
##ACOR
Nonetheless
##oseptal
Rac
ANV
##oparietal
##icade
Denmark
gru
IGG
granules
Modifying
Remaining
368
##holder
##type
Tanner
curettage
antiplatelet
1315
Clot
stoch
settlement
UO
hook
stereotactic
##.54
Doses
Electrophysiology
##IRAX
ZOVIRAX
backbone
##Lim
RADIOGRAPH
##–17
listen
angular
agencies
encephalitis
##opus
267
sial
Nrf
lanc
23.3
Reduced
Wilcox
hereditary
Dual
##TY
reciprocal
Perf
Photo
grandparent
##ees
Buff
LIVE
PAXIL
Desirable
mining
##115
##ulae
Flovent
reevaluation
racial
augmented
##figure
NCT
Biosystems
dicyclomine
Employ
Glas
reliably
##neu
climb
solitary
##reotide
scholars
Insufficiency
albums
Enterococcus
preservative
TPA
surviving
stabilize
##ALATAN
##doors
XALATAN
wished
bioav
faecal
Req
ASAP
acupuncture
##ibe
OPHTHAL
miralax
##ulture
RCTs
demineral
Eng
ENDOCRINE
Nuchal
silicon
Nit
Suspect
Aspergillus
distressed
Lang
Polydipsia
PARP
PRESSURE
LPA
##tz
Paperless
ARTHROPLASTY
Sharp
osteoclast
1550
Eval
##inking
##ottis
nested
dividing
peritonitis
BRBPR
infertility
FOUR
LAESV
3.80
informal
BUM
como
ethylene
listening
DIOVAN
neuros
crash
Operations
amt
##aseous
Measured
bab
intelligence
Triton
Bax
waning
lymphedema
Doc
splice
##AVIRUS
triggering
SINE
irrevers
strictly
Gab
JAK
dosages
parenteral
##dur
Business
Sox
departments
multiplex
Kal
elections
esteem
glycine
##indrone
averaging
mediates
towels
tachypneic
sensitivities
Grooming
urothel
expanding
synovitis
NEU
pericardium
455
subtract
developments
catalyzed
sod
##romorphone
tinged
##ETIA
##ipe
Lane
THAN
PMA
multin
introducing
Intestinal
Neoplasm
medicament
Breasts
##vera
yielding
encode
globe
##ocutaneous
hypoglycemic
diuretic
gravid
pellet
continually
generates
EXERC
predicts
##ulpt
commitment
Schizoaffective
Glc
ambulance
##igines
244.9
Hab
##rethindrone
Whereas
##moid
##leaflet
replete
noises
CORONAVIRUS
TODAY
##yse
CRISPR
##ostat
substernal
##omically
FEMALE
opiates
##icept
SHORTNESS
erythematosus
cereals
Peptide
BUMEX
moiety
transiently
ALLE
FLAT
restraint
laparoscopy
##uming
##iretrov
##ubric
cave
blinded
shampoo
Folic
Poss
medicinal
phototherapy
EAC
precisely
FOLIC
##LV
striatum
monocyte
##opolys
DCIS
bioin
owner
##IZATIONS
paraf
formally
Illinois
negligible
hematologic
Slowly
maneuver
Carcinoma
##otroph
pyruvate
Multid
ABIL
ingested
contraindicated
7.30
ole
moistur
Microscopic
Scottish
GROW
troops
NURSING
hyperthyroidism
##litazone
definitively
##bicort
##rathecal
MILD
peptic
expertise
Cart
Sacral
##yses
MSW
Walls
warmer
PRED
Simple
Org
Horm
housed
1.32
##atia
Dif
overse
Bis
lessen
HRT
gunshot
VALTREX
##RACE
determines
##ypan
ROI
implementing
marking
metoclopramide
ANVPS
##stitium
Angina
whereby
allocated
CJ
454
25.4
##adelph
LCSW
Tuberculosis
##Medic
##uries
MISCELL
groove
unsteady
##inopathy
Methotrexate
Regimen
theories
abusive
1914
awakened
MISCELLANEOUS
##agnes
Haemophilus
hydrophilic
peanut
clients
##KS
25.3
ABILIFY
erosive
Percentage
Procedural
preserve
EDEMA
Frailty
inspected
##iman
333
24.6
##cerebral
inhalers
90001.001
Speed
##ZOLAM
Vul
##ilated
FG
grab
Toileting
Tibialis
1140
Deformity
manufacturing
carboxy
##OPRAM
council
mucositis
Educational
Sher
##iac
Harv
##iphasic
porous
cultivated
##obile
sight
##ovastatin
newborns
Rif
pitch
microbiome
biomedical
##eit
curved
MSM
FOLATE
BOTH
##orbital
##onad
##TRATE
disulf
Demerol
promise
deeply
Muslim
detrim
1933
interior
17.7
Dilt
coherence
CIWA
longevity
Contiguous
1.26
intrasinus
fluocin
1.35
##unctional
neonates
actor
clears
calcaneal
Jean
27.1
Writing
distraction
##luct
bubble
calcaneus
##iden
415
##ycling
oint
jaundiced
injurious
Plate
reticulum
##omyc
ecosystem
##ezes
##ipril
GLOVE
##oea
FN
Dye
autosomal
##400
##riglyceridemia
##omorph
historic
##ICA
##neur
Batter
hypokinetic
TUNN
Golgi
Phe
outdoors
Jon
##idime
Coughing
Barbiturate
##odend
##LS
Creek
calendar
##4.01
##oco
##habdomy
neomycin
neutropenic
##urane
##hew
LEVA
##roleum
follicle
lozen
repeating
##azol
concordance
Abst
GGT
Circumcision
##ancreat
synthroid
Neo
MINERAL
Registered
##agg
EFFUSION
17.8
COMPAZINE
##comm
toothb
buprenorphine
##QUEL
##ucation
NPC
analgesics
flushes
penal
INTR
intramedullary
Biotechn
##bell
recieved
Supporting
##cef
devoted
##dala
curric
inversely
derive
symbols
dropping
successive
OAK
DAV
Applic
Beach
##ypass
##formatics
desats
emphasize
ADC
Rog
1916
Wolf
##entorial
Nl
23.8
Alternative
INTERNAL
Ell
709
Inn
1025
1730
##ecrosis
histamine
intoxicated
ileo
leisure
##IGEN
LEVAQUIN
radicular
DDS
descent
spits
##echanical
graded
disappeared
WP
GRE
##uble
Lashes
##OPATH
snow
##ipore
cultivation
Egg
license
slept
colace
monomer
antacids
Popliteal
mere
GROWTH
##gulation
Meropenem
oob
congested
crown
deltoid
##uretic
Minimally
640
subchondral
NOW
AKA
Selective
##ucl
50.0
orthopaedic
perspectives
##INEX
42.5
crust
SIRT
##ofovir
##6.2
nephritis
Symmetrical
ful
doxorubicin
Indones
miscarriage
##uler
rhiz
epicardial
##rasounds
Abn
Mask
Durable
585
lncRNAs
##yrate
extrapyramidal
Intermediate
1345
##ishing
Experiments
enhancer
electrons
Performing
naps
wasn
Focus
##EXT
ascertain
chit
IABP
ventilated
SPF
disabilities
Macro
Sj
Philadelph
Technician
manag
streak
Claudication
2150
##BA
CRRT
thromboembolism
##elast
inorganic
SEVER
toen
Fibrillation
cT
differing
baseball
##idge
25.7
detemir
Docusate
infrarenal
##hythmia
solubility
LAPAROSCOPY
NCBI
counselor
Irrigation
334
##FAZolin
1–3
womens
##cam
##astern
##ophytic
capsular
##inth
ceFAZolin
##ht
irrespective
##antine
accumulate
BLUE
sporadic
precordium
cocktail
eaten
stead
ductus
phenolic
##iitis
continent
Biopsied
gastrectomy
##App
Prince
##ych
Cube
warming
Epinephrine
1515
##relipase
Roux
DRAINS
proteasome
expenditure
##IPEN
Md
DERM
MPH
EQUIP
cheeks
##tol
##ohexol
##IDEX
bioactive
apartment
ANUS
df
LIQD
dishes
##legia
cataracts
Normalized
lopressor
1850
##ULS
##lon
unavailable
##eman
Publix
naive
Expert
Mun
simplex
solumedrol
torso
Aerobic
Sedimentation
OBGYN
RBB
Fontan
hemispheres
##0344
Addiction
OCC
Nine
silent
dying
NFRMC
PROZAC
Shellfish
Adjusted
corrob
DUE
Exhib
##rodesis
Withdrawal
carn
Authorization
HUV
##argo
CHOLECALCIFEROL
reluct
Elastic
##iagnostic
pinprick
Edu
ensuring
dorsiflexion
##125
selections
18.8
acellular
##idis
UBW
Apical
VRE
indef
462
methylated
Legally
forests
misuse
multivariable
##enders
Guard
##jejunostomy
Sert
lute
1934
AVAIL
##iride
314
solo
Melt
antenatal
reinforcement
Resection
EH
##Cont
##match
##003
Descript
Leak
Tal
brushing
##Place
SERO
beef
invari
##olescence
QOL
metapl
TEACH
##osporine
##gow
Vista
canine
plt
##MD
Bud
clobetasol
Ethi
attracted
fibroc
neurotransmit
##istar
##ACIN
longstanding
symptomatology
DTRs
##ohydrate
Celebrex
##erations
Nephrolithiasis
TRIMETH
Herein
Mam
18.6
antepartum
favour
usefulness
EXPLOR
DETECTED
Flexeril
sorted
##rEF
gift
QS
Wks
Dext
23.6
PERFUSION
indist
encounters
noticeable
immunostaining
til
1929
##igg
rounding
ATN
stably
Inguinal
Descending
twins
##icylate
##itrile
endobronchial
Emerson
wast
circumcised
525
Anthropometrics
dut
EFFECT
Maximal
Insertion
Hypom
Simps
##ridine
donepezil
tu
1911
Pantoprazole
470
offices
immunoprecipitation
##hl
Combined
Disability
PEPTIDE
##fib
##ogeneic
calvarial
TRIMETHOPRIM
312
##ERITONE
dengue
##oping
Compet
encouraging
NASH
Gonorrhea
ERG
780.79
amygdala
Etiology
ICC
busy
##ritical
travers
.5
Mexican
Smad
##fs
[...]
